<unk>	0
<s>	0
</s>	0
▁and	-3.54778
▁i	-3.6305
▁the	-3.81652
▁to	-3.8532
▁my	-4.04255
▁me	-4.375
▁a	-4.41067
▁of	-4.51419
▁in	-4.55539
▁account	-4.73855
▁that	-4.7503
▁is	-4.77626
▁"	-4.82011
▁he	-4.82156
▁amount	-4.82613
▁from	-4.83241
▁they	-4.83241
▁on	-4.90718
▁for	-4.91252
▁this	-4.9381
▁bank	-5.00627
▁no	-5.02422
▁number	-5.10272
▁was	-5.11878
▁but	-5.24521
▁please	-5.25692
▁money	-5.26288
▁call	-5.28448
▁have	-5.29777
▁it	-5.30197
▁fraud	-5.3457
▁rs	-5.40947
▁not	-5.41284
"	-5.52941
▁after	-5.53339
▁then	-5.57936
▁so	-5.58277
▁you	-5.58393
▁total	-5.58697
▁are	-5.60016
▁or	-5.61925
▁pay	-5.62136
▁as	-5.62473
▁phone	-5.63273
▁card	-5.63755
▁by	-5.67039
▁got	-5.72198
▁with	-5.75016
▁sir	-5.75518
s	-5.79372
▁person	-5.80981
ing	-5.82007
▁area	-5.82853
▁help	-5.83533
▁id	-5.84065
▁through	-5.88414
▁will	-5.88519
▁time	-5.88807
▁at	-5.90587
▁name	-5.90756
▁take	-5.92049
▁loan	-5.93393
▁all	-5.9513
▁app	-5.96722
▁am	-5.97648
▁some	-5.9995
▁action	-6.01648
▁more	-6.05311
▁mobile	-6.06706
i	-6.0802
▁asked	-6.09024
▁se	-6.1155
▁details	-6.12325
▁even	-6.12554
▁hai	-6.12815
▁which	-6.13654
▁them	-6.14786
▁whatsapp	-6.15034
▁complaint	-6.15762
▁said	-6.16192
▁has	-6.16396
▁ki	-6.17055
▁also	-6.21721
e	-6.21964
▁one	-6.22177
▁payment	-6.22722
▁transaction	-6.24478
▁send	-6.25572
▁its	-6.26628
▁their	-6.26925
▁she	-6.28211
ed	-6.28234
▁his	-6.28244
▁mall	-6.28765
▁	-6.29184
▁received	-6.29981
▁be	-6.30632
▁do	-6.32259
▁ke	-6.32715
▁him	-6.34262
▁upi	-6.34462
▁like	-6.36483
▁told	-6.3747
▁video	-6.38988
▁any	-6.39037
▁few	-6.39723
▁email	-6.41184
▁we	-6.43173
▁ka	-6.46064
▁credit	-6.4627
▁victim	-6.48332
▁now	-6.4868
▁activities	-6.49082
▁message	-6.49331
▁an	-6.49672
▁necessary	-6.4985
▁online	-6.50072
▁link	-6.53015
▁shamefull	-6.53271
▁garia	-6.533
▁many	-6.54241
▁had	-6.54996
▁your	-6.55506
▁called	-6.58677
▁pm	-6.58759
▁hold	-6.59122
▁when	-6.59735
▁contact	-6.60004
▁get	-6.60065
▁paid	-6.60233
▁everything	-6.60839
n	-6.61479
▁such	-6.62237
▁sent	-6.62386
▁doing	-6.62676
▁people	-6.62835
▁date	-6.64875
d	-6.65784
▁out	-6.66627
▁google	-6.67763
▁been	-6.67853
▁about	-6.68641
▁sbi	-6.69028
▁ac	-6.69362
▁asking	-6.69788
▁reverse	-6.69903
▁very	-6.70256
▁back	-6.70584
fraud	-6.71191
a	-6.71822
▁issue	-6.71851
▁can	-6.7213
▁request	-6.73465
▁there	-6.7449
▁mere	-6.74693
▁facebook	-6.76269
▁know	-6.7722
▁kar	-6.77302
▁did	-6.77817
hat	-6.79167
▁park	-6.79565
▁started	-6.79651
▁involve	-6.80833
▁places	-6.8141
o	-6.82143
▁using	-6.84511
▁last	-6.84559
▁fake	-6.84955
▁customer	-6.85403
▁otp	-6.85936
▁h	-6.86415
▁india	-6.86426
▁again	-6.8662
▁how	-6.87347
▁against	-6.874
▁ko	-6.87797
▁dont	-6.88818
▁rupees	-6.89725
▁pe	-6.89864
▁same	-6.92718
▁refund	-6.92721
▁up	-6.9301
▁code	-6.93089
▁want	-6.93249
▁came	-6.9391
▁if	-6.94549
▁tried	-6.96773
▁paytm	-6.98857
r	-6.98865
▁aur	-6.99448
▁days	-7.00023
▁her	-7.01124
▁kiya	-7.02274
▁company	-7.02595
▁because	-7.02887
▁care	-7.02928
ly	-7.0306
▁just	-7.03689
▁need	-7.04728
▁debit	-7.05365
▁lost	-7.07501
▁matter	-7.0758
▁kindly	-7.081
▁who	-7.08106
▁give	-7.08324
▁debited	-7.08552
▁us	-7.0859
▁years	-7.1012
▁employee	-7.10147
▁calling	-7.11001
▁evening	-7.1144
▁website	-7.12326
▁other	-7.12755
▁work	-7.14436
▁address	-7.14783
▁women	-7.16342
▁transfer	-7.16966
▁working	-7.17422
▁blackmailing	-7.18811
▁messages	-7.19539
▁above	-7.209
▁saha	-7.21234
▁our	-7.21317
▁th	-7.22567
▁subhr	-7.2261
ropolis	-7.2262
▁k	-7.23437
▁made	-7.23704
▁done	-7.25434
▁blocked	-7.27497
pur	-7.2784
▁tha	-7.27856
▁family	-7.28213
▁friend	-7.28218
▁mujhe	-7.29198
▁ne	-7.29644
▁threatening	-7.299
▁were	-7.30269
▁saying	-7.30836
▁friends	-7.31134
▁par	-7.31723
▁instagram	-7.32149
▁day	-7.32287
▁anymore	-7.33071
▁fix	-7.33344
▁first	-7.3459
▁make	-7.35274
▁social	-7.36535
y	-7.37313
▁order	-7.38278
▁job	-7.38534
▁later	-7.38712
▁t	-7.39985
▁detail	-7.4034
▁these	-7.40902
▁liye	-7.40907
▁ek	-7.41629
▁media	-7.42103
▁someone	-7.42282
▁today	-7.43619
▁pan	-7.43841
▁getting	-7.43902
▁numbers	-7.4418
▁office	-7.44391
▁kr	-7.44451
▁right	-7.44478
▁complain	-7.44677
▁utr	-7.4472
▁didnt	-7.45109
▁unknown	-7.45211
▁stange	-7.45744
▁calls	-7.46641
▁pin	-7.46765
▁accounts	-7.472
▁happened	-7.47626
▁sending	-7.47649
▁ho	-7.47672
▁application	-7.48423
▁only	-7.48918
▁karta	-7.49632
▁st	-7.49942
▁attached	-7.50125
▁sms	-7.5036
▁information	-7.50567
▁inform	-7.51014
▁ab	-7.51353
▁given	-7.51691
▁where	-7.52049
▁state	-7.5205
▁problems	-7.52434
▁locked	-7.53272
▁taken	-7.53282
▁maine	-7.54212
▁kumar	-7.54559
▁bhi	-7.54887
▁fell	-7.55057
▁apart	-7.55781
▁password	-7.5606
▁fir	-7.56119
▁isnt	-7.56399
▁hacked	-7.56905
▁into	-7.572
▁contacted	-7.57389
▁cyber	-7.58243
▁think	-7.58697
▁mera	-7.59417
▁ifsc	-7.59798
▁cant	-7.60004
▁aaya	-7.60122
▁transactions	-7.60244
▁things	-7.60777
▁cash	-7.61155
▁different	-7.61835
▁deducted	-7.62151
▁look	-7.62258
▁insurance	-7.62356
▁ask	-7.62661
▁near	-7.62669
▁took	-7.62779
▁mentioned	-7.63315
▁night	-7.64378
▁suchna	-7.6489
▁times	-7.65096
▁without	-7.65194
▁several	-7.6521
▁bola	-7.65239
▁pass	-7.6552
▁diya	-7.65967
▁paise	-7.66082
▁photo	-7.66618
▁suspect	-7.66653
▁stop	-7.67049
▁return	-7.67217
respected	-7.67825
▁shared	-7.68189
▁another	-7.68334
▁rd	-7.68405
▁im	-7.68634
▁contacts	-7.68988
▁update	-7.69012
▁share	-7.69053
▁bad	-7.69142
▁receive	-7.69476
▁mail	-7.6951
▁nahi	-7.70229
▁track	-7.70476
ge	-7.70964
▁jan	-7.71549
▁add	-7.71998
▁investigate	-7.7206
▁nhi	-7.72277
▁dal	-7.72279
▁shopping	-7.7245
▁regarding	-7.72871
▁immediately	-7.7373
▁feb	-7.73774
▁innocent	-7.74783
▁due	-7.74937
▁serious	-7.75361
▁use	-7.75865
▁running	-7.7591
▁product	-7.75938
▁phonepe	-7.7625
▁banking	-7.76262
▁hospital	-7.76268
▁police	-7.76344
▁check	-7.76525
▁per	-7.7685
▁froud	-7.77146
▁lodge	-7.7715
▁met	-7.77784
▁gave	-7.77898
▁ps	-7.7803
▁financial	-7.78338
▁msg	-7.7892
▁thought	-7.79004
▁long	-7.79164
▁giving	-7.79221
▁branch	-7.79244
▁two	-7.79361
▁trace	-7.79379
▁felt	-7.7946
▁ye	-7.80111
▁trapped	-7.80151
▁ive	-7.80295
▁behind	-7.80987
▁liya	-7.80996
▁dirty	-7.81476
▁block	-7.81479
▁soon	-7.81517
▁since	-7.8172
▁afternoon	-7.81899
▁ex	-7.82959
▁floor	-7.83176
▁kolkata	-7.83177
▁female	-7.83768
▁usne	-7.83807
▁used	-7.84219
▁suffering	-7.84335
▁service	-7.84443
▁something	-7.84691
▁bag	-7.85008
▁list	-7.85209
▁raha	-7.85215
▁m	-7.85576
▁strange	-7.86643
▁crime	-7.86708
▁reliance	-7.87334
▁would	-7.87334
▁next	-7.87523
▁transferred	-7.87636
▁easily	-7.87782
▁outside	-7.87933
▁fraudulent	-7.87966
▁before	-7.88046
▁hari	-7.8805
▁profile	-7.88096
▁atm	-7.88446
▁trying	-7.89088
▁building	-7.89103
▁thakur	-7.89404
▁forcefully	-7.89404
▁forum	-7.89479
▁well	-7.89533
mall	-7.89692
▁ahmed	-7.89704
▁found	-7.89717
▁off	-7.90272
park	-7.90367
▁beside	-7.90437
▁hi	-7.90708
▁rash	-7.90864
▁trend	-7.90937
▁lake	-7.91019
▁hindustan	-7.91206
▁hdfc	-7.91206
▁datta	-7.91245
exide	-7.91351
sba	-7.91358
roni	-7.91426
street	-7.91476
▁circu	-7.91515
▁rabindra	-7.91633
▁ruby	-7.91633
zaz	-7.91672
▁jadav	-7.9171
devpur	-7.91722
▁possible	-7.91752
housi	-7.91754
sadan	-7.91765
anade	-7.91786
▁elgi	-7.91789
pukur	-7.91827
▁anirban	-7.91827
behar	-7.91827
▁quest	-7.91862
▁hdfclife	-7.91866
▁saltlake	-7.91905
▁tollygun	-7.91905
▁triangula	-7.91905
▁bansd	-7.91905
▁espl	-7.91905
▁behala	-7.91906
▁bally	-7.9191
gung	-7.92163
mlan	-7.92248
▁mai	-7.92292
▁click	-7.92507
▁while	-7.92771
▁maida	-7.93233
dear	-7.93976
▁still	-7.94115
bbd	-7.94274
▁kyc	-7.94452
▁nude	-7.95346
▁wrong	-7.95585
▁photos	-7.95683
▁aap	-7.98024
▁jok	-7.98264
▁caller	-7.98271
▁meri	-7.98454
bazar	-7.98691
▁provide	-7.98895
▁plz	-7.99014
▁army	-7.99308
sakher	-7.99642
▁named	-7.99648
▁jo	-8.00462
▁too	-8.00479
▁site	-8.00635
▁via	-8.01166
▁never	-8.01197
t	-8.01512
▁gya	-8.01726
▁hu	-8.01822
▁support	-8.02271
▁download	-8.02404
▁de	-8.02433
▁informed	-8.02679
▁internet	-8.02857
▁icici	-8.02979
▁olx	-8.03298
▁personal	-8.03624
▁already	-8.04123
▁going	-8.04477
▁could	-8.04492
▁singh	-8.04827
▁rupee	-8.05103
▁should	-8.05112
▁mob	-8.05119
▁rha	-8.05278
▁post	-8.06138
▁girl	-8.06586
▁incident	-8.08603
▁pr	-8.08671
▁mene	-8.08777
▁official	-8.0897
▁qr	-8.09231
name	-8.10015
▁pls	-8.10434
▁uske	-8.10646
▁whats	-8.10838
▁clicked	-8.11316
▁screenshot	-8.11513
▁than	-8.11571
▁fraudster	-8.1176
▁knew	-8.12238
▁group	-8.12549
▁regards	-8.12674
▁u	-8.12794
▁normal	-8.13697
▁aadhar	-8.13835
▁new	-8.14433
▁much	-8.14558
▁credited	-8.1481
▁cheated	-8.15039
▁karne	-8.15049
▁data	-8.16926
▁provided	-8.18053
▁chat	-8.18511
▁gaya	-8.18603
▁opened	-8.18624
▁process	-8.19014
▁start	-8.19093
▁suddenly	-8.1932
▁wo	-8.19481
▁open	-8.19587
▁thank	-8.19739
▁cut	-8.20045
▁around	-8.20568
▁anything	-8.20657
▁say	-8.21633
▁wasnt	-8.219
▁rahe	-8.22776
▁usual	-8.23114
▁baad	-8.23561
▁advance	-8.23987
▁showing	-8.23997
▁inr	-8.24512
▁what	-8.249
▁frauds	-8.25203
▁tell	-8.25326
▁find	-8.25589
▁un	-8.25785
▁requested	-8.26333
▁delivery	-8.26399
nt	-8.26469
▁report	-8.27035
▁wallet	-8.27405
▁case	-8.27476
▁problem	-8.27625
▁months	-8.2767
▁part	-8.28129
▁mr	-8.28628
▁hard	-8.28709
▁keep	-8.29004
▁scam	-8.2901
▁upload	-8.29231
▁team	-8.29313
▁koi	-8.30078
▁laptop	-8.30871
▁screen	-8.30874
▁deposit	-8.31215
▁paisa	-8.31283
▁youtube	-8.31476
▁documents	-8.31476
▁being	-8.31789
▁ananda	-8.32372
ne	-8.32442
▁theft	-8.33094
▁thing	-8.33325
▁page	-8.33637
▁registered	-8.33846
▁related	-8.34277
▁file	-8.345
▁receiving	-8.34513
▁sharma	-8.34594
▁search	-8.34807
▁till	-8.34998
▁further	-8.35149
▁indian	-8.35283
he	-8.35912
▁hua	-8.36056
▁father	-8.36423
▁change	-8.36549
▁abusing	-8.36783
▁main	-8.36916
▁delhi	-8.37236
er	-8.37282
▁s	-8.37339
▁sath	-8.38748
sir	-8.39106
▁happen	-8.39391
▁saw	-8.39755
▁come	-8.39824
▁january	-8.39906
▁response	-8.40441
▁over	-8.40548
▁morning	-8.41301
▁notification	-8.41321
▁guy	-8.41632
▁n	-8.42728
▁g	-8.42817
online	-8.4291
▁portal	-8.43128
▁anydesk	-8.43172
▁offer	-8.43283
▁hack	-8.43325
▁form	-8.43366
▁dist	-8.43547
▁making	-8.43765
▁bol	-8.43785
▁really	-8.43914
▁suchnakrta	-8.44616
▁nd	-8.44653
▁balance	-8.44748
▁sure	-8.44886
▁na	-8.45158
▁ordered	-8.4554
▁here	-8.4565
▁baroda	-8.46148
▁trust	-8.46213
▁though	-8.46649
▁dear	-8.4676
▁home	-8.47374
▁looking	-8.47502
in	-8.47558
▁within	-8.47822
▁pese	-8.47914
▁invest	-8.47994
▁apps	-8.48529
▁recover	-8.4861
▁frauder	-8.48739
▁show	-8.48915
▁including	-8.499
▁relatives	-8.49941
▁everyone	-8.49972
▁aya	-8.50029
ur	-8.50088
▁reason	-8.50178
▁actually	-8.50336
▁yesterday	-8.50612
▁nagar	-8.5084
▁login	-8.51056
▁created	-8.51575
▁videos	-8.53021
▁loss	-8.53215
▁user	-8.53266
▁put	-8.53274
▁mental	-8.53289
▁nothing	-8.5346
▁needful	-8.53464
▁withdraw	-8.53899
▁reported	-8.5397
▁bar	-8.5407
▁fee	-8.54378
▁activity	-8.54384
▁kuch	-8.54616
▁station	-8.54709
▁dhani	-8.55058
▁go	-8.55246
▁ago	-8.55458
▁demanding	-8.55478
▁wife	-8.55624
▁purchase	-8.55795
▁buy	-8.55907
▁krta	-8.55952
▁amazon	-8.56029
▁telling	-8.56548
gmailcom	-8.56751
▁enter	-8.56785
▁checked	-8.56924
▁late	-8.56945
h	-8.57494
my	-8.5779
▁business	-8.57869
▁rhe	-8.57966
▁gye	-8.58104
▁store	-8.58119
▁logged	-8.58169
▁karke	-8.58579
▁text	-8.58684
▁face	-8.58953
▁blackmail	-8.58954
▁platform	-8.59051
▁telegram	-8.59082
▁changed	-8.59559
▁invested	-8.59594
▁entered	-8.59726
▁reference	-8.59765
▁feel	-8.59879
▁scan	-8.60118
▁able	-8.60416
hi	-8.60555
▁repayment	-8.60801
▁completely	-8.61239
▁pincode	-8.61249
▁taking	-8.61285
▁unhone	-8.61322
▁delete	-8.61353
▁kaha	-8.61417
▁thanks	-8.61419
▁see	-8.61589
▁responding	-8.62214
▁paying	-8.6225
▁went	-8.62411
▁left	-8.62574
▁thats	-8.62693
▁fb	-8.62702
▁national	-8.62735
▁access	-8.62793
▁try	-8.62873
▁viral	-8.6289
▁bataya	-8.63213
▁install	-8.6359
▁pictures	-8.6406
▁stating	-8.64174
▁massage	-8.64412
▁always	-8.6449
▁solution	-8.64504
▁tablet	-8.64733
▁kind	-8.64815
▁play	-8.64865
▁reply	-8.65415
▁step	-8.65508
▁thi	-8.65673
▁picture	-8.65898
▁words	-8.65929
▁thousand	-8.65975
▁spam	-8.6603
▁side	-8.66376
▁type	-8.66581
▁ref	-8.66643
▁recorded	-8.66689
the	-8.6705
able	-8.67162
▁e	-8.67242
▁those	-8.6736
▁complete	-8.67471
▁gmail	-8.67676
and	-8.67681
on	-8.67693
▁hence	-8.67815
▁private	-8.68095
▁may	-8.68225
▁applied	-8.68518
▁once	-8.68851
they	-8.69619
▁below	-8.69869
▁yono	-8.69955
▁posted	-8.69956
▁run	-8.69974
▁etc	-8.70128
▁charges	-8.70169
▁man	-8.70205
▁members	-8.70245
▁naam	-8.7039
▁health	-8.70476
▁proof	-8.71031
▁timepm	-8.71159
▁daily	-8.71848
▁otherwise	-8.72191
identity	-8.72257
▁krne	-8.7245
▁why	-8.72454
al	-8.72546
▁unke	-8.72546
▁language	-8.72592
▁desk	-8.72802
▁advertisement	-8.7295
▁phir	-8.73332
▁book	-8.73449
▁harassing	-8.73471
▁ever	-8.74102
▁searched	-8.74658
▁recharge	-8.74762
▁both	-8.74816
▁every	-8.74897
▁log	-8.75033
▁kat	-8.75252
▁multiple	-8.75911
▁else	-8.75961
▁knowing	-8.75974
▁month	-8.75976
▁payments	-8.76057
▁privacy	-8.76091
ous	-8.76103
▁investment	-8.76234
▁technical	-8.76453
▁abusive	-8.76828
▁until	-8.76882
▁life	-8.77084
▁withdrawal	-8.77085
▁deleting	-8.77294
▁attention	-8.77549
▁gst	-8.77901
▁citizen	-8.77954
▁baat	-8.77995
▁punjab	-8.78065
▁relationship	-8.78101
▁constantly	-8.78567
▁bit	-8.78902
▁cards	-8.78932
▁registration	-8.7903
▁charge	-8.79848
▁recieved	-8.80209
▁interest	-8.80223
▁looked	-8.80461
▁image	-8.80718
▁little	-8.8091
▁b	-8.8101
▁complainant	-8.81094
▁ignore	-8.81157
l	-8.81304
▁fact	-8.81503
▁di	-8.81649
▁full	-8.81783
▁helpless	-8.81796
▁three	-8.82253
▁wanted	-8.82586
▁seem	-8.83052
▁axis	-8.83219
▁union	-8.83238
▁muje	-8.83257
▁rent	-8.83258
▁legal	-8.83331
▁lakh	-8.84057
▁din	-8.8427
▁register	-8.84362
▁explain	-8.84495
▁uploaded	-8.84603
▁inside	-8.84796
▁le	-8.84846
▁place	-8.84865
▁others	-8.85238
▁lot	-8.8526
▁minutes	-8.8546
▁second	-8.85471
▁net	-8.85634
▁department	-8.85749
▁demand	-8.86036
▁end	-8.86174
▁compromised	-8.86175
▁maybe	-8.86273
▁talk	-8.86296
▁refused	-8.86707
▁sbin	-8.87035
▁affect	-8.87095
▁deleted	-8.87162
▁accidentally	-8.87278
▁services	-8.87772
▁except	-8.87886
▁sleep	-8.88305
▁verification	-8.88501
▁under	-8.88538
▁ahead	-8.88909
▁gpay	-8.88918
▁sharing	-8.89025
▁mess	-8.89147
m	-8.89225
▁vo	-8.89235
▁frustrated	-8.89426
▁available	-8.89641
this	-8.89714
▁officiall	-8.89928
▁way	-8.89968
▁bhej	-8.90249
▁courier	-8.90361
▁freez	-8.90372
▁ones	-8.90498
▁says	-8.90645
▁rupey	-8.91073
▁agent	-8.91116
emed	-8.91413
▁officer	-8.91673
please	-8.91759
▁worst	-8.9183
▁hacker	-8.91852
▁adhar	-8.919
▁merchant	-8.91953
▁does	-8.92041
lance	-8.9206
▁statement	-8.923
▁weird	-8.92468
▁recording	-8.92561
▁cheating	-8.9261
▁repay	-8.92834
cially	-8.93132
▁careful	-8.93157
▁someones	-8.93182
▁glitch	-8.93216
▁shatter	-8.93324
▁honest	-8.93327
▁afterward	-8.93373
▁describe	-8.93378
▁espe	-8.93649
▁confirmation	-8.9365
▁mistake	-8.9388
▁considered	-8.94026
▁fees	-8.9403
▁theres	-8.94058
▁cell	-8.94211
▁security	-8.94298
▁finance	-8.94353
▁booking	-8.94374
com	-8.94493
▁jaipur	-8.94535
▁tr	-8.94675
▁terrify	-8.94731
▁kisi	-8.94803
▁notic	-8.94904
▁imagine	-8.9495
▁denied	-8.94961
▁source	-8.95086
▁diye	-8.95157
▁persons	-8.95244
▁phonepay	-8.95489
▁anxi	-8.95611
around	-8.95632
▁letter	-8.95829
▁sim	-8.96033
▁threatened	-8.96235
▁cautious	-8.96268
eoff	-8.96642
▁transction	-8.96651
▁rupay	-8.96784
▁identity	-8.97102
▁talking	-8.97263
▁ltd	-8.97282
▁ad	-8.97493
▁recived	-8.97641
▁himself	-8.98059
▁profit	-8.98076
▁house	-8.98102
▁manager	-8.98317
▁aa	-8.98452
▁strict	-8.98537
▁pic	-8.98666
▁v	-8.98704
▁dec	-8.99269
▁stopped	-8.99303
citizen	-8.99338
▁apne	-8.99549
▁flipkart	-8.99652
▁sell	-8.99761
▁apply	-9.001
▁slowe	-9.00187
▁save	-9.00295
▁anandap	-9.00397
▁following	-9.00646
▁screenshots	-9.00937
▁btaya	-9.01035
▁idt	-9.01207
▁r	-9.01388
▁mine	-9.01587
▁products	-9.02434
▁kept	-9.0256
▁limit	-9.02756
▁frod	-9.02829
▁demanded	-9.03
▁brother	-9.03434
▁continuously	-9.03509
▁uska	-9.03562
▁processing	-9.03585
▁added	-9.03825
▁sister	-9.03946
▁refunded	-9.04068
▁knowledge	-9.04095
▁act	-9.04192
▁gaye	-9.04246
▁however	-9.04729
▁koko	-9.04751
▁free	-9.04844
an	-9.04868
▁logo	-9.05275
▁copy	-9.05423
▁emi	-9.0544
▁old	-9.05675
▁showed	-9.06104
▁policy	-9.06271
▁during	-9.06285
▁accept	-9.06394
▁solve	-9.06636
▁district	-9.06745
▁gift	-9.06816
▁delivered	-9.0714
▁downloaded	-9.07156
▁february	-9.07502
▁https	-9.07533
▁ha	-9.08494
▁trans	-9.08874
▁requesting	-9.09457
▁selling	-9.09703
▁rupe	-9.09817
▁totally	-9.10021
▁anyone	-9.1007
▁trading	-9.10135
kar	-9.10313
▁price	-9.1034
▁hours	-9.10716
u	-9.11133
▁small	-9.1124
▁switched	-9.11242
▁hain	-9.11244
▁sex	-9.11295
▁ja	-9.11634
▁resolve	-9.11642
▁realize	-9.11806
▁frouder	-9.11852
▁car	-9.11859
▁mahindra	-9.12068
▁permission	-9.12193
▁road	-9.12723
▁task	-9.1312
▁disconnected	-9.13143
▁relative	-9.13174
▁lo	-9.13563
▁jab	-9.13874
▁shop	-9.14114
▁kotak	-9.14172
▁dhamki	-9.14648
▁ticket	-9.1465
▁claiming	-9.1473
▁kare	-9.14789
▁dated	-9.14802
▁linked	-9.15287
▁option	-9.15314
▁nor	-9.15328
▁instead	-9.15496
▁bill	-9.15624
na	-9.15887
▁document	-9.16108
▁mein	-9.16571
▁airtel	-9.16714
▁interview	-9.16784
▁december	-9.16842
▁lottery	-9.16978
debit	-9.17048
▁raised	-9.17187
▁bahut	-9.17255
▁apna	-9.17268
cting	-9.17331
▁executive	-9.17632
▁various	-9.1766
▁rupaye	-9.1818
▁lady	-9.18213
▁channel	-9.18251
▁along	-9.18652
▁hope	-9.18914
▁holder	-9.18924
▁content	-9.1895
▁black	-9.19128
▁week	-9.19265
▁good	-9.19342
▁close	-9.20263
▁abuse	-9.20268
▁mother	-9.20319
▁hav	-9.20336
having	-9.20421
▁pas	-9.20804
▁big	-9.20825
ya	-9.21474
▁shown	-9.21571
▁conversation	-9.21698
▁iam	-9.22104
▁kha	-9.22243
▁seen	-9.22369
▁seller	-9.2246
k	-9.22757
▁ecommerce	-9.22867
▁url	-9.23003
▁lekin	-9.23292
▁images	-9.23891
▁realised	-9.23915
▁d	-9.24292
▁each	-9.24323
▁double	-9.24335
▁ani	-9.24338
▁recovery	-9.24467
▁known	-9.24564
p	-9.24792
▁yet	-9.25119
▁fill	-9.25172
▁voice	-9.25205
▁machine	-9.25284
▁abhi	-9.25322
she	-9.25341
▁situation	-9.25354
▁connected	-9.25604
▁cannot	-9.25978
▁sexual	-9.26161
▁bat	-9.26226
▁active	-9.2627
▁c	-9.26428
▁harassment	-9.26546
▁sab	-9.26719
tion	-9.27118
▁lakhs	-9.27367
▁jis	-9.27772
▁reward	-9.27899
▁pics	-9.27915
▁deposited	-9.28097
▁dene	-9.28226
▁sirmadam	-9.28231
ar	-9.28577
▁parcel	-9.28664
▁salary	-9.28667
▁installed	-9.28707
▁year	-9.28915
▁agreed	-9.29167
▁mumbai	-9.29281
▁shows	-9.29332
▁vedio	-9.30369
▁mujhse	-9.30519
▁reach	-9.30633
but	-9.31827
▁worth	-9.3183
▁evidence	-9.31902
▁closed	-9.32081
▁touch	-9.32182
▁promised	-9.32321
▁limited	-9.32331
▁shot	-9.32587
▁required	-9.32594
▁messaged	-9.33061
▁aapko	-9.33227
▁won	-9.33551
▁purpose	-9.33872
▁o	-9.34064
▁game	-9.34155
▁ur	-9.34303
▁mentally	-9.34515
▁cancel	-9.34681
▁providing	-9.34985
▁earned	-9.35791
▁suchana	-9.35837
▁reporting	-9.36012
▁doubt	-9.36166
▁whole	-9.36347
hello	-9.36454
▁canara	-9.36642
▁bike	-9.36902
▁accepted	-9.37035
▁baar	-9.37168
▁ammount	-9.37286
▁notice	-9.37394
it	-9.37468
▁thanking	-9.3758
▁karna	-9.37837
▁ram	-9.3785
▁nikal	-9.3791
▁believed	-9.38052
▁agreement	-9.38107
▁neither	-9.38293
so	-9.38484
▁gali	-9.38612
▁confirmed	-9.38637
▁ni	-9.38661
▁immediate	-9.38718
▁deliver	-9.38854
▁ya	-9.38858
▁re	-9.39013
▁laga	-9.39218
▁coming	-9.39304
▁down	-9.39315
▁false	-9.39484
after	-9.39618
▁slice	-9.3965
▁rahi	-9.39823
▁followed	-9.39828
▁location	-9.40031
se	-9.40325
▁karo	-9.40338
as	-9.40591
▁edited	-9.40617
▁scammed	-9.40856
▁son	-9.40962
▁didnot	-9.41062
▁submit	-9.41306
▁customers	-9.41409
▁ap	-9.41545
▁husband	-9.41605
▁follow	-9.41611
▁karwa	-9.41629
▁student	-9.41681
te	-9.4175
▁sum	-9.42015
▁ok	-9.42525
▁pvt	-9.426
▁genuine	-9.42774
▁purchased	-9.43091
▁boy	-9.43097
▁rbl	-9.43131
▁info	-9.43135
▁create	-9.43229
▁threat	-9.43396
▁hoga	-9.43503
reverse	-9.4382
▁inke	-9.43896
▁fruad	-9.43963
▁future	-9.4402
▁ready	-9.44039
▁placed	-9.44071
▁record	-9.44099
▁direct	-9.44291
ta	-9.44398
▁toh	-9.44486
▁commission	-9.44591
▁confirm	-9.44782
▁dena	-9.44802
▁submitted	-9.44949
▁mo	-9.44959
▁remove	-9.44969
▁initially	-9.45128
▁catch	-9.45273
▁gone	-9.45347
▁updated	-9.45355
▁withdrawn	-9.45604
▁jio	-9.45609
▁kiye	-9.45755
▁understand	-9.45881
▁seems	-9.46052
▁claimed	-9.46145
▁fraudsters	-9.46795
▁aware	-9.46831
▁watsapp	-9.46912
ka	-9.46913
▁ji	-9.4695
▁posting	-9.47009
at	-9.47141
▁sale	-9.47442
▁replied	-9.47462
▁messaging	-9.47467
▁bajaj	-9.47467
▁p	-9.47517
▁loans	-9.4752
▁bta	-9.47532
▁misuse	-9.4776
▁behalf	-9.47833
▁suspicious	-9.48018
▁pnb	-9.4803
▁apko	-9.48066
▁porn	-9.48218
▁madam	-9.48372
es	-9.48453
▁earn	-9.49066
▁min	-9.49249
▁scammer	-9.49415
▁tak	-9.49427
then	-9.49884
▁tax	-9.5002
▁booked	-9.50283
▁accused	-9.50469
▁krke	-9.507
▁asap	-9.50744
▁completed	-9.50969
▁verify	-9.51036
▁continue	-9.51087
sed	-9.51174
▁twice	-9.51803
b	-9.51982
▁high	-9.52147
▁party	-9.52274
▁karte	-9.52345
▁talked	-9.52347
▁girls	-9.52512
▁wait	-9.52524
touched	-9.52548
▁stated	-9.52794
▁failed	-9.5282
▁system	-9.53054
▁clear	-9.53484
▁yes	-9.53605
credit	-9.53745
▁victims	-9.53822
▁deduct	-9.53859
▁offered	-9.53909
▁usko	-9.54022
▁stolen	-9.54196
est	-9.54326
▁march	-9.54347
▁otps	-9.54374
▁chatting	-9.54948
▁approach	-9.54991
▁four	-9.55037
▁finally	-9.55176
▁filed	-9.55191
▁jayega	-9.55945
▁automatically	-9.56138
▁whose	-9.56262
▁updation	-9.56536
▁web	-9.56569
▁forward	-9.56904
▁quick	-9.5706
ment	-9.57104
▁violate	-9.57207
▁twitter	-9.57356
▁bheja	-9.57615
▁li	-9.57633
▁respond	-9.57793
▁rahul	-9.57976
▁filled	-9.58222
▁illegal	-9.58503
▁replying	-9.58505
▁deal	-9.58508
▁violat	-9.58517
▁item	-9.58997
we	-9.59017
▁suspecious	-9.59205
▁consent	-9.59206
▁acc	-9.59532
▁urgent	-9.59544
▁mention	-9.60215
▁picked	-9.60219
▁humble	-9.60885
▁real	-9.60995
▁gupta	-9.61164
▁items	-9.61191
▁law	-9.61481
▁unathori	-9.61556
▁extra	-9.61575
▁messenger	-9.61731
▁crypto	-9.61924
▁jisme	-9.62034
▁ids	-9.62105
▁self	-9.62113
▁public	-9.62278
▁pick	-9.62315
▁huge	-9.62387
▁respected	-9.62521
▁pata	-9.62542
▁culprit	-9.62715
am	-9.6285
▁proper	-9.62862
▁picking	-9.62882
▁texted	-9.62885
▁status	-9.63021
▁deduction	-9.63147
▁hrs	-9.63256
ra	-9.63451
▁hackd	-9.63457
▁member	-9.63465
▁helpline	-9.6349
▁appropriate	-9.63665
▁ban	-9.63687
▁myself	-9.63959
▁iphone	-9.64211
▁mang	-9.64291
to	-9.64454
▁saving	-9.64466
▁returned	-9.64531
▁own	-9.64561
▁pending	-9.6476
▁attaching	-9.64889
▁cost	-9.65685
▁aaj	-9.65694
▁cheat	-9.6581
▁ma	-9.65827
▁ph	-9.65833
or	-9.65835
▁income	-9.65855
▁owner	-9.66028
▁jaye	-9.66045
▁peoples	-9.66073
▁written	-9.66084
▁between	-9.66085
▁cybercrime	-9.66308
▁hr	-9.66377
▁entry	-9.66529
▁abused	-9.66531
▁dwara	-9.66758
▁claim	-9.67105
▁tid	-9.67138
▁frezz	-9.67201
▁might	-9.67208
▁scratch	-9.67652
▁removed	-9.67829
▁hum	-9.67838
▁l	-9.68103
▁usme	-9.68285
▁notific	-9.6833
▁school	-9.68334
▁approved	-9.68391
▁increase	-9.68421
▁band	-9.68477
victim	-9.68692
▁kijiye	-9.68791
▁naked	-9.68792
▁scared	-9.68813
▁thana	-9.68958
▁basis	-9.69018
▁instructions	-9.69129
▁remain	-9.69171
▁insta	-9.69203
▁based	-9.69344
▁actions	-9.6945
▁trap	-9.69531
▁directly	-9.69583
▁earlier	-9.6971
▁lal	-9.69733
▁therefore	-9.69953
▁aapke	-9.69975
▁reached	-9.69976
▁believe	-9.70038
▁government	-9.70171
▁f	-9.70245
ko	-9.70278
▁concern	-9.70351
▁playstore	-9.70407
▁pdf	-9.7041
▁hacking	-9.70524
▁visit	-9.7069
▁rhi	-9.70725
▁past	-9.70867
▁jiska	-9.71139
▁indusind	-9.71342
▁pareshan	-9.71371
▁random	-9.71488
▁wapas	-9.7157
▁hui	-9.71701
▁gandi	-9.72053
▁lone	-9.72372
▁mila	-9.72464
▁bata	-9.72936
▁bana	-9.73174
▁whatsup	-9.73234
▁rate	-9.73323
▁vulgar	-9.73469
▁selected	-9.73537
▁threating	-9.73625
▁chala	-9.73928
▁kya	-9.73945
▁market	-9.74006
▁plan	-9.74118
▁fast	-9.74347
▁wale	-9.74404
▁recently	-9.74455
▁aapka	-9.74478
▁local	-9.74584
▁nam	-9.74799
▁spoke	-9.74852
▁hello	-9.74992
▁voucher	-9.75341
ti	-9.75892
▁tracking	-9.75975
▁let	-9.76348
▁transfered	-9.76351
▁bankar	-9.76379
▁vishing	-9.76484
▁yadav	-9.76636
▁cashback	-9.76643
la	-9.76748
▁pro	-9.76784
▁num	-9.76798
▁line	-9.76834
▁tab	-9.7689
me	-9.77045
▁live	-9.77193
▁interested	-9.77358
ni	-9.77384
▁refrence	-9.77625
▁fund	-9.77822
▁points	-9.77865
▁earliest	-9.77875
▁blackmailed	-9.77972
▁mi	-9.78052
le	-9.7824
▁transacation	-9.78377
▁thereafter	-9.7855
▁software	-9.7863
▁receipt	-9.78831
▁sare	-9.78849
▁galat	-9.78891
▁watch	-9.78949
▁freeze	-9.79097
▁colony	-9.79137
▁justice	-9.79402
▁dating	-9.79414
▁five	-9.79509
▁poor	-9.79746
▁third	-9.79902
▁rbi	-9.79907
▁contacting	-9.79939
ki	-9.80112
▁connect	-9.80126
▁cancelled	-9.8016
▁proofs	-9.80259
▁raise	-9.80286
▁cvv	-9.80417
▁miss	-9.80466
▁harrasing	-9.80479
▁dr	-9.80539
▁wants	-9.80612
▁jankari	-9.80882
▁emergency	-9.80926
▁approx	-9.80929
▁parents	-9.80947
▁fraudulently	-9.80979
▁hour	-9.811
▁resident	-9.81112
▁jiske	-9.81237
▁buying	-9.81436
▁sometime	-9.81692
▁threaten	-9.81791
▁approval	-9.81964
▁funds	-9.82012
▁visited	-9.82166
▁flat	-9.82178
▁present	-9.82221
▁amt	-9.82227
▁froder	-9.82243
▁bring	-9.8256
▁fear	-9.82724
▁afraid	-9.82755
▁original	-9.83013
▁unauthorized	-9.83288
▁exchange	-9.83752
▁kro	-9.83938
re	-9.84251
▁es	-9.84331
▁happening	-9.84521
upi	-9.84556
▁true	-9.84813
▁imps	-9.84972
▁apke	-9.84984
▁upon	-9.85016
▁regard	-9.85087
ry	-9.85247
▁hone	-9.85281
▁almost	-9.85413
▁smishing	-9.85414
▁seeing	-9.85914
▁amit	-9.8602
▁kra	-9.8621
▁half	-9.86228
▁msgs	-9.86472
▁timeam	-9.86487
▁harrassing	-9.86542
▁speaking	-9.86688
▁away	-9.86746
▁reputation	-9.86771
ane	-9.86891
▁alag	-9.87007
▁mil	-9.87175
▁collect	-9.87419
▁involved	-9.87429
▁unfortunately	-9.87886
▁switch	-9.87969
▁chats	-9.88014
▁international	-9.88151
▁decided	-9.88162
g	-9.8824
▁jankar	-9.88299
▁device	-9.88341
▁central	-9.88437
▁contain	-9.88818
▁rest	-9.88877
▁class	-9.88943
▁bus	-9.88968
▁visa	-9.89042
▁steps	-9.89102
▁complained	-9.89398
ch	-9.89505
▁mam	-9.89505
▁city	-9.89559
▁kara	-9.89561
▁ag	-9.89762
▁daughter	-9.89804
▁googlepay	-9.9013
▁noticed	-9.90522
▁audio	-9.90657
▁trusted	-9.90879
▁edit	-9.91155
▁investigation	-9.91544
▁emails	-9.91565
▁savings	-9.9164
▁clothes	-9.91822
▁hand	-9.91902
▁furniture	-9.91979
▁material	-9.92079
▁note	-9.92099
▁creating	-9.92159
▁mobikwik	-9.924
▁apka	-9.92512
▁devi	-9.92517
▁chesaru	-9.92688
▁dijiye	-9.92689
▁pahle	-9.92696
▁issues	-9.92947
▁center	-9.92954
▁pta	-9.93175
▁body	-9.93329
▁dunga	-9.93377
▁punish	-9.93666
▁gav	-9.93695
▁unauthorised	-9.9378
▁jobs	-9.93815
▁successful	-9.94051
▁facing	-9.94149
▁assured	-9.94219
▁commerce	-9.94443
▁pradesh	-9.94447
▁story	-9.94466
▁bgmi	-9.94744
▁needed	-9.94788
▁similar	-9.94952
ri	-9.95151
▁sb	-9.95161
ha	-9.95291
▁hun	-9.95334
▁cibil	-9.95335
▁credentials	-9.95369
ive	-9.9537
▁pancard	-9.95372
▁dispute	-9.95489
▁early	-9.95574
▁criminal	-9.95634
▁must	-9.9565
▁period	-9.95659
▁jain	-9.95817
▁airport	-9.95933
▁opening	-9.96147
▁senior	-9.96222
▁united	-9.96271
c	-9.96819
▁ladki	-9.96843
▁mins	-9.96866
▁entire	-9.97444
▁uploading	-9.97503
▁www	-9.97558
st	-9.97589
▁returning	-9.9764
▁threats	-9.97677
▁medical	-9.97754
z	-9.97771
▁havent	-9.97771
▁impersonating	-9.98057
▁refundable	-9.98108
▁amounts	-9.98163
▁publish	-9.9836
▁unko	-9.98397
▁somebody	-9.98465
financial	-9.98688
▁charged	-9.98886
▁introduce	-9.99012
▁raj	-9.99021
▁sa	-9.99099
ion	-9.99139
▁low	-9.99231
▁fr	-9.99337
▁denge	-9.9948
▁acount	-9.99631
▁point	-9.99952
▁guys	-10.0049
▁percent	-10.0053
▁bole	-10.0056
ke	-10.0063
▁texting	-10.0081
no	-10.0082
▁govt	-10.0086
▁needs	-10.0103
▁suicide	-10.0117
▁pretending	-10.0127
▁word	-10.0129
▁la	-10.0132
▁pa	-10.0148
▁bhut	-10.0151
▁kbc	-10.0152
▁investing	-10.0158
▁applications	-10.0163
▁responded	-10.0176
▁iske	-10.0208
▁covid	-10.0212
▁arrest	-10.0226
▁across	-10.025
▁obscene	-10.0276
▁complainants	-10.0282
▁username	-10.0289
▁meet	-10.0305
▁college	-10.0308
▁bangalore	-10.0317
▁dress	-10.0332
▁ms	-10.0335
▁scanne	-10.0338
▁society	-10.034
▁gyi	-10.0344
th	-10.0348
▁aadhaar	-10.035
▁agar	-10.0356
▁phon	-10.0363
▁transferring	-10.0374
▁sirmam	-10.0376
▁parts	-10.0387
▁mane	-10.0395
▁adhaar	-10.0405
▁shocked	-10.0408
oriental	-10.0424
▁com	-10.0433
▁avoid	-10.0452
there	-10.0462
▁idea	-10.0485
▁revert	-10.0488
▁khan	-10.0497
▁representative	-10.0511
v	-10.0515
▁trade	-10.052
▁sector	-10.0536
▁httpswww	-10.0539
▁meena	-10.0549
▁mobno	-10.0572
▁andhra	-10.0573
▁yeh	-10.0581
▁tho	-10.0586
▁bob	-10.0592
▁recieve	-10.0601
▁harrasment	-10.0602
▁jald	-10.0612
▁blocking	-10.0614
▁vi	-10.0618
▁sites	-10.0627
▁transection	-10.0638
▁manga	-10.0665
▁become	-10.0672
▁mode	-10.0673
▁dete	-10.0686
▁toll	-10.0689
▁defame	-10.0689
▁means	-10.0693
▁morphed	-10.0704
▁correct	-10.0708
▁west	-10.0716
▁goods	-10.0733
▁village	-10.0736
▁writing	-10.0736
rs	-10.0738
▁kre	-10.0772
▁fool	-10.0787
▁force	-10.0805
j	-10.0815
▁additional	-10.0829
▁firstly	-10.0831
▁lots	-10.0839
▁harassed	-10.0851
▁offering	-10.0854
▁forced	-10.0856
▁co	-10.0865
▁most	-10.0866
▁star	-10.0867
▁lodged	-10.0869
▁pura	-10.088
▁ham	-10.0892
came	-10.0898
▁answer	-10.0901
▁section	-10.0913
▁tickets	-10.0915
▁isne	-10.0933
▁responsible	-10.0939
▁invoice	-10.0945
▁misusing	-10.0974
ation	-10.0996
▁unka	-10.1005
▁complaints	-10.1028
one	-10.1035
▁eligibility	-10.1077
▁corporation	-10.1077
▁whom	-10.1087
▁mar	-10.109
▁kam	-10.1091
someone	-10.1093
▁dekha	-10.1098
▁netbanking	-10.1113
▁trouble	-10.1116
▁idfc	-10.1151
▁lekar	-10.1152
▁wont	-10.117
▁previous	-10.1174
▁chesi	-10.1175
▁concerned	-10.1175
▁inhone	-10.1177
▁krte	-10.1194
▁consider	-10.1199
▁orders	-10.1215
▁contract	-10.122
▁communication	-10.1222
▁websites	-10.1222
▁minute	-10.1227
▁swap	-10.1241
▁updating	-10.1255
f	-10.1255
▁join	-10.1257
▁saved	-10.1259
im	-10.1275
▁returns	-10.1281
▁important	-10.1289
▁prize	-10.1294
single	-10.1299
▁lic	-10.1304
▁pos	-10.1304
ad	-10.1315
▁generated	-10.1331
▁arrange	-10.1346
▁comments	-10.135
▁kuchh	-10.1357
▁verified	-10.1362
cing	-10.1363
▁cheap	-10.1394
▁batya	-10.1398
▁project	-10.1401
▁deactivated	-10.1406
▁deta	-10.1412
▁ill	-10.1414
▁teh	-10.1428
▁sanction	-10.1431
▁vehicle	-10.1432
▁hundred	-10.1474
▁misused	-10.1494
▁tomorrow	-10.1504
▁currently	-10.1511
w	-10.1514
▁anil	-10.1514
ga	-10.1535
▁chuka	-10.1542
▁apni	-10.1543
▁answering	-10.1571
▁worried	-10.1577
▁codesbin	-10.1579
ary	-10.1593
▁dp	-10.1607
▁kal	-10.1608
▁supporting	-10.1642
▁ending	-10.1648
▁chennai	-10.1651
▁moment	-10.1653
▁declined	-10.1654
▁activate	-10.1674
▁repeatedly	-10.1693
▁towards	-10.1694
ng	-10.1699
▁admin	-10.1706
▁short	-10.1718
▁plus	-10.1727
▁urgently	-10.1739
▁collected	-10.1749
▁lga	-10.1766
▁staff	-10.1768
▁victimn	-10.1799
▁purchasing	-10.1799
▁procedure	-10.1805
▁vijaya	-10.1813
▁links	-10.1817
▁starting	-10.1827
▁head	-10.1832
▁mailing	-10.1854
▁according	-10.1867
di	-10.1869
▁instant	-10.1871
▁verma	-10.1874
▁certificate	-10.1881
▁paas	-10.1882
da	-10.1911
▁understood	-10.1912
▁tm	-10.1918
▁ker	-10.1921
▁transport	-10.1942
▁deepak	-10.1951
▁sanjay	-10.1951
▁sr	-10.1955
▁thru	-10.1979
▁history	-10.1988
▁sar	-10.1993
▁draw	-10.2001
▁delay	-10.2007
▁mining	-10.201
pay	-10.2011
▁seconds	-10.2027
▁knc	-10.2028
▁itself	-10.2028
▁txn	-10.2033
▁bhai	-10.2036
▁usse	-10.2048
sim	-10.2049
▁whatsaap	-10.2065
▁followers	-10.2071
▁filing	-10.2106
▁transcation	-10.211
▁ob	-10.2119
▁dis	-10.2125
▁badly	-10.2128
▁hue	-10.2139
▁lucky	-10.214
▁thinking	-10.2161
▁krna	-10.2162
▁advise	-10.2163
▁camera	-10.2171
▁dalne	-10.2177
▁suspected	-10.218
▁child	-10.2228
▁aayi	-10.2233
▁package	-10.2234
▁control	-10.225
▁sexually	-10.228
▁flight	-10.2297
▁pehle	-10.2298
▁jama	-10.2304
▁attachment	-10.2308
▁donot	-10.2312
▁trn	-10.2357
▁jaldi	-10.2366
▁error	-10.2367
▁either	-10.2375
▁convinced	-10.2381
▁clearly	-10.2392
▁chor	-10.2396
▁truecaller	-10.2416
▁condition	-10.2423
▁set	-10.2433
▁tasks	-10.2452
▁yours	-10.2454
▁defaming	-10.2456
▁ghar	-10.2462
▁aisa	-10.2466
▁x	-10.2485
▁saath	-10.2499
ce	-10.2502
▁imei	-10.2503
▁students	-10.2504
▁plzz	-10.2509
▁vide	-10.2513
▁names	-10.2518
▁mails	-10.253
▁bna	-10.2536
▁win	-10.2551
▁ts	-10.2568
▁mne	-10.2571
▁bare	-10.2583
▁result	-10.2586
▁y	-10.2605
▁rupye	-10.2606
▁hyderabad	-10.2617
▁hotel	-10.2627
▁attend	-10.2627
▁digital	-10.2651
▁property	-10.2657
▁pune	-10.2658
▁jisse	-10.2662
▁kia	-10.2672
▁digit	-10.2672
▁comes	-10.269
▁box	-10.2699
ever	-10.2725
▁air	-10.2735
▁certain	-10.2738
▁comment	-10.275
▁refunding	-10.2751
▁belongs	-10.2767
▁torturing	-10.278
▁wise	-10.2781
li	-10.279
▁karva	-10.2794
▁mana	-10.2796
▁vijay	-10.2808
▁w	-10.2816
up	-10.2821
▁editing	-10.2822
▁sabhi	-10.2827
▁usd	-10.2837
▁gold	-10.2846
▁introduc	-10.2858
▁plot	-10.2867
▁yah	-10.287
▁daal	-10.2873
▁country	-10.2877
▁ak	-10.2892
▁refuse	-10.2893
▁proceed	-10.2898
▁everyday	-10.2905
▁patel	-10.2906
▁less	-10.291
▁maharashtra	-10.2946
▁jaise	-10.2947
▁noida	-10.2952
▁mony	-10.297
▁cal	-10.2978
state	-10.298
▁speak	-10.3002
▁waiting	-10.3012
▁current	-10.3022
▁isliye	-10.3022
id	-10.3023
▁alt	-10.3029
▁authorities	-10.303
▁shall	-10.303
▁bina	-10.3035
▁fathers	-10.3041
▁network	-10.3054
▁spoil	-10.3054
▁usdt	-10.3076
▁issued	-10.3089
▁turn	-10.3091
▁users	-10.3105
▁mailed	-10.3109
▁agency	-10.3115
▁bought	-10.3115
▁spreading	-10.3142
▁ba	-10.3152
▁iska	-10.3162
▁aise	-10.3169
▁payu	-10.317
▁bi	-10.3184
▁namely	-10.3193
▁te	-10.3204
▁smart	-10.3204
▁shri	-10.3206
▁court	-10.3212
▁suggested	-10.3215
▁properly	-10.3217
en	-10.322
▁trx	-10.3233
▁mishra	-10.3245
▁whatever	-10.3247
▁age	-10.3247
▁server	-10.3258
▁allow	-10.3264
▁nov	-10.3269
▁ga	-10.3274
▁karan	-10.3287
▁authority	-10.3287
▁bsnl	-10.3287
▁thankyou	-10.3288
▁wheth	-10.3294
▁ashok	-10.3315
▁belong	-10.3316
▁tube	-10.3321
▁lose	-10.3345
▁mind	-10.337
▁waited	-10.3372
▁bitcoin	-10.3372
▁far	-10.3376
wwwfacebookcom	-10.3396
▁filling	-10.3418
▁rajasthan	-10.3419
▁looted	-10.3426
▁insisted	-10.3431
▁room	-10.3433
▁emailid	-10.3437
▁tum	-10.345
▁supposed	-10.3465
▁wala	-10.3468
▁easy	-10.348
▁stuck	-10.3488
▁dusre	-10.3488
▁applicant	-10.3507
▁handle	-10.3521
▁scammers	-10.3535
▁byphone	-10.3538
▁follows	-10.3539
hamare	-10.3543
▁contect	-10.3551
▁duped	-10.3555
▁successfully	-10.3564
ma	-10.3564
▁kumari	-10.3576
▁dar	-10.3594
▁november	-10.3596
▁chahiye	-10.3596
ye	-10.36
▁safe	-10.3609
▁whatapp	-10.3612
▁buyer	-10.3624
▁guide	-10.3632
▁harass	-10.3637
▁enquir	-10.3646
▁thus	-10.3657
impersonation	-10.3666
▁krwa	-10.367
▁joining	-10.3678
▁remote	-10.3679
▁attempt	-10.3681
▁threatning	-10.3686
▁jodhpur	-10.3688
▁agree	-10.3701
ve	-10.3702
▁che	-10.3705
▁custom	-10.3708
▁currency	-10.3731
▁ra	-10.3736
ity	-10.3755
▁cheque	-10.3776
▁kripa	-10.3778
▁somehow	-10.3779
▁sec	-10.3786
total	-10.3806
▁mare	-10.3816
▁caught	-10.3822
▁enclosed	-10.3822
▁score	-10.3823
▁suspended	-10.3825
▁tv	-10.3833
▁gateway	-10.3836
▁profits	-10.3852
▁bihar	-10.386
▁inappropriate	-10.3865
▁ifscsbin	-10.3868
now	-10.3869
▁lac	-10.3883
▁culprits	-10.3886
▁ladk	-10.3892
▁best	-10.3911
▁companies	-10.3914
▁complaining	-10.3918
▁level	-10.3929
▁lage	-10.3938
▁test	-10.394
▁regular	-10.3952
▁redirect	-10.3961
▁client	-10.3976
▁hm	-10.3976
▁mentioning	-10.3979
▁repeated	-10.4009
▁ola	-10.4035
▁lag	-10.4041
▁value	-10.4044
▁ro	-10.4049
▁write	-10.4055
▁sara	-10.4056
▁nos	-10.4068
▁respect	-10.4084
▁convert	-10.4101
▁vihar	-10.4101
▁committed	-10.4106
▁dikha	-10.4133
▁review	-10.4146
▁ta	-10.415
▁instantly	-10.4158
▁groups	-10.4172
▁repaid	-10.4195
▁mart	-10.421
when	-10.4214
▁jb	-10.4234
▁depressed	-10.4243
▁centre	-10.4248
▁warning	-10.4267
▁hereby	-10.4278
▁earning	-10.4285
phone	-10.4288
▁lene	-10.4304
▁platforms	-10.4308
▁connection	-10.4308
▁frud	-10.4309
▁uski	-10.431
▁news	-10.4315
▁spread	-10.4325
▁cod	-10.4339
▁bo	-10.4372
▁anonymous	-10.4378
some	-10.439
▁ybl	-10.4397
▁fine	-10.4412
▁attach	-10.4438
▁hogi	-10.4438
▁initiated	-10.4448
▁amout	-10.4451
▁load	-10.4452
▁sended	-10.446
▁das	-10.4472
ac	-10.4473
▁phishing	-10.4479
▁throughupi	-10.4485
▁khate	-10.4487
▁nai	-10.4509
▁pl	-10.4523
▁sub	-10.4527
▁isme	-10.453
▁brand	-10.4534
▁course	-10.4534
▁great	-10.4534
▁bullying	-10.4537
kindly	-10.4563
▁apple	-10.4563
today	-10.4566
▁initial	-10.4574
▁final	-10.4582
▁prakash	-10.4584
ru	-10.4588
▁jai	-10.4588
▁chain	-10.4588
▁busy	-10.4594
that	-10.4595
▁dala	-10.4597
▁sign	-10.4612
▁travel	-10.4622
▁massages	-10.4625
ram	-10.4627
▁ajay	-10.4627
▁forwarded	-10.4627
▁teacher	-10.4635
▁uco	-10.4642
▁galiya	-10.4644
▁manner	-10.4649
▁scheme	-10.4651
▁transation	-10.4653
▁payed	-10.4674
▁steal	-10.4682
▁beneficiary	-10.4682
▁six	-10.4683
▁walo	-10.4686
▁j	-10.4694
▁dekar	-10.4695
▁collection	-10.4698
▁ignored	-10.4705
▁mange	-10.4714
▁torture	-10.4727
▁regularly	-10.474
▁dost	-10.4749
details	-10.4757
▁hota	-10.4771
▁apk	-10.4777
tutr	-10.4779
▁adress	-10.4785
▁ward	-10.4788
▁promise	-10.48
▁enquire	-10.4803
▁read	-10.4803
▁plese	-10.4813
▁minimum	-10.4832
▁rajesh	-10.4837
▁karwaya	-10.4837
▁expired	-10.484
▁aaye	-10.4844
sh	-10.485
▁rich	-10.4851
▁redeem	-10.4862
▁zest	-10.4866
▁release	-10.4871
sbi	-10.488
▁cisf	-10.4883
▁accordingly	-10.4894
▁valid	-10.4911
▁front	-10.4935
▁leak	-10.4941
ey	-10.4966
▁icic	-10.4978
▁happens	-10.5001
▁disturbing	-10.5003
▁hame	-10.5005
▁nearly	-10.5029
▁compliant	-10.5037
▁federal	-10.5038
▁occurred	-10.5038
▁training	-10.5055
▁resume	-10.5089
▁har	-10.5091
▁occured	-10.51
▁pucha	-10.51
▁adding	-10.5109
▁uncle	-10.5109
▁computer	-10.511
▁manoj	-10.5111
us	-10.5114
▁stole	-10.5128
▁gramin	-10.5142
▁lacs	-10.5175
▁uttar	-10.5194
▁conduct	-10.5195
▁display	-10.5196
▁recive	-10.5201
▁sunil	-10.5209
▁accepting	-10.5214
▁gives	-10.5217
by	-10.5221
▁auto	-10.5243
▁humbly	-10.5246
▁explicit	-10.5246
▁gang	-10.5253
▁enquiry	-10.5254
▁harm	-10.5256
▁asks	-10.5268
▁playing	-10.5279
▁ravi	-10.5281
aaaaaaaaaaaaaaaa	-10.529
▁activation	-10.5299
▁unwanted	-10.5299
▁missing	-10.5306
▁paper	-10.5315
▁recordings	-10.5339
▁herewith	-10.5353
▁commit	-10.5356
▁si	-10.5357
▁gate	-10.536
▁unse	-10.537
▁codes	-10.5383
▁agents	-10.5398
▁bt	-10.5421
▁suggest	-10.544
▁target	-10.5455
▁listed	-10.5459
▁marriage	-10.5459
▁adult	-10.546
not	-10.5464
▁ip	-10.548
▁answered	-10.5488
▁deactivate	-10.5504
▁rupeeking	-10.5516
▁tata	-10.5521
▁highly	-10.5536
▁gai	-10.5538
raj	-10.5542
▁processed	-10.5558
▁dusr	-10.5561
▁actual	-10.5562
▁reset	-10.5572
▁subject	-10.5574
▁alwar	-10.5577
▁token	-10.5578
▁jiski	-10.558
▁ads	-10.5581
▁sari	-10.5583
▁fall	-10.5593
▁provider	-10.5619
▁rejected	-10.5629
▁wish	-10.564
▁employees	-10.5647
▁clip	-10.5647
▁uk	-10.5654
▁thankful	-10.5668
x	-10.5674
▁agarwal	-10.5675
▁view	-10.5676
▁gande	-10.568
▁tb	-10.569
▁cousin	-10.5716
▁intrest	-10.5716
call	-10.5717
from	-10.5718
▁kaam	-10.572
▁cc	-10.5724
▁rohit	-10.5727
▁chrome	-10.5733
▁citi	-10.5734
▁phle	-10.5735
▁lured	-10.5736
▁ten	-10.5754
iton	-10.5754
▁particular	-10.5757
▁stand	-10.5762
▁chand	-10.5767
▁prevent	-10.5768
▁query	-10.5789
▁posts	-10.5822
▁offers	-10.5829
▁muze	-10.5847
▁humne	-10.5851
▁damage	-10.586
▁thod	-10.586
▁terms	-10.5861
pura	-10.5874
▁kai	-10.5887
▁sales	-10.5892
ji	-10.5899
▁helicopter	-10.59
▁gurgaon	-10.5901
▁dekh	-10.5903
if	-10.5904
▁guided	-10.5917
▁po	-10.5921
▁coupon	-10.5926
icici	-10.5929
▁expect	-10.5939
▁sofa	-10.5948
▁sai	-10.5951
▁blue	-10.5952
▁eligible	-10.5957
▁spent	-10.5957
▁premium	-10.5957
▁coin	-10.5957
ting	-10.5958
▁papa	-10.5966
▁banksbi	-10.5975
▁claims	-10.5976
▁joined	-10.5986
amount	-10.599
nagar	-10.5999
▁warn	-10.6001
▁der	-10.6005
▁mara	-10.6005
▁nivedan	-10.6013
▁cancellation	-10.6013
▁kripya	-10.6014
▁driver	-10.6021
▁disturbed	-10.6025
▁male	-10.6026
▁kill	-10.6042
▁reviews	-10.605
▁tu	-10.6061
▁sandeep	-10.6069
▁housingcom	-10.6071
▁wrongly	-10.6074
▁respectively	-10.6075
▁trainsc	-10.6075
▁vouchers	-10.6085
▁bengal	-10.6107
▁bharat	-10.6108
loan	-10.611
▁mom	-10.6115
▁explained	-10.6119
▁unaware	-10.6128
▁large	-10.6128
▁stalking	-10.613
▁csp	-10.6131
▁dia	-10.6136
mere	-10.6144
▁rupess	-10.6146
▁jila	-10.6146
▁consumer	-10.615
▁reasons	-10.6172
bhai	-10.6182
▁everywhere	-10.6186
▁distjaipur	-10.6189
▁shots	-10.6239
ies	-10.6244
▁madad	-10.6245
▁mistakenly	-10.6245
▁discount	-10.625
▁jha	-10.6254
▁rakesh	-10.6259
▁activated	-10.6265
▁vendor	-10.6271
▁utha	-10.6287
▁dt	-10.6291
▁pages	-10.6296
▁vapas	-10.6302
ty	-10.6313
▁bolta	-10.6317
▁seek	-10.6339
▁ruppes	-10.6348
▁da	-10.636
▁abhishek	-10.6362
▁haryana	-10.6362
▁scanning	-10.6362
▁files	-10.6364
▁jay	-10.637
▁likh	-10.6375
▁hindi	-10.6378
▁cause	-10.6391
▁tower	-10.6393
▁requests	-10.6394
▁dues	-10.6404
▁lie	-10.6412
▁nu	-10.6415
▁pal	-10.6417
▁banned	-10.6423
▁seven	-10.6424
▁question	-10.6426
▁bheje	-10.6435
▁nudes	-10.6439
▁dispatch	-10.6462
▁penalty	-10.648
▁twenty	-10.648
▁duty	-10.648
▁completing	-10.6485
de	-10.649
il	-10.6506
▁weeks	-10.6514
▁punished	-10.6517
▁scanner	-10.6517
▁alert	-10.6525
kumar	-10.6531
cash	-10.6538
▁accessed	-10.6558
▁middle	-10.66
ssssssssssssssss	-10.6602
▁aapki	-10.6609
▁disbursed	-10.6612
▁milega	-10.6612
▁top	-10.6612
▁charg	-10.6617
▁tranfer	-10.6619
▁refer	-10.6622
▁amountrs	-10.6633
▁stay	-10.6639
▁vah	-10.6656
▁rapist	-10.6661
▁believing	-10.6661
▁acknowledgement	-10.6661
▁model	-10.667
▁sold	-10.6674
▁ali	-10.6674
▁maang	-10.6696
▁rape	-10.6722
▁pooja	-10.6723
▁waha	-10.6731
▁en	-10.6737
▁shoes	-10.674
el	-10.675
▁express	-10.6754
▁gets	-10.6756
un	-10.6764
▁huaa	-10.6771
▁couple	-10.6784
▁living	-10.6785
▁sikar	-10.6786
▁pressure	-10.6788
▁works	-10.6798
▁stock	-10.6804
▁disconnect	-10.6805
got	-10.6806
▁method	-10.6814
▁naukri	-10.6819
▁binance	-10.6822
▁hme	-10.6822
▁dono	-10.6833
▁passbook	-10.6846
▁resid	-10.6852
tha	-10.6852
▁realiz	-10.6866
▁galti	-10.6867
▁oka	-10.6868
▁instruction	-10.688
received	-10.6888
▁gallery	-10.6907
▁gaming	-10.6908
iya	-10.6912
▁karenge	-10.6912
ani	-10.6918
▁pretended	-10.6919
▁officials	-10.6968
▁discussion	-10.697
▁illegally	-10.6994
▁opt	-10.6995
▁select	-10.7015
▁boli	-10.7027
▁depression	-10.7032
▁advocate	-10.7032
▁impersonate	-10.7034
▁neft	-10.7035
▁goes	-10.7039
fi	-10.7063
first	-10.7067
▁mobil	-10.7081
▁mujh	-10.7084
▁assist	-10.7086
▁fully	-10.7089
▁scamming	-10.7096
▁kotwali	-10.7096
▁saini	-10.7102
for	-10.711
▁match	-10.7115
bank	-10.7116
▁missed	-10.7141
▁pocket	-10.7155
▁identify	-10.7159
nu	-10.716
▁sincerely	-10.7161
▁compl	-10.7162
▁prasad	-10.7162
▁transtion	-10.7164
▁usa	-10.717
▁gayi	-10.7176
▁capital	-10.7188
▁upto	-10.7188
▁cred	-10.7193
▁woman	-10.7194
mobile	-10.7199
▁dealer	-10.7199
▁texts	-10.7221
▁lucknow	-10.7224
▁idbi	-10.724
sa	-10.7241
▁freezed	-10.7242
▁appointment	-10.7245
▁max	-10.7248
▁lagi	-10.7258
▁kari	-10.7272
▁vodafone	-10.7288
▁trid	-10.7297
▁krishna	-10.7315
▁inka	-10.7319
ent	-10.7322
▁shiv	-10.733
▁october	-10.7353
▁priority	-10.7353
▁citibank	-10.7353
▁woh	-10.7367
▁dollars	-10.7378
▁tk	-10.7384
▁attended	-10.7386
▁thay	-10.7387
cyber	-10.74
▁cheppi	-10.7403
▁gujarat	-10.7419
google	-10.7437
is	-10.7444
▁non	-10.7467
▁sort	-10.7473
▁tiwari	-10.7486
▁changing	-10.7486
▁unhe	-10.7494
▁button	-10.7496
▁rupya	-10.7499
▁seriously	-10.7518
▁mala	-10.7522
ness	-10.7529
▁approve	-10.7539
be	-10.7545
▁electric	-10.7548
▁study	-10.7551
▁technology	-10.7551
▁board	-10.7556
▁puri	-10.7562
▁gain	-10.7594
▁manish	-10.7613
▁sorry	-10.7621
▁bolte	-10.7625
▁land	-10.7628
▁pesa	-10.7648
▁noc	-10.765
▁md	-10.7659
▁sender	-10.7662
▁visible	-10.7684
▁tenure	-10.7684
▁faithfully	-10.7684
▁firm	-10.7692
▁bheji	-10.7693
▁hackers	-10.7701
▁mu	-10.7706
▁sri	-10.7709
▁withdrawl	-10.7709
▁tech	-10.7715
nd	-10.7725
suchna	-10.7729
▁jaa	-10.7739
▁razorpay	-10.7739
his	-10.7753
▁disabled	-10.7759
man	-10.7762
▁lead	-10.7766
q	-10.7769
▁priya	-10.7781
▁chandra	-10.779
▁sharehash	-10.781
▁passport	-10.7821
▁approximately	-10.7822
▁higher	-10.7828
▁bearing	-10.7832
▁marketing	-10.7835
▁aapse	-10.7836
▁looting	-10.7839
plz	-10.7839
▁sends	-10.7841
▁feeling	-10.7846
ter	-10.7853
▁bed	-10.7854
▁doctor	-10.7857
ted	-10.7858
▁vikas	-10.7884
▁monday	-10.7888
▁continously	-10.7889
▁avail	-10.7893
▁aai	-10.7904
▁accident	-10.7922
▁director	-10.7922
▁types	-10.7938
▁professional	-10.795
▁bonus	-10.7957
▁worked	-10.7965
▁trip	-10.8014
▁community	-10.8026
▁punb	-10.8027
▁cycle	-10.8027
▁ajmer	-10.8028
▁mujs	-10.8047
▁meeting	-10.8059
▁fradur	-10.81
▁losses	-10.8108
▁summary	-10.8113
▁ensure	-10.8115
▁faced	-10.8148
▁generate	-10.8153
▁represent	-10.8159
pe	-10.8166
▁nunchi	-10.8167
▁sadar	-10.8176
▁individual	-10.8198
▁apse	-10.8202
ll	-10.8238
▁fault	-10.8239
▁herself	-10.8239
▁sakte	-10.8242
▁lena	-10.8248
singh	-10.8262
▁kota	-10.8269
▁usi	-10.8279
▁frauded	-10.8288
▁turan	-10.8294
▁affected	-10.8295
▁messege	-10.8296
▁initiate	-10.8301
▁aata	-10.8307
▁unknowingly	-10.8309
▁shipping	-10.831
par	-10.8332
▁likha	-10.8348
▁thousands	-10.8358
va	-10.8361
▁cross	-10.8363
▁transition	-10.8381
▁nudity	-10.8381
▁clearance	-10.8382
▁promotion	-10.8389
▁fail	-10.8399
vi	-10.8415
▁installment	-10.8417
▁increasing	-10.8453
▁paresan	-10.8454
▁tarah	-10.8464
tu	-10.8475
▁raising	-10.8487
ba	-10.8491
▁lossed	-10.8495
mmmmmmmmmmmmmmmm	-10.8498
▁afterwards	-10.8515
▁birth	-10.8526
▁alternate	-10.8526
▁personnel	-10.8528
▁freedom	-10.8528
▁farud	-10.8532
▁instructed	-10.8533
▁selfie	-10.8548
▁bas	-10.8566
paytm	-10.8571
▁records	-10.8579
▁require	-10.8591
▁karane	-10.8598
▁happend	-10.8598
▁grateful	-10.86
▁offensive	-10.86
▁btya	-10.8601
▁isko	-10.8601
▁mudra	-10.8602
▁married	-10.8602
▁beja	-10.8603
pls	-10.8605
ase	-10.8607
▁resolved	-10.8619
▁colleagues	-10.8623
over	-10.8625
▁esa	-10.8639
▁cl	-10.8669
▁subscription	-10.8674
▁wrote	-10.8674
▁themselves	-10.8674
▁tranjection	-10.8674
▁karnataka	-10.8675
▁aeps	-10.8675
▁magic	-10.8677
▁canteen	-10.8677
▁installation	-10.8678
▁z	-10.8697
▁king	-10.8704
kr	-10.8714
▁signature	-10.8718
app	-10.8731
▁exam	-10.8736
▁dinesh	-10.8736
▁mrs	-10.8748
▁registering	-10.8748
▁sunday	-10.8749
▁strong	-10.8749
▁costumer	-10.8751
▁rewards	-10.8751
▁borrowed	-10.8763
▁couldnt	-10.8792
▁dad	-10.8793
sha	-10.8799
▁kahi	-10.88
▁insist	-10.8806
du	-10.8806
▁global	-10.8818
▁retrieve	-10.8819
▁chair	-10.8829
▁suchnkart	-10.8833
ic	-10.8835
▁jail	-10.8844
▁thier	-10.8849
um	-10.885
▁mahesh	-10.885
▁enterprises	-10.885
▁ayi	-10.8862
▁incidents	-10.8865
▁partner	-10.8876
▁beg	-10.8878
▁ankit	-10.889
▁realise	-10.8892
▁mag	-10.8895
▁circle	-10.89
▁pratap	-10.89
▁subsequently	-10.8902
▁ca	-10.8906
▁dalwa	-10.8911
▁chal	-10.892
▁mukesh	-10.893
▁althoug	-10.894
all	-10.894
▁makes	-10.8944
money	-10.8965
▁continuous	-10.8969
▁meanwhile	-10.8976
▁pandey	-10.8977
▁akash	-10.8982
▁nine	-10.8984
▁mis	-10.8986
▁technologies	-10.8988
▁inb	-10.899
▁sake	-10.9
wa	-10.9014
▁loose	-10.9018
▁ane	-10.9025
with	-10.9031
out	-10.9047
▁sirf	-10.9047
▁favour	-10.9053
▁vallu	-10.9054
▁education	-10.9054
▁handy	-10.9072
▁languages	-10.9082
▁children	-10.9099
▁character	-10.91
chi	-10.9104
ers	-10.9108
suspect	-10.9109
▁forms	-10.9121
▁knows	-10.9125
▁reachable	-10.9139
▁alg	-10.9143
▁al	-10.9148
▁dollar	-10.9178
▁bazar	-10.9182
▁leave	-10.9186
▁cheater	-10.9187
▁include	-10.9195
▁nbfc	-10.9208
▁operating	-10.9208
▁university	-10.9208
▁duplicate	-10.9209
▁punishment	-10.921
▁frequently	-10.9211
▁udaipur	-10.9211
ate	-10.9213
▁jisne	-10.9224
▁photograph	-10.925
▁intention	-10.9254
▁repeat	-10.9269
▁allahabad	-10.9287
▁choudhary	-10.9293
▁linkage	-10.9295
▁east	-10.9311
si	-10.9321
▁sun	-10.9326
▁questions	-10.9328
▁uses	-10.9344
▁power	-10.9367
▁cryptocurrency	-10.9367
▁military	-10.9367
▁pankaj	-10.9369
▁personally	-10.9376
▁dial	-10.9393
▁neha	-10.9397
▁saree	-10.9398
▁quickly	-10.9399
▁fooled	-10.941
▁ruin	-10.9429
▁syndicate	-10.9447
▁criminals	-10.9447
▁vikram	-10.9448
▁deceived	-10.9451
▁collecting	-10.9452
▁passed	-10.9458
▁vip	-10.9476
ro	-10.9503
▁mp	-10.9507
▁protect	-10.9508
▁arun	-10.9516
▁swipe	-10.9519
▁upgrade	-10.9521
▁aadmi	-10.9527
▁pretext	-10.9527
▁mark	-10.9528
▁naukricom	-10.953
▁suresh	-10.9534
▁tumhare	-10.9545
▁wa	-10.9547
▁previously	-10.9547
▁karen	-10.9553
▁recharged	-10.9574
ance	-10.9594
putting	-10.9601
▁ewallet	-10.9609
▁sextortion	-10.9609
▁android	-10.9609
▁common	-10.9609
▁transportation	-10.9609
▁railway	-10.9609
▁xxxx	-10.9613
▁lia	-10.9623
▁su	-10.9624
▁sam	-10.9665
ny	-10.9667
▁foreign	-10.9673
▁quikr	-10.9677
▁secure	-10.9677
▁samsung	-10.9691
▁ammountrs	-10.9693
▁bh	-10.97
▁uninstalled	-10.9701
▁anand	-10.9704
▁leke	-10.9704
relevant	-10.9705
▁missuse	-10.9708
▁sudden	-10.971
account	-10.9725
▁attachments	-10.9751
▁travolook	-10.9752
▁ransom	-10.9753
▁starts	-10.9764
▁positive	-10.9764
▁bhar	-10.9769
▁barcode	-10.9774
▁standard	-10.9774
▁anjali	-10.9776
▁karvaye	-10.978
▁patna	-10.9782
▁bhot	-10.9783
▁food	-10.9786
▁attempts	-10.983
▁ashish	-10.9831
▁wats	-10.9835
ab	-10.9844
▁ecom	-10.9851
▁trader	-10.9853
▁telephonic	-10.9856
▁patanjali	-10.9857
▁license	-10.9861
▁excuses	-10.9867
▁fire	-10.9869
▁pure	-10.9874
▁denying	-10.9877
▁aj	-10.9882
sms	-10.99
▁iski	-10.9905
▁destroy	-10.9922
▁eight	-10.9927
▁sagar	-10.994
▁bhim	-10.994
▁happy	-10.9943
▁guidelines	-10.9944
▁sakta	-10.9945
▁broker	-10.9948
▁rental	-10.9958
pin	-10.996
▁taki	-10.9973
▁electronic	-10.9992
aur	-10.9997
▁phones	-10.9999
go	-11.002
▁facility	-11.0025
▁authorised	-11.003
sar	-11.0044
▁displayed	-11.0055
▁options	-11.0055
▁don	-11.0055
▁tra	-11.006
▁allowed	-11.0062
▁signed	-11.0066
▁led	-11.009
▁needfull	-11.0092
▁ignoring	-11.0112
▁http	-11.0113
▁tamil	-11.0113
▁upset	-11.0115
▁khilaf	-11.012
▁kabhi	-11.0121
▁unki	-11.0124
▁sat	-11.0156
▁stuff	-11.0167
red	-11.0177
coin	-11.0191
▁bb	-11.0194
▁mohan	-11.0196
▁authentication	-11.0197
▁promis	-11.0197
▁world	-11.0198
▁overdue	-11.0198
▁gandhi	-11.0199
▁samay	-11.0205
▁kids	-11.0209
▁train	-11.0211
▁bharti	-11.023
▁impersonation	-11.0234
har	-11.025
▁kon	-11.0252
▁kaat	-11.026
▁khud	-11.0266
caller	-11.0271
▁pre	-11.0275
ja	-11.0279
▁scooty	-11.0284
▁treatment	-11.0285
▁gaurav	-11.0286
▁alleged	-11.0286
▁exactly	-11.0291
▁tricked	-11.0296
▁ran	-11.0297
▁size	-11.0297
▁withdrawals	-11.031
▁uc	-11.0311
▁replace	-11.0312
▁vaishno	-11.0313
▁exist	-11.0315
▁disturb	-11.0324
of	-11.0337
▁fashion	-11.0343
▁press	-11.0358
▁chahta	-11.0372
▁froad	-11.0373
▁vishal	-11.0375
▁typing	-11.0376
▁submitt	-11.0378
▁chalu	-11.038
▁appeared	-11.0387
nhi	-11.0396
dan	-11.0406
▁ti	-11.0408
ek	-11.0415
▁baje	-11.0418
maine	-11.042
▁ll	-11.0421
▁agr	-11.0437
▁solutions	-11.0446
▁blackmailer	-11.0456
▁lack	-11.0456
▁holiday	-11.0461
▁expiry	-11.0462
▁identified	-11.0464
▁club	-11.0464
▁onwards	-11.0465
ling	-11.047
▁muj	-11.0512
▁tere	-11.0517
▁profiles	-11.0518
▁continues	-11.0528
▁cha	-11.0531
▁soni	-11.0533
▁convince	-11.0536
▁meine	-11.0538
▁ganesh	-11.0544
▁kkbk	-11.0549
▁lijiye	-11.0551
▁bankbank	-11.0556
▁kariye	-11.056
▁aditya	-11.0563
▁lives	-11.0569
▁cases	-11.0575
▁alot	-11.0576
▁sumit	-11.0594
▁choose	-11.0604
▁relation	-11.0609
▁torcher	-11.061
▁isse	-11.0613
▁sachin	-11.0616
▁jise	-11.0618
▁numer	-11.0618
▁unknow	-11.062
ay	-11.0621
▁kate	-11.0622
▁caus	-11.0623
ck	-11.0625
▁physical	-11.0632
raat	-11.0638
▁institute	-11.064
▁safety	-11.064
▁wapis	-11.0641
▁karu	-11.0644
▁master	-11.0644
▁viewer	-11.0647
▁froders	-11.0655
▁delayed	-11.0683
india	-11.0683
▁jacket	-11.0688
et	-11.0698
▁contents	-11.0699
▁wine	-11.0709
▁jata	-11.0725
▁settlement	-11.0731
▁description	-11.0731
▁bellon	-11.0734
▁associated	-11.0734
▁saman	-11.0749
▁borrow	-11.0756
▁sh	-11.0765
▁noise	-11.0765
▁coll	-11.077
▁con	-11.0811
▁key	-11.0817
gi	-11.0822
▁jyada	-11.0822
▁simply	-11.0823
▁classes	-11.0825
▁obliged	-11.0828
▁ramesh	-11.0844
▁barb	-11.0863
▁sand	-11.0864
garh	-11.0865
▁pretend	-11.0867
ise	-11.0877
▁lift	-11.0897
▁karaya	-11.0898
▁fradulent	-11.0906
▁cleared	-11.0908
▁phn	-11.091
tmmediumcopylink	-11.0915
▁article	-11.0915
▁inquiry	-11.0917
▁sisters	-11.0936
ized	-11.0938
▁bal	-11.0958
▁posed	-11.0962
▁om	-11.0966
▁prove	-11.0967
▁demands	-11.0972
▁confirming	-11.0974
▁requirement	-11.0978
▁red	-11.0986
▁phonpe	-11.1001
net	-11.1005
▁resolution	-11.1009
▁harsh	-11.1012
nahi	-11.1014
▁karunga	-11.1018
▁baki	-11.1023
▁riya	-11.1039
▁rakha	-11.104
pa	-11.1047
▁town	-11.1054
▁deposite	-11.1063
▁port	-11.1069
▁pytm	-11.1073
▁reg	-11.1077
▁receiver	-11.109
▁monthly	-11.1095
▁pen	-11.1096
▁ladies	-11.1103
▁unkown	-11.1103
▁membership	-11.1103
▁desktop	-11.1103
▁eventually	-11.1103
▁coad	-11.1104
▁shinecom	-11.1105
co	-11.1107
▁thik	-11.111
▁massege	-11.1116
▁investors	-11.1121
▁gas	-11.1122
▁linkedin	-11.1123
▁occur	-11.1139
▁deep	-11.1156
▁installments	-11.1159
ir	-11.1173
▁maintain	-11.1176
ant	-11.119
▁fraudphone	-11.1196
▁treat	-11.1197
▁tehsil	-11.1198
▁incorrect	-11.1198
▁virtual	-11.1199
▁frozen	-11.1201
▁authorized	-11.1202
▁reddy	-11.1203
▁roj	-11.1206
▁career	-11.121
▁hamne	-11.1212
▁dept	-11.1214
▁inko	-11.1248
▁automatic	-11.1264
▁ku	-11.1268
▁sha	-11.1271
▁shree	-11.1273
yesterday	-11.1275
▁extort	-11.1277
▁bc	-11.129
▁xx	-11.1291
▁lodging	-11.1294
▁opportunity	-11.1294
▁shift	-11.1294
▁jariye	-11.1294
▁boss	-11.1296
▁arrived	-11.13
▁south	-11.1302
▁captured	-11.1304
▁discussed	-11.1309
▁attack	-11.1314
▁confuse	-11.1326
body	-11.1328
▁reput	-11.1329
▁jane	-11.1337
▁held	-11.1342
▁losed	-11.1344
▁customs	-11.1359
▁quite	-11.1363
▁attending	-11.1364
punjab	-11.1365
▁table	-11.137
▁uss	-11.1372
▁rup	-11.138
ial	-11.1383
▁invalid	-11.1391
▁racket	-11.1391
▁quality	-11.1391
▁completion	-11.1391
▁netflix	-11.1392
▁stories	-11.1392
lal	-11.1393
▁nikala	-11.1395
▁jaan	-11.1396
▁hume	-11.1412
▁shine	-11.1421
▁dream	-11.1422
▁shah	-11.1427
ine	-11.1431
▁mini	-11.1433
▁reciev	-11.1438
▁od	-11.1442
▁domain	-11.1449
▁cr	-11.1459
▁jhans	-11.1463
▁intimate	-11.1478
▁enk	-11.1487
▁pubg	-11.1489
▁nundi	-11.149
▁pickup	-11.1491
▁ese	-11.1491
▁whatsap	-11.1491
▁preshan	-11.1492
▁removing	-11.1494
▁mna	-11.1495
▁recd	-11.1496
▁anywhere	-11.1497
▁mandir	-11.1504
▁hind	-11.151
said	-11.1512
ail	-11.1521
ybl	-11.1522
▁basic	-11.1527
was	-11.1534
▁dint	-11.155
▁puch	-11.1555
▁lock	-11.1563
▁ch	-11.1569
▁gaali	-11.1584
its	-11.1586
▁management	-11.1589
▁bricks	-11.159
▁throw	-11.159
▁research	-11.1592
▁laon	-11.1594
▁huye	-11.1595
ake	-11.1596
▁wifes	-11.1597
▁incidence	-11.1599
▁itna	-11.1602
▁ship	-11.1609
▁sometimes	-11.1609
▁adv	-11.1612
▁rupes	-11.165
▁breach	-11.165
▁colleague	-11.1657
▁finserv	-11.1668
advertisement	-11.1669
mujhe	-11.1669
▁bio	-11.1676
▁exact	-11.1681
ee	-11.1686
▁prior	-11.1688
▁confidential	-11.1688
▁rani	-11.169
▁browser	-11.169
▁managed	-11.1695
▁sad	-11.1698
▁probabl	-11.1699
▁among	-11.1702
▁atleast	-11.1712
▁addgav	-11.1716
▁base	-11.1719
▁randomly	-11.1724
hu	-11.1725
▁appear	-11.1746
▁loot	-11.1753
▁round	-11.1759
ther	-11.1771
▁stress	-11.1772
phonepe	-11.1783
▁love	-11.1784
▁overseas	-11.1789
▁pornography	-11.1789
▁advice	-11.1789
▁principal	-11.179
▁assistant	-11.179
mera	-11.179
▁ubin	-11.1799
▁nosbi	-11.1805
▁cover	-11.1807
▁fun	-11.1808
▁maid	-11.1809
▁continu	-11.1812
▁rid	-11.1817
▁zestmoney	-11.1819
▁boys	-11.1822
▁sham	-11.1831
▁officers	-11.1836
▁brothers	-11.1843
▁ground	-11.186
▁bicycle	-11.1861
lo	-11.1862
▁extract	-11.1866
▁thane	-11.1867
person	-11.1867
▁saturday	-11.1891
▁scooter	-11.1891
▁tamilnadu	-11.1891
▁outstanding	-11.1892
▁req	-11.1895
▁morphing	-11.1901
▁stranger	-11.191
▁mari	-11.1912
▁lg	-11.1915
▁cbi	-11.1917
▁vill	-11.1918
▁photographs	-11.1931
▁financially	-11.1937
▁disputed	-11.1938
▁slip	-11.1945
▁promises	-11.1954
▁sho	-11.196
▁term	-11.1964
▁froude	-11.1965
▁prompt	-11.1986
▁mean	-11.1988
▁unnecessary	-11.1994
▁carried	-11.1995
▁winning	-11.1995
▁print	-11.1995
▁hogya	-11.1995
▁refusing	-11.1998
▁huwa	-11.2001
▁nearby	-11.2004
han	-11.2013
▁packing	-11.2015
▁leaked	-11.2031
▁dila	-11.2036
▁wajah	-11.2038
▁vinod	-11.2046
ai	-11.2063
▁mandi	-11.2067
▁hoon	-11.2078
▁fack	-11.2081
▁debiting	-11.209
▁hindu	-11.2096
cc	-11.2096
▁circulating	-11.2098
▁residence	-11.2099
▁phonpay	-11.2099
▁jitendra	-11.21
▁civil	-11.21
▁taraf	-11.21
▁padega	-11.21
spite	-11.2108
▁somewhere	-11.211
war	-11.2111
▁bht	-11.2115
▁special	-11.2119
▁inse	-11.2145
▁faith	-11.2149
ik	-11.2158
▁valla	-11.2163
▁br	-11.2163
▁dob	-11.2166
▁downlod	-11.2167
▁escort	-11.2171
▁supplier	-11.2172
▁oct	-11.2185
▁gay	-11.2187
▁electricity	-11.2204
▁chuke	-11.2204
▁enough	-11.2205
▁july	-11.2207
▁rsrupay	-11.2208
▁pai	-11.2211
▁transacted	-11.2219
▁upiphone	-11.2222
od	-11.2223
▁roy	-11.2234
▁hear	-11.2243
▁recovered	-11.2273
▁despit	-11.2274
wal	-11.228
ttpsinstagramcom	-11.228
▁frnd	-11.2281
▁detailed	-11.229
▁wil	-11.2292
▁fino	-11.2297
▁succhna	-11.231
▁tranjaction	-11.231
▁english	-11.231
hoping	-11.2313
▁extreme	-11.2314
▁permanently	-11.2315
▁filth	-11.2319
▁amar	-11.232
▁rules	-11.233
later	-11.2336
▁aye	-11.2343
▁staying	-11.2362
▁marg	-11.2366
also	-11.2386
good	-11.2398
mo	-11.2405
▁mata	-11.2406
▁videocall	-11.2406
▁ordering	-11.2408
profilephpid	-11.2408
▁stoped	-11.2416
▁hell	-11.2417
▁dungi	-11.2418
▁amounit	-11.2418
▁dubai	-11.2419
▁copie	-11.242
▁mutual	-11.2421
▁dev	-11.2424
▁cv	-11.2424
▁demat	-11.243
ap	-11.244
▁conditions	-11.2448
▁detailssuchna	-11.245
▁devices	-11.2452
order	-11.2457
date	-11.2463
af	-11.2469
▁kah	-11.2481
▁dilan	-11.2491
▁digits	-11.2498
▁chowk	-11.2503
▁hung	-11.2505
▁reveal	-11.2508
facebook	-11.2509
▁ri	-11.2509
▁hajar	-11.2527
driving	-11.2527
▁sucide	-11.2527
▁consultancy	-11.2527
▁perform	-11.2538
▁dino	-11.2539
▁circulated	-11.2539
▁suraj	-11.2544
▁included	-11.2545
▁ve	-11.2549
timepmamountrs	-11.2567
▁deke	-11.2584
per	-11.2584
ana	-11.2591
▁trasaction	-11.2593
▁dega	-11.2595
▁harras	-11.2597
ig	-11.2602
▁intimation	-11.2605
▁worry	-11.2606
esh	-11.2607
▁pase	-11.2611
▁sonu	-11.2621
▁galt	-11.2621
drew	-11.2622
▁mothers	-11.2626
▁expire	-11.2631
ographic	-11.2633
▁organisation	-11.2636
▁fridge	-11.2636
▁assistance	-11.2636
▁mobiwik	-11.2636
▁throgh	-11.2637
▁madhyam	-11.2637
▁ahmedabad	-11.2639
▁documentation	-11.2639
▁finacial	-11.264
▁tran	-11.264
▁shoe	-11.2642
ul	-11.2666
om	-11.267
▁dispatched	-11.267
▁energy	-11.2672
ca	-11.2672
▁rai	-11.2681
unga	-11.2682
▁bahan	-11.2697
▁acct	-11.271
▁delivering	-11.2718
ist	-11.2718
less	-11.272
▁attract	-11.2729
▁willing	-11.273
▁circulate	-11.2735
▁respective	-11.274
▁august	-11.2744
▁kharab	-11.2748
▁afore	-11.2748
▁baby	-11.2749
▁vapis	-11.2753
▁watsup	-11.2758
▁lime	-11.2769
▁maa	-11.2769
▁janta	-11.2776
▁scams	-11.2785
▁deducting	-11.2803
▁effect	-11.2805
payment	-11.2814
▁helping	-11.2817
▁distt	-11.2829
▁surprise	-11.2844
▁vyakti	-11.2846
▁nehi	-11.2847
which	-11.2848
▁rana	-11.2849
▁risk	-11.2853
▁teamviewer	-11.286
▁latter	-11.286
▁galaxy	-11.286
▁krwaya	-11.2865
▁rates	-11.2865
▁pop	-11.2874
ak	-11.2877
reby	-11.2882
▁fi	-11.2885
▁du	-11.2889
least	-11.2893
▁heard	-11.2897
▁dart	-11.2901
▁prices	-11.2902
▁fixed	-11.2902
▁caused	-11.2908
king	-11.2913
▁plans	-11.2918
▁unblock	-11.2925
▁sabk	-11.293
▁muslim	-11.2942
▁chating	-11.2951
▁mile	-11.2968
▁kuc	-11.2969
▁midnight	-11.2973
▁supply	-11.2974
▁matrimonial	-11.2974
▁indore	-11.2974
▁jld	-11.2974
▁everytime	-11.2975
▁cake	-11.2976
▁huyi	-11.2976
▁surat	-11.2979
▁honge	-11.2981
ot	-11.2981
▁reflected	-11.2985
▁conversations	-11.2988
▁naa	-11.2999
▁listening	-11.3
▁played	-11.3003
▁appears	-11.3009
▁au	-11.302
▁duga	-11.3036
▁raju	-11.3038
▁reading	-11.304
▁aapne	-11.3041
▁clients	-11.3048
▁tumhar	-11.3056
▁thread	-11.306
▁bande	-11.3082
▁fd	-11.3086
▁severe	-11.3086
▁dtdc	-11.3088
▁jayenge	-11.3089
▁utib	-11.3089
▁jiomart	-11.309
▁admi	-11.309
▁priyanka	-11.309
▁shyam	-11.3092
ps	-11.3109
▁quit	-11.3123
▁ru	-11.3124
hta	-11.3128
▁gram	-11.3134
▁penis	-11.3143
▁arrested	-11.3154
ndi	-11.3161
ku	-11.3161
mi	-11.3168
▁bich	-11.3172
▁truck	-11.3172
nk	-11.3175
▁kadi	-11.3175
▁discuss	-11.3185
▁sp	-11.3195
▁september	-11.3204
▁retire	-11.3206
▁nobroker	-11.3206
▁jayegi	-11.3206
▁pawan	-11.3207
▁mohammad	-11.3207
▁pradeep	-11.3209
▁friendship	-11.3209
▁nitin	-11.3215
▁joshi	-11.3216
▁frm	-11.3244
cha	-11.3246
▁acknowledge	-11.3248
▁kri	-11.3249
fir	-11.3255
dubara	-11.3256
▁none	-11.3258
▁ping	-11.326
▁jarur	-11.328
▁ways	-11.3281
▁pad	-11.3294
quired	-11.3299
▁operate	-11.3309
▁deny	-11.3312
▁iyyaru	-11.3322
▁commision	-11.3322
▁tranction	-11.3322
▁heavy	-11.3322
▁percentage	-11.3322
▁fdrl	-11.3323
▁dangerous	-11.3323
▁mahendra	-11.3325
▁street	-11.3326
▁karaye	-11.3328
pal	-11.3333
▁shipment	-11.3335
▁assam	-11.3335
▁phno	-11.3339
▁evidences	-11.3341
▁jink	-11.3342
▁intentions	-11.3369
▁karni	-11.3383
▁offence	-11.3394
▁suffer	-11.3394
▁shoot	-11.3409
▁finish	-11.3423
gh	-11.3429
▁move	-11.3429
▁va	-11.3433
▁extortion	-11.3439
transaction	-11.344
▁general	-11.344
▁beneficiaries	-11.3441
▁guarantee	-11.3441
▁responce	-11.3441
▁talks	-11.3442
▁camp	-11.3442
▁praveen	-11.3442
▁bikaner	-11.3443
▁googal	-11.3443
▁fishy	-11.3444
▁hamara	-11.3445
▁satish	-11.3445
card	-11.3448
chinese	-11.345
▁mangi	-11.345
▁wali	-11.3454
▁suru	-11.3455
▁los	-11.3466
▁format	-11.3468
▁finding	-11.349
der	-11.3491
her	-11.3512
▁q	-11.3517
▁pc	-11.3532
▁lend	-11.3551
▁lon	-11.3558
▁housing	-11.3562
▁prime	-11.3562
▁messanger	-11.3562
▁cement	-11.3565
▁chatted	-11.3567
▁hamari	-11.3568
▁disappeared	-11.3568
▁guru	-11.3572
▁shankar	-11.3583
▁clothing	-11.3588
▁gb	-11.3588
hne	-11.3594
▁citizens	-11.3596
▁paiso	-11.3606
▁games	-11.3608
▁incoming	-11.3612
▁inter	-11.3623
▁peace	-11.3634
▁mohit	-11.3664
▁nisha	-11.3672
▁abdul	-11.3676
▁yo	-11.3676
▁whtsapp	-11.3684
▁reversal	-11.3684
▁hurry	-11.3685
▁nagpur	-11.3685
▁patil	-11.3686
▁jhasa	-11.3686
▁sunita	-11.3686
▁mohd	-11.369
▁worker	-11.369
▁detected	-11.3691
▁acres	-11.3694
▁okay	-11.3698
▁kata	-11.3716
▁books	-11.3716
▁wan	-11.3717
▁damaged	-11.3729
karta	-11.3751
are	-11.3767
pr	-11.377
▁rao	-11.3771
▁karwai	-11.3778
thank	-11.3788
▁schedule	-11.3796
▁jitne	-11.3796
these	-11.3796
ory	-11.3806
▁flash	-11.3808
▁ceo	-11.3812
▁defrauded	-11.3815
▁insult	-11.3816
▁ganda	-11.3819
bi	-11.3825
▁suffered	-11.3826
▁reflecting	-11.3828
▁jisk	-11.3828
ganj	-11.3835
▁yogesh	-11.3845
▁bej	-11.3846
son	-11.386
▁keh	-11.3862
ts	-11.3867
ery	-11.3867
▁states	-11.3868
▁mno	-11.3884
jo	-11.3888
iye	-11.3891
▁sky	-11.3893
ally	-11.3899
▁renew	-11.39
number	-11.3904
▁listen	-11.3915
▁drive	-11.3917
▁debt	-11.392
▁transecati	-11.3922
▁plzzz	-11.3931
▁confidence	-11.3932
▁lockdown	-11.3932
▁petrol	-11.3933
▁zero	-11.3933
▁opposite	-11.3934
▁better	-11.3934
▁washing	-11.3935
▁series	-11.3937
▁addhar	-11.3939
▁canceled	-11.3948
▁csc	-11.3959
▁frnds	-11.3968
▁aage	-11.3968
▁purposes	-11.397
▁mad	-11.3977
▁gifts	-11.399
store	-11.3995
gle	-11.4003
pan	-11.4018
yi	-11.4024
▁panic	-11.4026
▁consultant	-11.4029
▁pakistan	-11.4035
ence	-11.405
▁cnrb	-11.4059
▁custmer	-11.4059
▁browsing	-11.4059
▁clock	-11.4059
▁kashmir	-11.4059
▁continuosly	-11.406
▁mump	-11.4061
▁prarthi	-11.4064
▁manipulated	-11.4066
▁extend	-11.4067
▁advertised	-11.4068
▁ge	-11.4089
end	-11.4107
back	-11.4108
▁forex	-11.412
▁apartment	-11.4127
▁dhoka	-11.4128
▁narayan	-11.4138
▁locate	-11.4141
rance	-11.4167
▁gadi	-11.4171
▁pg	-11.4174
coz	-11.4175
fake	-11.418
scom	-11.418
▁diffrent	-11.4187
▁recruitment	-11.4188
▁accout	-11.4189
▁saare	-11.4192
▁rathore	-11.4195
▁tabhi	-11.42
▁obtained	-11.4201
▁tarike	-11.4202
▁invite	-11.4204
▁surprised	-11.4204
▁je	-11.4207
▁harrased	-11.4215
▁uspe	-11.4217
dha	-11.4226
▁indiamart	-11.4246
▁delet	-11.425
liye	-11.4258
▁abuses	-11.4259
▁mal	-11.4262
▁die	-11.4278
▁trick	-11.4282
union	-11.4299
▁transact	-11.431
▁bada	-11.4311
▁liquor	-11.4317
▁assurance	-11.4317
do	-11.4317
gamilcom	-11.4318
▁kailash	-11.4318
▁kirpa	-11.4321
▁lending	-11.4321
▁barmer	-11.4322
▁ipc	-11.4327
▁darj	-11.433
▁north	-11.4338
▁sound	-11.4344
▁sahi	-11.4346
▁youtuber	-11.4362
▁machines	-11.4375
than	-11.4377
aya	-11.438
▁coins	-11.4397
▁upar	-11.4402
▁thagi	-11.4417
▁cart	-11.4428
▁grab	-11.4428
▁patient	-11.443
▁waps	-11.443
▁var	-11.4432
▁ar	-11.4438
▁recent	-11.4441
▁plac	-11.4442
▁holdreserse	-11.4448
▁tension	-11.4448
▁critical	-11.4448
▁vivek	-11.4449
▁santosh	-11.4449
▁whatspp	-11.4451
▁sexting	-11.4451
▁travelling	-11.4452
▁phase	-11.4452
▁engaged	-11.4454
▁humko	-11.4455
▁katra	-11.4457
▁kosis	-11.4465
▁hmare	-11.4467
▁acts	-11.449
▁existing	-11.4493
▁ruppe	-11.4493
▁trasfer	-11.4497
▁bolke	-11.4497
▁bd	-11.45
▁traders	-11.4502
ho	-11.4502
▁soft	-11.4509
▁yaha	-11.4517
▁banda	-11.4524
▁aman	-11.4537
lakin	-11.4542
▁organization	-11.4548
▁position	-11.4549
▁khata	-11.4552
add	-11.4552
▁sal	-11.4556
▁mujha	-11.4559
▁advisor	-11.4578
▁gurugram	-11.4582
▁telephone	-11.4582
▁jammu	-11.4582
▁arora	-11.4583
▁chaudhary	-11.4584
▁boyfriend	-11.4585
je	-11.4587
bad	-11.4587
▁karvaya	-11.4587
▁taxes	-11.4587
▁gopal	-11.4606
▁wah	-11.4606
▁inbox	-11.461
▁bankhdfc	-11.4618
▁modi	-11.4621
mal	-11.4623
▁ras	-11.4627
▁sarees	-11.4639
▁urge	-11.4644
▁avi	-11.4673
mai	-11.4679
▁karti	-11.4683
▁grievance	-11.4684
▁muja	-11.4696
▁callers	-11.4705
▁hv	-11.4707
▁bahot	-11.4717
▁complent	-11.4719
▁dausa	-11.4719
▁sambandh	-11.472
▁agony	-11.472
▁frued	-11.4723
day	-11.4726
▁madat	-11.4732
▁raja	-11.474
▁tidt	-11.4743
ex	-11.4746
whatsapp	-11.4749
▁rat	-11.4758
rd	-11.4765
ag	-11.4772
▁badnam	-11.478
▁logon	-11.478
▁light	-11.4793
mr	-11.4804
▁hoti	-11.4806
▁reject	-11.4807
▁pement	-11.482
▁jyoti	-11.4822
▁candidate	-11.4825
▁fa	-11.4832
sirmadam	-11.4835
▁communicate	-11.484
▁rude	-11.4847
▁goa	-11.485
▁pali	-11.4851
▁retail	-11.4853
▁chartered	-11.4854
▁thrice	-11.4854
▁lawyer	-11.4854
▁planning	-11.4854
▁protection	-11.4854
▁uchit	-11.4854
▁bhopal	-11.4855
▁elza	-11.4855
▁subah	-11.4855
▁chauhan	-11.4855
▁thief	-11.4856
liya	-11.4859
▁kosam	-11.486
▁shrine	-11.4862
▁kitne	-11.4863
▁maga	-11.4863
em	-11.4867
ju	-11.4867
neeraj	-11.4871
▁movie	-11.4872
▁forgot	-11.4882
▁mat	-11.491
▁serv	-11.4924
free	-11.494
▁sing	-11.4945
▁bhe	-11.4956
ually	-11.4957
▁pi	-11.4966
internet	-11.4973
mer	-11.4975
▁drop	-11.4978
way	-11.4988
▁path	-11.499
▁difficult	-11.499
▁gi	-11.4991
▁snapchat	-11.4993
▁inspector	-11.4993
▁sensitive	-11.4993
▁break	-11.4993
▁faroad	-11.4993
▁background	-11.4993
▁winner	-11.4994
▁jagah	-11.4994
▁death	-11.4994
▁shortlisted	-11.4994
▁offline	-11.4996
▁dhan	-11.5
▁throughdebit	-11.5001
▁samne	-11.5001
▁prey	-11.5012
▁solved	-11.5012
lu	-11.5014
▁dale	-11.5021
pu	-11.5031
ver	-11.5032
▁yahi	-11.5042
▁phel	-11.5046
▁hote	-11.5054
▁attempted	-11.5055
▁benefits	-11.5062
▁subha	-11.5066
▁oh	-11.507
▁dm	-11.5085
▁dhmki	-11.5088
▁dot	-11.509
▁suman	-11.5097
nath	-11.5104
▁cit	-11.5105
▁jk	-11.5118
last	-11.5123
▁jharkhand	-11.5133
▁closing	-11.5133
▁primary	-11.5133
▁shipped	-11.5133
▁ghaziabad	-11.5134
▁transafer	-11.5134
▁petition	-11.5134
▁telangana	-11.5134
▁prepaid	-11.5134
▁shukla	-11.5135
▁kanpur	-11.5135
▁emotional	-11.5137
▁observed	-11.5138
▁nadu	-11.5141
▁bhejo	-11.5141
▁major	-11.5142
▁anybody	-11.5158
▁airlines	-11.5159
▁hoo	-11.5171
▁bs	-11.5174
contact	-11.5175
▁sak	-11.5176
ls	-11.5196
▁kg	-11.5198
▁suspects	-11.5204
shop	-11.5205
▁hate	-11.5222
▁aate	-11.5226
▁typed	-11.5226
▁updates	-11.5238
▁dilwa	-11.5246
▁merchants	-11.5255
▁brough	-11.5262
▁god	-11.5268
▁prashant	-11.5271
▁blood	-11.5276
▁singapore	-11.5276
▁logging	-11.5277
▁gautam	-11.5278
▁rawat	-11.5278
▁naveen	-11.5278
▁vanished	-11.5278
▁bhilwara	-11.5279
▁canada	-11.5283
▁ghr	-11.5285
ese	-11.5291
▁idfb	-11.5297
▁akshay	-11.5306
▁tat	-11.5309
▁alter	-11.5313
▁sk	-11.532
▁holding	-11.5325
▁tag	-11.533
▁pleas	-11.5333
▁benefit	-11.535
▁ahe	-11.535
▁tar	-11.5352
▁locat	-11.536
▁rajendra	-11.5362
▁promote	-11.5367
ish	-11.5369
▁fo	-11.5377
▁stage	-11.5396
▁spend	-11.5398
▁statements	-11.54
▁convey	-11.5421
▁chaiye	-11.5421
▁sunshine	-11.5422
▁disbursement	-11.5422
▁aayega	-11.5423
▁kerala	-11.5423
▁mjhe	-11.5423
▁malhotra	-11.5423
▁cheste	-11.5424
▁simple	-11.5424
▁expenses	-11.5427
▁humse	-11.5429
▁insert	-11.543
▁unfreeze	-11.5439
▁docs	-11.5449
▁liy	-11.5451
▁executives	-11.5452
ker	-11.5455
▁kishan	-11.5456
▁jabk	-11.5464
▁mugh	-11.5464
stream	-11.5475
▁mili	-11.5484
▁fro	-11.5492
▁logistics	-11.5493
▁krva	-11.5496
jese	-11.5496
▁prem	-11.5498
jit	-11.5501
▁soo	-11.5508
▁shut	-11.5521
▁cloth	-11.5521
▁chla	-11.5547
▁fed	-11.5555
▁extension	-11.5568
▁recipient	-11.5568
▁fifty	-11.5568
▁sanganer	-11.5568
▁comission	-11.5568
lly	-11.5569
▁dubey	-11.5569
▁ganganagar	-11.5569
▁cradit	-11.557
▁dealership	-11.557
kumargmailcom	-11.557
▁dropped	-11.5571
▁gujrat	-11.5571
▁rush	-11.5575
action	-11.5581
▁kl	-11.5582
▁bharatpur	-11.5584
▁nenu	-11.5586
▁harrassed	-11.5586
▁threatens	-11.5593
▁pack	-11.5605
▁hy	-11.561
▁kamal	-11.5629
▁suit	-11.563
ble	-11.5632
vara	-11.5656
our	-11.5659
▁design	-11.5659
▁aged	-11.5662
▁bharn	-11.5663
ct	-11.5671
▁kt	-11.5676
pm	-11.5681
▁fcb	-11.5682
oda	-11.5684
▁operation	-11.5686
▁imposter	-11.5687
▁uninstall	-11.5699
▁kyu	-11.5704
rt	-11.5706
gaw	-11.5707
▁disclose	-11.571
▁trat	-11.571
▁hay	-11.571
▁distric	-11.5713
▁chandigarh	-11.5718
▁behaviour	-11.5718
▁brief	-11.5719
▁jhunjhunu	-11.5719
▁adharcard	-11.572
▁argopro	-11.5721
▁surf	-11.5723
op	-11.5725
▁physically	-11.5731
▁crores	-11.5742
▁sahil	-11.5743
▁randi	-11.5746
▁dalo	-11.5763
▁dd	-11.577
age	-11.5772
▁young	-11.5784
▁ot	-11.5787
▁naresh	-11.5789
voi	-11.579
▁hang	-11.5792
▁nodal	-11.5795
▁unit	-11.5838
diya	-11.5841
▁freelancer	-11.5848
▁ata	-11.5854
▁btc	-11.5864
▁saja	-11.5866
▁boho	-11.5868
▁advertising	-11.5869
▁vachindhi	-11.5869
▁window	-11.5869
ward	-11.5869
▁empty	-11.5869
▁enhancement	-11.5869
▁remember	-11.5869
▁ekyc	-11.5869
▁proposal	-11.5869
▁gambling	-11.5869
▁licence	-11.587
▁odisha	-11.587
▁narendra	-11.5872
▁fou	-11.5874
▁lesson	-11.5875
okhdfcbank	-11.5881
▁fraudlent	-11.5886
▁himher	-11.5892
▁tumhe	-11.5893
▁tumhari	-11.59
su	-11.5903
▁huya	-11.5905
▁assure	-11.5906
▁correctly	-11.5907
▁availed	-11.591
▁komal	-11.5916
ie	-11.5917
▁subscriber	-11.5923
▁pur	-11.5925
▁hmar	-11.5926
▁fourd	-11.5932
▁proceeded	-11.5936
▁nath	-11.594
pp	-11.5952
▁chek	-11.5961
kha	-11.5963
link	-11.5966
▁adhi	-11.5971
wan	-11.5972
▁notifications	-11.5981
▁suspecting	-11.5983
kh	-11.5993
▁guess	-11.6004
▁bolo	-11.6017
▁success	-11.6022
▁accuracy	-11.6023
▁ahmad	-11.6023
▁derogatory	-11.6023
▁advantage	-11.6023
▁laundering	-11.6024
▁detals	-11.6026
▁varun	-11.6027
▁daughters	-11.6034
▁debitted	-11.6044
jan	-11.6061
▁babu	-11.6063
mu	-11.6064
▁forged	-11.6087
▁june	-11.6109
singhgmailcom	-11.6109
▁jitn	-11.6114
yo	-11.6127
▁ah	-11.6127
▁rc	-11.6129
▁asan	-11.6143
mp	-11.6144
▁tds	-11.6144
gggggggggggggggg	-11.6144
▁demo	-11.6148
▁slang	-11.6149
▁engineer	-11.6152
▁payee	-11.6155
wala	-11.6159
▁franchise	-11.6162
▁event	-11.6162
▁disable	-11.617
▁labour	-11.6174
▁friday	-11.6179
▁feedback	-11.6179
▁together	-11.6179
▁aggarwal	-11.6179
▁whattsapp	-11.618
▁harrassment	-11.618
▁pradhan	-11.618
▁indigo	-11.618
▁rajiv	-11.618
▁matrimony	-11.618
▁intentionally	-11.618
▁colour	-11.618
▁garib	-11.6181
▁requst	-11.6181
▁vivo	-11.6181
▁chose	-11.6184
▁laxmi	-11.6185
▁jada	-11.6187
▁withdrawing	-11.6192
▁bataa	-11.6193
▁yog	-11.6194
▁notify	-11.6196
▁warna	-11.6214
▁settle	-11.6223
▁bybank	-11.6237
▁super	-11.6256
▁banker	-11.6285
▁longer	-11.6288
▁tumar	-11.6288
aa	-11.6288
▁bear	-11.6289
▁sources	-11.6301
▁rule	-11.6309
complaint	-11.6313
▁investor	-11.6324
▁agin	-11.6326
▁separate	-11.6329
aratpeyesbankltd	-11.6335
▁maximum	-11.6338
▁consign	-11.6338
▁unkwo	-11.6338
▁ministry	-11.6338
▁unlock	-11.6338
▁hidden	-11.6338
▁kumawat	-11.6339
▁accont	-11.6342
▁harres	-11.6342
▁oder	-11.6344
▁metro	-11.6348
tra	-11.6351
▁saal	-11.6356
fc	-11.6357
▁fair	-11.6367
▁maha	-11.6373
▁tune	-11.6376
ship	-11.6379
sharma	-11.6392
▁helped	-11.6394
▁released	-11.6397
▁assum	-11.6407
abad	-11.6415
▁bala	-11.6416
▁dog	-11.6419
ue	-11.6422
many	-11.6431
wo	-11.6435
▁fas	-11.6441
aj	-11.6443
▁assur	-11.6446
▁kh	-11.6456
▁sample	-11.6469
▁honey	-11.6474
▁govind	-11.6475
▁dosto	-11.6479
▁impact	-11.648
▁sleeping	-11.6482
▁experience	-11.6484
line	-11.6484
▁decline	-11.6491
▁vinay	-11.6497
▁vacancy	-11.6499
▁duration	-11.65
▁manjeet	-11.65
▁balaji	-11.6501
▁negative	-11.6501
▁coustomer	-11.6509
▁maam	-11.6509
▁harrash	-11.651
▁meesho	-11.6513
▁teen	-11.6518
▁connecting	-11.6524
▁againt	-11.6525
▁lete	-11.6526
po	-11.6531
▁feed	-11.6535
▁lostrs	-11.6544
▁yrs	-11.656
▁suitabl	-11.6573
▁shares	-11.6578
▁chi	-11.6578
▁av	-11.6581
▁putt	-11.6589
▁ny	-11.6594
kal	-11.6599
▁hazar	-11.6603
data	-11.6616
▁normally	-11.6617
dar	-11.662
▁recognize	-11.6629
▁timing	-11.664
ind	-11.6643
while	-11.6644
subject	-11.6644
▁socha	-11.6645
▁obtain	-11.6645
▁clone	-11.6652
▁rep	-11.6653
▁blank	-11.6656
▁enclosing	-11.6663
▁beginning	-11.6663
domestic	-11.6663
▁operator	-11.6663
▁hangout	-11.6663
▁popup	-11.6664
▁referred	-11.6664
▁nature	-11.6664
▁presan	-11.6664
▁rummy	-11.6664
▁wha	-11.6665
▁hanumangarh	-11.6666
▁renewal	-11.6666
▁informaction	-11.6669
▁orange	-11.667
▁passwords	-11.6671
▁disburse	-11.6671
▁teri	-11.6678
▁communicated	-11.6679
au	-11.6681
nger	-11.6684
▁axa	-11.6689
▁ranjan	-11.6692
nce	-11.6735
▁messeges	-11.6737
▁leads	-11.6737
▁creat	-11.674
▁phr	-11.6758
uske	-11.6758
▁sur	-11.6764
▁chesta	-11.6766
ishingsmishing	-11.6767
▁yash	-11.6773
ali	-11.6793
▁divert	-11.6797
▁medicine	-11.6799
resh	-11.681
▁repair	-11.6812
▁permanent	-11.6822
▁program	-11.6827
▁crad	-11.683
▁closure	-11.683
▁complex	-11.683
▁submission	-11.683
▁maharastra	-11.6831
▁abroad	-11.6831
▁thirty	-11.6831
▁cloud	-11.6832
▁queries	-11.6832
▁shubham	-11.6832
▁rrn	-11.6834
▁krenge	-11.6834
▁loosing	-11.6835
▁dabit	-11.6835
▁factory	-11.6836
▁scrolling	-11.6837
▁navi	-11.6838
gaon	-11.6841
▁misleading	-11.6847
▁kriye	-11.6849
▁recorder	-11.6854
▁hisher	-11.6857
▁extorted	-11.6862
▁nan	-11.6873
▁grant	-11.6877
▁hearing	-11.6879
▁pt	-11.688
▁intrested	-11.6886
ran	-11.6894
▁wi	-11.6898
ure	-11.6903
sal	-11.6905
ok	-11.6909
▁deals	-11.6914
▁cab	-11.6915
▁investments	-11.6919
▁reversed	-11.6935
ier	-11.6939
▁shock	-11.6951
▁mor	-11.6956
▁jat	-11.6957
▁teach	-11.6962
▁offender	-11.6969
ber	-11.6971
▁samaj	-11.6976
▁bro	-11.6985
time	-11.6987
▁accountant	-11.6988
ft	-11.699
ut	-11.6993
▁specific	-11.6999
▁delhivery	-11.6999
▁analyst	-11.6999
▁planned	-11.7
meenagmailcom	-11.7
▁scrach	-11.7
▁shivam	-11.7001
▁consideration	-11.7001
▁vicit	-11.7001
▁speed	-11.7002
▁churu	-11.7002
▁vishnu	-11.7003
▁consequences	-11.7003
▁kuldeep	-11.7003
▁transid	-11.7004
ff	-11.7008
▁dege	-11.7011
▁hurt	-11.7015
▁bhejkar	-11.7017
▁dara	-11.7031
▁oil	-11.7035
▁bars	-11.704
▁consult	-11.7042
▁tortured	-11.7044
▁dil	-11.7044
▁gained	-11.7047
bhi	-11.7073
gu	-11.7076
▁tap	-11.7081
▁disburs	-11.7092
▁paa	-11.7093
▁mt	-11.7105
▁hake	-11.7114
ph	-11.7122
pro	-11.7126
▁jaaye	-11.7129
▁arvind	-11.7129
▁advertise	-11.7132
endra	-11.7138
▁kiran	-11.7141
▁crimes	-11.7155
▁bazaar	-11.7162
ia	-11.7162
▁capture	-11.7163
▁changes	-11.7165
▁category	-11.7172
▁maersk	-11.7172
▁dimand	-11.7172
▁immediatly	-11.7172
▁responsibility	-11.7172
▁mohammed	-11.7172
▁handling	-11.7173
▁saurabh	-11.7173
▁bairwa	-11.7174
▁kyuki	-11.7174
▁bapas	-11.7174
▁madhya	-11.7177
cy	-11.7179
▁amont	-11.7182
▁fortune	-11.7182
nhone	-11.7187
▁kardo	-11.7189
▁operated	-11.7191
bar	-11.7195
▁char	-11.7209
▁naming	-11.7211
▁galo	-11.7217
▁issu	-11.7222
agmailcom	-11.7223
▁leta	-11.7223
▁agra	-11.7228
▁kapd	-11.7236
▁keya	-11.7236
▁transfers	-11.7238
▁rk	-11.7242
kgmailcom	-11.7255
▁chale	-11.7263
▁os	-11.7272
▁subhash	-11.7275
sin	-11.7282
zi	-11.7291
nsulting	-11.7295
▁glt	-11.7296
pincode	-11.7296
vali	-11.7296
▁reflect	-11.7299
▁summarysuchna	-11.7304
rko	-11.7306
▁krr	-11.7306
▁snap	-11.7308
rned	-11.7309
▁secret	-11.7314
iam	-11.7319
▁mani	-11.7325
▁launch	-11.7329
ner	-11.7333
▁afford	-11.7345
▁trauma	-11.7347
▁daitels	-11.7347
▁deitails	-11.7347
▁equipment	-11.7347
▁misbehaving	-11.7347
▁vidio	-11.7347
▁rohini	-11.7347
▁pandemic	-11.7347
▁speech	-11.7347
▁compensation	-11.7347
▁myntra	-11.7348
▁employment	-11.7348
▁agrawal	-11.7348
▁badnaam	-11.7348
▁green	-11.735
▁vdo	-11.7351
▁lying	-11.7353
▁heart	-11.7354
mara	-11.7355
rna	-11.7355
▁fe	-11.736
▁royal	-11.736
▁haridwar	-11.7362
▁mahine	-11.7363
▁scolding	-11.7363
▁varna	-11.7366
▁hanuman	-11.7367
▁jakar	-11.7368
▁sayta	-11.7374
ci	-11.7379
▁input	-11.738
▁lower	-11.7387
▁karwane	-11.7388
▁vale	-11.7403
▁forget	-11.7407
ld	-11.7408
▁promot	-11.7413
▁publicly	-11.7416
dr	-11.7417
▁wear	-11.7423
▁graphic	-11.7441
ice	-11.7445
▁km	-11.7452
even	-11.7462
▁cheyaga	-11.7486
▁bnd	-11.7486
▁snapshot	-11.7495
▁helpful	-11.7497
▁rupy	-11.7504
site	-11.7505
signed	-11.7506
sufficient	-11.7506
▁vala	-11.7513
▁purchases	-11.7525
▁maturity	-11.7526
▁malicious	-11.7526
▁murder	-11.7526
▁hardearn	-11.7526
▁disjaipur	-11.7526
▁families	-11.7526
▁london	-11.7526
▁embassy	-11.7526
▁wifi	-11.7526
▁instragram	-11.7529
▁deatils	-11.7529
▁legit	-11.7529
▁amountrupay	-11.7538
▁mpin	-11.7539
▁anytime	-11.7544
▁thy	-11.7558
bt	-11.7559
financials	-11.7561
▁pressed	-11.7563
amountrsdate	-11.7566
▁dialed	-11.7568
▁lok	-11.7569
▁lucki	-11.7579
▁accoun	-11.7579
▁dhamkiya	-11.7582
ara	-11.7588
▁chesthe	-11.7597
era	-11.7598
▁trusting	-11.76
▁ayush	-11.7604
▁harrass	-11.7606
▁han	-11.7609
indian	-11.7611
▁freind	-11.7623
ning	-11.7629
sharmagmailcom	-11.7631
▁gh	-11.764
▁sells	-11.7643
▁amd	-11.7645
▁fer	-11.7646
▁notimepmamount	-11.7651
▁rath	-11.7662
▁repaying	-11.7665
▁ibl	-11.7666
▁damag	-11.7669
▁door	-11.7674
▁tweet	-11.7674
▁sanjeev	-11.7679
bob	-11.7685
▁sc	-11.7689
▁anti	-11.7692
sk	-11.7695
again	-11.7697
▁mid	-11.7698
▁faroda	-11.7699
▁pension	-11.7699
▁placement	-11.7701
▁bulls	-11.7705
▁dignity	-11.7707
▁potential	-11.7707
▁troubling	-11.7707
▁convincing	-11.7707
▁uniform	-11.7707
▁nonsense	-11.7708
▁shuru	-11.7708
▁gonna	-11.7709
▁indusland	-11.7709
▁postpaid	-11.7709
▁fetch	-11.771
▁divya	-11.771
▁ansari	-11.7711
▁lagega	-11.7711
jai	-11.7713
▁karega	-11.7723
branch	-11.7723
▁grand	-11.7725
▁thar	-11.7736
▁intimated	-11.7736
rupee	-11.7736
▁kaur	-11.774
aise	-11.7741
https	-11.7744
ulo	-11.7747
▁bigg	-11.7748
▁whatup	-11.7748
▁mask	-11.7756
▁payback	-11.776
ol	-11.7772
▁redeemed	-11.7774
hte	-11.7777
▁unna	-11.778
▁dealing	-11.7788
▁disconnecting	-11.7796
▁opp	-11.7801
ount	-11.7807
▁ganga	-11.7818
▁rashi	-11.7826
▁pp	-11.7827
fa	-11.7827
▁luc	-11.7832
hai	-11.7835
▁lge	-11.7841
▁rajput	-11.7841
▁replay	-11.7861
▁distributor	-11.7865
sgmailcom	-11.7866
▁mint	-11.7881
nam	-11.7883
▁joint	-11.7886
use	-11.7889
ow	-11.7889
▁manage	-11.789
▁danger	-11.7891
▁garden	-11.7893
▁collage	-11.7893
▁duara	-11.7893
▁bathroom	-11.7893
▁pertain	-11.7893
▁april	-11.7893
▁blindly	-11.7894
▁timepmdate	-11.7896
▁scenario	-11.7896
▁thanku	-11.7902
▁lu	-11.7903
▁tin	-11.7907
▁kardiya	-11.7908
▁vikash	-11.791
▁continuesly	-11.791
▁materials	-11.7911
▁literal	-11.7913
▁ci	-11.7914
ah	-11.7916
▁bu	-11.7917
shish	-11.7924
▁lane	-11.7929
▁ala	-11.7932
▁chus	-11.7934
▁anurod	-11.7936
▁fin	-11.7937
set	-11.7938
▁bha	-11.794
▁ldki	-11.794
uga	-11.7943
▁hii	-11.7954
▁blam	-11.7955
led	-11.796
▁bataye	-11.7964
bara	-11.7965
san	-11.7992
▁lik	-11.7993
▁sense	-11.8018
▁tool	-11.8023
help	-11.8036
▁tym	-11.8049
▁chance	-11.8051
▁crore	-11.8051
▁googled	-11.8062
▁discover	-11.8073
rative	-11.8073
▁karwaye	-11.8076
▁dhokha	-11.808
▁clarification	-11.8081
▁facbook	-11.8081
▁vaccination	-11.8081
▁vegetable	-11.8081
▁unavailable	-11.8081
▁authorization	-11.8081
▁dhamka	-11.8081
▁conformation	-11.8082
▁distalwar	-11.8083
▁rajeev	-11.8083
▁mandal	-11.8085
▁unless	-11.8086
▁abovementioned	-11.8087
▁fellow	-11.8087
▁references	-11.8091
▁kela	-11.8092
▁situat	-11.8094
▁launched	-11.8101
met	-11.8105
bu	-11.8113
▁summry	-11.8117
▁nikale	-11.8118
▁mostly	-11.8128
▁esk	-11.813
▁copies	-11.8137
▁companys	-11.814
▁aslo	-11.815
ised	-11.816
fence	-11.8163
you	-11.8167
▁freinds	-11.817
tal	-11.8175
img	-11.818
aka	-11.8186
erator	-11.8201
▁notes	-11.8201
corporate	-11.8204
posing	-11.8215
▁shi	-11.8227
▁pain	-11.8236
▁cont	-11.8238
▁field	-11.824
▁usna	-11.8259
thi	-11.8262
▁buis	-11.8264
▁cantt	-11.8266
▁reduce	-11.827
▁snapdeal	-11.8273
▁naya	-11.8273
▁corona	-11.8274
▁definite	-11.8274
▁managing	-11.8274
▁pump	-11.8274
▁pramod	-11.8274
▁sinha	-11.8275
▁jagdish	-11.8276
▁umesh	-11.8276
▁clik	-11.8277
▁damki	-11.8278
▁shivani	-11.8278
▁usske	-11.8279
▁nmm	-11.8279
▁indiabulls	-11.8279
▁banaya	-11.8287
▁hogaya	-11.8287
▁mehta	-11.8288
▁uthaya	-11.8289
▁solar	-11.8289
mene	-11.829
enke	-11.8291
▁humare	-11.8292
▁udhar	-11.83
▁aahe	-11.8316
gile	-11.8324
hold	-11.8326
ian	-11.8327
▁gaon	-11.8327
rial	-11.8328
▁pf	-11.8334
▁ring	-11.8337
uu	-11.8355
ank	-11.8357
▁rakhi	-11.8366
▁bje	-11.8368
▁learn	-11.8389
▁fasa	-11.8395
▁af	-11.8404
▁aug	-11.841
gar	-11.8418
▁settled	-11.8423
adi	-11.8427
▁jma	-11.8431
▁airline	-11.8435
▁zoom	-11.844
▁bond	-11.8444
▁fiance	-11.8453
▁sah	-11.8466
work	-11.8468
▁guidance	-11.847
▁faurd	-11.847
▁locanto	-11.847
▁refrig	-11.847
▁vaha	-11.847
▁tenant	-11.8471
▁validity	-11.8472
▁native	-11.8472
▁monika	-11.8472
▁induslnd	-11.8472
▁bother	-11.8472
▁pskotwali	-11.8473
▁himanshu	-11.8473
▁gather	-11.8473
▁plss	-11.8474
▁session	-11.8475
▁meplease	-11.8475
▁jao	-11.8476
▁infotech	-11.8476
▁lagta	-11.8483
▁dusar	-11.8486
bd	-11.8491
▁ankita	-11.8503
▁kul	-11.8504
▁cou	-11.8505
▁investigated	-11.8505
▁sind	-11.8507
▁ruppee	-11.8512
▁sw	-11.8514
▁wrongful	-11.8523
▁rahaa	-11.8524
▁karege	-11.8539
▁bharatpe	-11.8542
▁owners	-11.8543
az	-11.8554
▁individuals	-11.8555
▁ans	-11.8565
▁nation	-11.8583
▁anjan	-11.8588
nge	-11.8589
▁tel	-11.859
▁advis	-11.8592
band	-11.8594
▁understanding	-11.8596
▁yh	-11.8604
▁lists	-11.8612
▁channels	-11.8612
▁san	-11.8615
▁approache	-11.8617
▁mon	-11.8625
myshopifycom	-11.8635
▁hemant	-11.8636
▁reletive	-11.864
cz	-11.8641
▁lt	-11.8646
▁shehe	-11.8648
▁authentic	-11.8649
▁stamp	-11.865
plot	-11.8651
▁bate	-11.8665
care	-11.8665
▁profession	-11.8666
▁countries	-11.867
▁faridabad	-11.867
▁authorisation	-11.867
▁bluedart	-11.867
▁communicating	-11.867
▁dwarka	-11.867
▁furnish	-11.867
▁ulta	-11.867
▁quotation	-11.867
▁suspicion	-11.867
▁admission	-11.867
▁goyal	-11.8671
▁sirmaam	-11.8671
▁pssadar	-11.8672
▁recevied	-11.8672
▁transffer	-11.8672
▁arjun	-11.8674
▁sameer	-11.8674
▁wedding	-11.8675
▁confronted	-11.8675
▁ante	-11.8675
▁yha	-11.8676
▁misguided	-11.8677
▁customercare	-11.8681
tan	-11.8682
okaxis	-11.8687
▁bacha	-11.8687
▁sm	-11.8692
▁mangne	-11.8693
▁rah	-11.87
▁revealed	-11.8704
▁cooperate	-11.8716
▁upigoogle	-11.8725
▁rajkumar	-11.8726
nga	-11.873
▁minor	-11.873
▁expected	-11.8736
pet	-11.874
shi	-11.8743
▁admins	-11.8763
▁deni	-11.8763
chand	-11.8764
atm	-11.8765
wer	-11.8767
tly	-11.8778
▁clips	-11.8782
esa	-11.8787
▁bhag	-11.8788
▁handed	-11.88
ster	-11.8811
▁kalyan	-11.8828
▁prajapat	-11.8831
▁lagata	-11.8832
ged	-11.8841
▁ajit	-11.8843
▁undress	-11.8844
ze	-11.8854
actually	-11.8855
▁suppose	-11.8859
▁cashfree	-11.8859
▁vedios	-11.8863
▁lure	-11.8864
▁landlin	-11.8869
▁mb	-11.887
▁unsuccessful	-11.8874
▁irritating	-11.8874
▁kseb	-11.8874
▁fight	-11.8874
▁example	-11.8874
▁aniket	-11.8874
▁dummy	-11.8874
▁equitas	-11.8875
▁gadgets	-11.8875
▁banglore	-11.8875
▁pathak	-11.8876
▁investigating	-11.8876
▁correction	-11.8877
▁sunny	-11.8877
▁jaega	-11.8878
▁color	-11.8879
▁garg	-11.888
▁nagour	-11.888
▁maal	-11.8887
▁fruit	-11.8888
▁committ	-11.8889
▁nice	-11.8893
▁alone	-11.8899
▁girlfriend	-11.8902
main	-11.8902
anu	-11.8905
▁hot	-11.8911
▁stressed	-11.8912
▁preeti	-11.8918
▁scre	-11.892
pt	-11.8935
▁fare	-11.8937
▁gstin	-11.8938
▁aana	-11.894
▁mama	-11.8941
unt	-11.8941
▁panick	-11.8951
▁kraya	-11.8961
ns	-11.8965
▁frauders	-11.8966
▁bypaytm	-11.8972
▁hub	-11.8976
▁fhi	-11.8981
▁veer	-11.8981
▁discounts	-11.8982
▁rec	-11.8987
▁transations	-11.9001
due	-11.9001
hna	-11.9007
▁bagh	-11.901
▁husbands	-11.9011
▁tah	-11.9037
▁certificates	-11.9041
▁influence	-11.9042
▁debite	-11.905
▁jaha	-11.9053
▁retailer	-11.9054
▁setting	-11.9057
▁fur	-11.9064
▁chhe	-11.9068
▁utter	-11.907
▁distjodhpur	-11.9073
isha	-11.9079
▁steel	-11.9079
▁alternative	-11.9082
▁policies	-11.9082
▁urgency	-11.9082
▁luring	-11.9082
▁rfid	-11.9082
▁guilty	-11.9082
▁quicksupport	-11.9083
▁disgusting	-11.9083
▁development	-11.9083
▁cheyamante	-11.9083
▁miku	-11.9083
▁bussiness	-11.9083
▁alpemix	-11.9084
▁approch	-11.9084
▁skta	-11.9084
▁chahte	-11.9085
▁creation	-11.9085
▁freecharge	-11.9085
▁bigger	-11.9085
▁kapoor	-11.9086
▁water	-11.9087
▁cellphone	-11.9088
▁slowly	-11.909
star	-11.909
▁dates	-11.9094
▁religion	-11.9094
▁allegations	-11.9096
▁fon	-11.91
▁gov	-11.91
▁milne	-11.9102
▁thaa	-11.9104
▁scheduled	-11.9107
▁sarkar	-11.9108
▁bai	-11.9119
▁cloths	-11.9119
▁hona	-11.9121
▁ruppees	-11.9124
▁swiped	-11.9127
che	-11.9127
▁secured	-11.9129
▁ev	-11.9147
▁electronics	-11.9152
▁nikla	-11.9158
▁tonk	-11.9167
jd	-11.9167
▁gar	-11.9172
▁exp	-11.918
dhani	-11.9189
sc	-11.9189
▁justdial	-11.9202
▁hor	-11.9203
▁leaking	-11.9205
ref	-11.9212
wani	-11.9221
ari	-11.9239
▁span	-11.9242
▁rang	-11.9246
▁prathi	-11.9246
▁mobiles	-11.925
▁tracked	-11.9251
▁maan	-11.9254
▁recharg	-11.9257
where	-11.9267
pi	-11.927
hara	-11.9281
will	-11.9288
▁intimidat	-11.9289
▁dl	-11.9295
▁acoount	-11.9295
▁generation	-11.9295
▁rahunga	-11.9295
▁oyo	-11.9296
▁swift	-11.9296
▁tripathi	-11.9296
▁crazy	-11.9297
▁selection	-11.9297
▁apparent	-11.9297
▁shaikh	-11.9297
▁karwayi	-11.9297
▁basti	-11.9297
▁ekart	-11.9297
▁bengaluru	-11.9298
▁dikhaya	-11.9299
▁jake	-11.9303
▁terrorist	-11.9304
fb	-11.9304
▁enabled	-11.9306
▁belived	-11.9307
tc	-11.9308
▁cheaper	-11.9309
▁shopee	-11.931
▁mali	-11.931
▁dbs	-11.9312
▁sahu	-11.9313
▁activa	-11.9314
▁fishing	-11.9318
▁mehra	-11.9323
▁dali	-11.9324
▁sen	-11.9324
mat	-11.9327
▁fraulan	-11.9328
▁host	-11.933
isi	-11.9331
▁tras	-11.9335
▁billing	-11.934
oni	-11.9347
▁nikl	-11.9358
jh	-11.9358
▁raped	-11.9359
▁alam	-11.9369
▁downlode	-11.937
gg	-11.9376
mt	-11.9378
▁figure	-11.9384
▁disti	-11.9385
▁acno	-11.9386
▁hamr	-11.9397
▁broke	-11.9399
▁role	-11.9407
▁lalac	-11.9424
hen	-11.9431
▁limits	-11.9439
riya	-11.945
mail	-11.9455
ler	-11.9455
▁gmailcom	-11.9464
▁tarnish	-11.9464
▁thoughts	-11.9472
▁laws	-11.9473
▁involv	-11.9476
▁suggestion	-11.9483
▁detial	-11.9483
message	-11.9483
vatha	-11.9491
▁doc	-11.9503
▁constant	-11.9504
▁jana	-11.9505
▁chas	-11.9508
▁addition	-11.9512
▁happn	-11.9512
▁thursday	-11.9512
▁sahoo	-11.9512
▁redmi	-11.9513
▁forgery	-11.9513
▁ninety	-11.9513
▁bulk	-11.9513
▁minister	-11.9514
▁poonam	-11.9514
▁telecom	-11.9514
▁clue	-11.9515
▁bandhan	-11.9516
▁began	-11.9516
bir	-11.9517
▁nikhil	-11.9517
ega	-11.9518
▁tensed	-11.9519
▁razor	-11.9523
▁khi	-11.9534
▁anita	-11.9535
▁quicker	-11.9536
▁ayega	-11.9538
▁hanged	-11.9539
▁karoli	-11.9545
assenger	-11.9552
▁samajh	-11.9568
dresses	-11.9569
tech	-11.9573
▁region	-11.9573
▁tang	-11.9573
dam	-11.9579
▁popp	-11.9585
▁coz	-11.9585
tr	-11.9593
▁slot	-11.9595
▁neighbour	-11.9607
▁mg	-11.9617
▁karyawa	-11.9619
eb	-11.9622
▁farod	-11.963
▁kru	-11.963
board	-11.9633
▁sony	-11.9639
dev	-11.9641
axis	-11.9641
ep	-11.9643
▁ver	-11.9643
▁aati	-11.9648
▁harash	-11.9649
▁nose	-11.9649
wadi	-11.9654
bs	-11.9658
going	-11.9659
dh	-11.966
bal	-11.9661
org	-11.9665
hr	-11.9669
▁serch	-11.969
▁bak	-11.9694
ala	-11.9704
mne	-11.9712
▁havenot	-11.9715
somebody	-11.9716
▁doubled	-11.9716
ley	-11.9724
▁crediting	-11.9726
▁abid	-11.9727
▁detile	-11.9731
▁conform	-11.9734
▁xxxxxxx	-11.9734
▁conference	-11.9734
▁madhopur	-11.9734
▁mamaearth	-11.9734
▁lagbhag	-11.9735
▁mischief	-11.9735
▁micro	-11.9735
▁cheak	-11.9735
▁saxena	-11.9735
▁vaishali	-11.9736
▁flipcart	-11.9736
▁stopping	-11.9736
▁headphone	-11.9736
▁mantri	-11.9736
▁truly	-11.9737
▁smartphone	-11.9737
▁cloning	-11.9737
▁acrescom	-11.9737
▁gurjar	-11.9738
▁tired	-11.9739
▁hamse	-11.9741
▁shadi	-11.9742
▁betting	-11.9746
▁sons	-11.9748
▁kart	-11.9748
▁rudely	-11.9748
▁op	-11.9751
▁bhejte	-11.9752
▁yr	-11.9753
▁cloned	-11.9755
▁mobail	-11.9755
instagram	-11.9763
▁shirts	-11.9764
sion	-11.9766
▁liked	-11.9772
▁manisha	-11.9778
▁engineering	-11.9778
sri	-11.9778
ud	-11.9781
▁map	-11.9783
▁prajapati	-11.9785
▁motors	-11.9785
▁harish	-11.9788
eem	-11.979
▁additionally	-11.979
pl	-11.9792
ement	-11.9809
ile	-11.981
df	-11.9841
two	-11.9842
▁tya	-11.9844
▁ack	-11.9846
▁eska	-11.9847
▁beji	-11.985
anga	-11.9853
▁kala	-11.9854
▁nh	-11.9857
▁pu	-11.9859
aught	-11.9864
▁rh	-11.9867
thu	-11.9874
▁van	-11.9876
▁desire	-11.9876
tm	-11.9879
▁tera	-11.9881
▁icon	-11.9881
▁madhu	-11.9889
▁travels	-11.9891
ious	-11.9896
var	-11.9904
▁dikh	-11.9911
sub	-11.9912
▁creadit	-11.9915
▁reht	-11.9917
▁badal	-11.9923
ated	-11.9927
▁kash	-11.9929
▁shirt	-11.9932
▁drug	-11.9934
▁cow	-11.9938
▁jin	-11.9939
▁institution	-11.994
▁malign	-11.9942
▁instruct	-11.9943
jaipur	-11.9944
ky	-11.9948
coupan	-11.9949
▁ppl	-11.995
▁unlawful	-11.9954
▁frequent	-11.9954
▁soures	-11.9961
▁discord	-11.9962
▁jimmedar	-11.9962
▁chepparu	-11.9962
▁temporarily	-11.9962
▁restaurant	-11.9962
▁jhalawar	-11.9962
▁airpod	-11.9963
▁bansal	-11.9963
▁maurya	-11.9964
▁frist	-11.9964
▁printer	-11.9967
▁educated	-11.9969
▁politic	-11.9971
▁cancelling	-11.9973
off	-11.9974
▁sabse	-11.9976
▁eighty	-11.9981
▁haked	-11.9987
▁carrying	-11.9991
▁cpp	-11.9991
using	-11.9991
ating	-11.9992
▁magar	-11.9993
▁phonebook	-11.9993
os	-11.9995
▁learning	-11.9997
▁bankicici	-12.0006
▁uni	-12.0007
oli	-12.0012
▁ganj	-12.0012
job	-12.0014
▁cola	-12.0014
▁badi	-12.0016
▁sonam	-12.0017
▁pair	-12.0019
▁forty	-12.0022
▁hole	-12.0023
▁shoping	-12.0023
▁kendra	-12.0025
▁similarly	-12.0027
rr	-12.0029
sp	-12.003
oo	-12.003
▁cam	-12.0031
▁baate	-12.0032
▁farj	-12.0035
▁pada	-12.0039
▁hands	-12.0046
▁gur	-12.005
▁harmful	-12.0061
have	-12.0066
▁reports	-12.0068
rat	-12.0078
ata	-12.0099
▁pey	-12.0102
▁deya	-12.0107
ks	-12.0107
vl	-12.0109
▁thro	-12.0116
min	-12.0126
▁dire	-12.0127
▁vha	-12.0129
zz	-12.0132
▁results	-12.0137
▁bulli	-12.0143
▁wahi	-12.0143
▁quot	-12.0145
bl	-12.0145
▁khol	-12.0146
▁forever	-12.0151
▁uplod	-12.0154
fraudster	-12.0157
ather	-12.0163
▁motive	-12.0163
▁ear	-12.0164
▁communications	-12.0167
▁advanced	-12.0168
▁xxxxxxxx	-12.0175
▁massag	-12.0176
▁carry	-12.0177
▁rupiya	-12.018
▁trac	-12.0185
▁maintenance	-12.0194
▁puppy	-12.0194
▁storage	-12.0194
▁instgram	-12.0194
▁relief	-12.0194
▁teligram	-12.0194
▁temple	-12.0194
▁tirupati	-12.0195
▁coimbatore	-12.0195
▁reciept	-12.0195
▁vulgur	-12.0195
▁authenticity	-12.0195
▁artist	-12.0195
▁codepunb	-12.0195
▁objectionable	-12.0195
▁defamation	-12.0195
▁captain	-12.0195
▁portray	-12.0195
bb	-12.0195
▁mahila	-12.0196
▁title	-12.0196
▁jhotwara	-12.0196
▁expert	-12.0196
▁rtgs	-12.0196
▁hussain	-12.0196
▁disst	-12.0197
▁draft	-12.0197
▁kajal	-12.0198
▁dekhi	-12.0199
▁haior	-12.02
▁string	-12.0201
▁mistakes	-12.0202
tar	-12.0202
▁prakar	-12.0203
▁remarks	-12.0204
▁roop	-12.0206
▁uplode	-12.021
▁snd	-12.0216
▁taka	-12.0219
▁stream	-12.0219
▁anuj	-12.022
▁virus	-12.022
any	-12.0222
▁leya	-12.0223
▁disclosed	-12.0223
▁sep	-12.023
ical	-12.023
▁trf	-12.0234
▁bhj	-12.0239
▁kuda	-12.0249
▁raghav	-12.0252
▁gonoise	-12.0257
fer	-12.0257
▁kaun	-12.0257
▁nomber	-12.0258
▁paypal	-12.0264
ban	-12.0266
▁som	-12.0267
▁jeet	-12.0276
chat	-12.0277
bc	-12.0279
aru	-12.0283
▁panna	-12.0293
ten	-12.0303
called	-12.0304
▁cin	-12.032
▁tvs	-12.0326
▁satya	-12.0329
▁provok	-12.0342
▁dya	-12.0356
▁cooperat	-12.0377
alwar	-12.0383
deep	-12.0391
▁space	-12.0401
sent	-12.0404
▁monetar	-12.0409
cked	-12.041
▁bhawan	-12.0411
myself	-12.0414
oksbi	-12.0414
▁blacklist	-12.0414
customer	-12.0416
▁halp	-12.0417
sically	-12.0418
▁surya	-12.0419
▁codehdfc	-12.0425
▁expose	-12.0427
ful	-12.0429
hg	-12.043
▁multi	-12.0432
▁intervention	-12.0432
▁rectify	-12.0432
▁mandatory	-12.0432
▁vachindi	-12.0432
▁posible	-12.0433
▁possession	-12.0433
▁battery	-12.0433
▁resolving	-12.0433
▁cooperation	-12.0433
▁ranchi	-12.0433
▁indeed	-12.0433
▁seventy	-12.0433
▁mahoday	-12.0434
▁numbar	-12.0434
▁chuki	-12.0434
▁ghante	-12.0434
▁cafe	-12.0434
▁dilip	-12.0434
▁chittorgarh	-12.0435
▁awareness	-12.0435
▁doubling	-12.0436
▁behje	-12.0436
▁pakad	-12.0437
▁roshan	-12.0437
▁lokesh	-12.0438
▁mayank	-12.0439
▁adarsh	-12.0439
▁kharidne	-12.0441
▁tagged	-12.0442
▁trial	-12.0444
tially	-12.0454
▁delever	-12.0459
▁bhara	-12.0459
▁ride	-12.0462
▁fraudre	-12.0463
▁bsf	-12.0465
▁fone	-12.0467
ub	-12.047
▁moved	-12.047
int	-12.0474
▁imobile	-12.0474
▁shocking	-12.0475
▁receipts	-12.0482
▁recognise	-12.0482
▁cantact	-12.0483
▁quote	-12.0484
▁weak	-12.0485
▁shortly	-12.0487
▁nand	-12.0489
▁dupe	-12.0494
▁qs	-12.0498
shri	-12.0503
▁malik	-12.0503
▁excuse	-12.0507
▁plate	-12.0514
▁harrase	-12.0522
▁atul	-12.0527
aki	-12.0541
▁khe	-12.0543
▁payout	-12.0547
gmail	-12.0554
dhan	-12.0554
ctv	-12.0562
▁oppo	-12.0567
▁boi	-12.057
▁whos	-12.0574
▁noon	-12.0581
▁openly	-12.0584
▁earnings	-12.0597
gr	-12.0604
▁ray	-12.0609
tt	-12.0619
mber	-12.062
▁wh	-12.0624
▁transcations	-12.0625
▁begg	-12.0633
▁cylinder	-12.0643
▁defaulter	-12.0646
puri	-12.065
▁doller	-12.0653
▁playstation	-12.0657
▁cat	-12.0657
▁threten	-12.0659
wara	-12.066
fraudulent	-12.066
▁em	-12.0661
▁samjh	-12.0662
▁unique	-12.0676
▁decision	-12.0676
▁establish	-12.0676
▁belive	-12.0676
▁chesadu	-12.0676
▁medium	-12.0677
▁meantime	-12.0677
▁goswami	-12.0677
▁kolhapur	-12.0677
▁intent	-12.0678
▁purse	-12.0678
▁varanasi	-12.0678
▁yojna	-12.0678
▁perfect	-12.0679
cu	-12.0679
▁rajat	-12.0681
▁voter	-12.0682
▁srivastava	-12.0682
▁setup	-12.0682
▁khatun	-12.0683
▁behave	-12.0683
▁garments	-12.0683
▁mathura	-12.0685
▁pull	-12.0686
▁huva	-12.0687
▁sampark	-12.0687
▁farm	-12.0689
▁varma	-12.069
▁highlighted	-12.0693
▁cutting	-12.0694
▁hopeful	-12.07
▁nil	-12.0703
▁mainu	-12.0706
▁finished	-12.0716
▁defamat	-12.072
post	-12.0721
baad	-12.0725
▁piche	-12.0732
▁kani	-12.0732
omato	-12.0739
▁formal	-12.0741
hdfc	-12.0748
ied	-12.075
aap	-12.0752
▁alerted	-12.0752
ach	-12.0753
wi	-12.0755
▁cheaters	-12.0775
▁dry	-12.0787
shu	-12.0792
▁pn	-12.0793
▁cube	-12.0794
▁emis	-12.0802
▁humar	-12.0802
▁thr	-12.0817
district	-12.0826
girl	-12.0831
log	-12.0842
chu	-12.0849
ug	-12.0849
▁oo	-12.085
ction	-12.0855
▁strictly	-12.0861
▁bach	-12.0863
▁misle	-12.0871
▁mage	-12.0871
▁lek	-12.0875
▁credential	-12.0896
▁panni	-12.0898
▁needy	-12.0901
cb	-12.0904
▁possibl	-12.0907
dra	-12.0907
▁suspend	-12.0908
▁frad	-12.091
▁nab	-12.0917
▁goggle	-12.0926
▁translation	-12.0926
▁spouse	-12.0926
▁diamond	-12.0926
▁formalities	-12.0926
▁industry	-12.0926
▁indecent	-12.0927
▁birla	-12.0927
▁yojana	-12.0927
▁failure	-12.0927
▁wdl	-12.0927
▁progress	-12.0928
▁sn	-12.0928
▁skte	-12.0928
▁accessories	-12.0928
yahoocom	-12.0929
▁rmgb	-12.0929
▁cybercell	-12.093
▁encrypted	-12.093
▁bundi	-12.093
▁magicbricks	-12.0931
▁spot	-12.0931
▁sirohi	-12.0932
▁sbko	-12.0932
▁fourth	-12.0932
▁lenge	-12.0933
▁pandit	-12.0934
▁parttime	-12.0936
▁broken	-12.0942
▁kitna	-12.0944
▁efforts	-12.0944
▁war	-12.0945
▁hinge	-12.0949
▁alok	-12.0952
▁parson	-12.0956
▁listing	-12.0957
▁bhan	-12.096
▁interact	-12.0963
▁unlogo	-12.0966
fr	-12.0966
▁ringing	-12.0967
▁banake	-12.0969
▁ebay	-12.0971
▁transporter	-12.0971
▁pol	-12.0974
▁mahi	-12.0976
▁bills	-12.0993
hra	-12.1
▁requirements	-12.1009
za	-12.1014
hh	-12.1015
mani	-12.1018
▁blocks	-12.1023
email	-12.1027
▁ful	-12.1031
▁httpstme	-12.1032
▁cust	-12.1033
chne	-12.1034
▁leading	-12.1038
▁directors	-12.1039
▁addres	-12.1049
▁jackets	-12.1051
▁regret	-12.1053
ple	-12.1056
▁hp	-12.1061
home	-12.1061
lt	-12.1063
▁viz	-12.1064
wd	-12.1069
lf	-12.1074
▁bato	-12.1079
▁malviya	-12.1083
▁chepi	-12.1089
▁humiliat	-12.1093
▁reserve	-12.1098
▁codeicic	-12.1098
full	-12.1099
▁ifse	-12.1103
▁leav	-12.1106
▁rupeey	-12.111
ec	-12.1112
bh	-12.1112
force	-12.1114
yesbank	-12.1133
▁nit	-12.1136
▁cap	-12.1142
▁comp	-12.1144
mar	-12.1146
▁rakh	-12.115
company	-12.1152
▁rented	-12.1154
▁transections	-12.1161
▁jaankar	-12.1163
website	-12.1163
ib	-12.1165
▁oblige	-12.1169
▁confident	-12.1183
▁argument	-12.1183
▁identification	-12.1183
▁upfront	-12.1183
▁biometric	-12.1183
▁clubhouse	-12.1183
▁crisis	-12.1183
▁uttam	-12.1183
▁replies	-12.1183
▁interface	-12.1183
▁webpage	-12.1183
▁finger	-12.1183
▁distkota	-12.1184
▁sakht	-12.1185
▁andheri	-12.1185
▁infinity	-12.1185
▁rathod	-12.1185
▁madurai	-12.1186
▁masturbating	-12.1186
▁acceptance	-12.1186
▁avinash	-12.1187
▁ganpat	-12.1189
▁realme	-12.119
▁arya	-12.1191
ms	-12.12
▁leye	-12.1201
▁jaankari	-12.1206
▁transfar	-12.1206
▁flower	-12.1207
▁devendra	-12.1209
▁white	-12.1213
▁cop	-12.1215
nfront	-12.1222
▁rukiy	-12.1225
▁lease	-12.1226
▁commissioner	-12.123
▁candidates	-12.1241
▁lgi	-12.1244
▁panel	-12.1256
▁jora	-12.126
ame	-12.1261
▁scamer	-12.1263
has	-12.1265
okicici	-12.1269
▁wines	-12.1275
▁incorporat	-12.1282
▁cs	-12.1284
side	-12.129
▁stucked	-12.1291
▁strangers	-12.1293
▁picks	-12.1294
▁spoiled	-12.1296
yu	-12.1298
▁ifs	-12.13
▁religio	-12.1302
van	-12.1313
▁human	-12.1319
▁admitt	-12.1321
▁involvement	-12.1326
▁reverted	-12.133
▁ple	-12.1337
▁owe	-12.1343
▁reciv	-12.1355
▁subscribe	-12.1355
other	-12.1355
▁gy	-12.1367
garm	-12.1367
cted	-12.1374
book	-12.1377
▁wall	-12.1381
ob	-12.1382
▁instal	-12.1385
ked	-12.1386
ound	-12.1394
ys	-12.1402
▁siva	-12.1409
▁tc	-12.1409
▁impersonator	-12.1413
▁pencil	-12.1415
ect	-12.1416
▁tourcher	-12.1417
▁caption	-12.1418
▁expens	-12.1424
▁rapid	-12.1432
jj	-12.1436
▁unethical	-12.1437
ral	-12.1437
▁tara	-12.1437
▁kapil	-12.1437
▁taht	-12.1438
▁greed	-12.1443
▁aks	-12.1443
city	-12.1444
▁redemption	-12.1446
▁immigration	-12.1446
▁perusal	-12.1446
▁certification	-12.1446
▁advertismen	-12.1446
▁arround	-12.1446
▁version	-12.1446
▁cheyadam	-12.1446
▁impression	-12.1446
▁plaza	-12.1446
▁nmbr	-12.1446
▁milenge	-12.1446
▁academy	-12.1447
▁gaav	-12.1447
▁elder	-12.1447
▁poland	-12.1448
▁lunga	-12.1448
▁jayga	-12.145
▁reseller	-12.145
veer	-12.1451
▁kunal	-12.1451
▁disappointed	-12.1451
▁naku	-12.1451
▁troll	-12.1452
▁kindness	-12.1453
▁overall	-12.1454
▁angel	-12.1454
▁maag	-12.1455
▁outlet	-12.1458
▁userid	-12.146
▁mount	-12.1461
▁saket	-12.1463
▁krdi	-12.1464
▁latest	-12.1464
▁raipur	-12.1464
▁cheyali	-12.1464
▁rekha	-12.1467
bhari	-12.147
▁walk	-12.1473
▁aay	-12.1475
▁liable	-12.1476
▁indb	-12.1482
▁plea	-12.1482
▁pray	-12.1483
▁axl	-12.1488
▁facts	-12.1494
fl	-12.1495
dhdhdhdhdhdhdhdh	-12.1495
▁fit	-12.1504
▁indus	-12.1506
▁cbin	-12.1506
atha	-12.1509
▁mae	-12.1511
▁scamed	-12.1515
jk	-12.1521
▁discounted	-12.153
▁glti	-12.1531
▁arrang	-12.1545
▁complainted	-12.1546
nna	-12.156
▁sitt	-12.1564
cation	-12.1568
und	-12.1571
since	-12.1591
▁sain	-12.1592
▁systems	-12.1596
▁kist	-12.1597
meri	-12.1608
▁noifsc	-12.1613
afi	-12.1613
▁lalit	-12.1638
▁choice	-12.1653
▁kk	-12.1658
▁sy	-12.1659
▁abi	-12.1661
▁voh	-12.1665
▁procedures	-12.1665
▁hoge	-12.1668
tri	-12.1673
▁rupeemall	-12.1675
▁upgrad	-12.1675
▁slow	-12.1676
▁fraudester	-12.1684
▁mesage	-12.1685
▁piece	-12.1686
mentioned	-12.1691
▁initiat	-12.1692
▁vaja	-12.1693
canara	-12.1697
unknown	-12.1698
▁highlight	-12.1698
▁leader	-12.1698
▁deceive	-12.1702
▁forpay	-12.1702
▁kore	-12.1705
▁paresha	-12.1706
mko	-12.1713
▁tuesday	-12.1716
▁illigal	-12.1716
▁argue	-12.1716
▁marketplace	-12.1717
▁unusual	-12.1717
▁paymnt	-12.1717
▁mohalla	-12.1717
▁karyva	-12.1717
▁simultaneously	-12.1718
▁sushil	-12.1718
▁fedral	-12.1719
▁grow	-12.1719
▁immidiately	-12.172
▁omprakash	-12.1721
▁american	-12.1721
ef	-12.1721
ati	-12.1723
▁pade	-12.1723
▁logout	-12.1724
▁nilesh	-12.1724
▁clean	-12.1724
▁lakshmi	-12.1727
▁kho	-12.1731
▁roll	-12.1735
ina	-12.1739
▁luck	-12.1739
comprofilephpid	-12.174
▁paytam	-12.1742
▁valo	-12.175
▁usage	-12.1752
video	-12.1753
wn	-12.1758
▁pasa	-12.1758
▁payement	-12.1763
▁ihave	-12.1765
mant	-12.1777
▁lines	-12.1781
▁hide	-12.1782
▁seva	-12.1782
▁rating	-12.1785
▁karya	-12.1792
▁remit	-12.1801
▁dh	-12.1806
das	-12.1809
▁lacks	-12.1811
info	-12.1813
▁valu	-12.1816
▁uno	-12.182
▁karywah	-12.1825
▁defamed	-12.1828
wr	-12.1834
▁fraudcall	-12.1834
▁mh	-12.1837
ip	-12.1847
▁occurs	-12.1855
▁bahar	-12.1858
▁inquire	-12.1872
▁belonging	-12.1873
sainigmailcom	-12.1879
▁sathi	-12.188
▁gu	-12.188
▁blo	-12.1883
▁baa	-12.1887
▁fish	-12.1889
mes	-12.189
▁karana	-12.1896
▁answers	-12.1898
▁cas	-12.19
▁enterprise	-12.1901
nf	-12.1903
▁col	-12.1903
▁anna	-12.1908
through	-12.191
▁baran	-12.1913
uf	-12.1915
mm	-12.1922
▁karun	-12.1925
▁dani	-12.1928
▁shout	-12.193
▁react	-12.1937
▁dalva	-12.1941
oy	-12.1942
een	-12.1943
▁karoge	-12.1943
▁gae	-12.1945
▁doubts	-12.195
▁projects	-12.1951
ace	-12.1956
▁mislead	-12.1965
▁scamster	-12.1967
mb	-12.1968
▁ifscpunb	-12.197
▁tick	-12.1977
▁penal	-12.1977
▁ayurved	-12.198
coming	-12.1981
▁appreciate	-12.1981
ht	-12.1983
lla	-12.1984
▁approximate	-12.1986
▁decide	-12.1987
▁depend	-12.1989
here	-12.1989
▁agencies	-12.1994
▁behavior	-12.1994
▁ieyaru	-12.1994
▁tahsil	-12.1994
▁footage	-12.1994
▁enclave	-12.1994
▁supervisor	-12.1994
▁dawra	-12.1994
▁tamper	-12.1994
▁fancy	-12.1994
▁aubl	-12.1994
▁continually	-12.1994
▁skype	-12.1994
▁division	-12.1995
▁truth	-12.1995
▁mittal	-12.1995
▁laxman	-12.1995
▁meerut	-12.1995
▁coustmer	-12.1996
▁studies	-12.1997
▁honda	-12.1998
▁annual	-12.1998
▁verbally	-12.1998
▁spammer	-12.1999
▁accunt	-12.1999
▁swon	-12.2
▁kredit	-12.2003
▁miru	-12.2005
▁badh	-12.2005
▁folder	-12.2007
▁itc	-12.2007
av	-12.2009
▁internal	-12.2009
▁scolded	-12.201
▁puchha	-12.2012
▁gaaliya	-12.2013
▁lye	-12.2017
▁infact	-12.2019
▁warm	-12.202
▁cup	-12.202
▁wow	-12.2021
▁pnr	-12.2023
dist	-12.2029
mol	-12.2029
▁garh	-12.2031
▁incharge	-12.2032
▁transafa	-12.2035
▁princip	-12.2038
▁replaced	-12.2043
▁scare	-12.2047
▁pra	-12.2055
ima	-12.2057
▁dtd	-12.2058
▁ruined	-12.2059
▁chura	-12.2068
hhhhhhhhhhhhhhhh	-12.2071
▁vain	-12.2079
▁chet	-12.2088
cr	-12.2088
uddin	-12.2092
▁events	-12.2106
▁madan	-12.2106
▁shar	-12.2123
▁often	-12.213
otp	-12.2133
▁enna	-12.2136
usne	-12.2142
ton	-12.2147
▁kol	-12.2148
▁karvai	-12.2154
▁ruk	-12.2155
▁pichl	-12.2161
shan	-12.2162
▁traveling	-12.2165
▁ju	-12.2167
▁testing	-12.2182
▁dc	-12.2185
▁lut	-12.2193
pnb	-12.2195
dhu	-12.2197
lli	-12.22
googlecom	-12.2203
▁aab	-12.2203
men	-12.2206
bo	-12.2212
▁beti	-12.2212
▁shastri	-12.2217
dhi	-12.222
rajesh	-12.2225
▁cm	-12.2228
▁fraudent	-12.2229
wad	-12.223
▁owned	-12.2243
▁instalment	-12.225
▁beta	-12.2251
ely	-12.2252
ney	-12.2253
gal	-12.2254
kan	-12.2257
▁bankpaytm	-12.2258
▁frau	-12.2272
▁excess	-12.2275
▁develop	-12.2277
rm	-12.2278
▁negotiate	-12.2278
▁prepar	-12.2279
▁enable	-12.2279
wazirx	-12.228
▁costomer	-12.228
▁bogus	-12.228
▁ayyaru	-12.228
▁ransomware	-12.228
▁examination	-12.228
▁violence	-12.228
▁professor	-12.228
▁lazypay	-12.228
▁shaadicom	-12.228
▁ucba	-12.228
tive	-12.228
▁sixty	-12.2281
▁respectfully	-12.2281
▁ayyindi	-12.2281
▁packet	-12.2282
▁qrcode	-12.2282
word	-12.2282
▁trapping	-12.2283
▁piyush	-12.2283
▁pdega	-12.2283
▁nayak	-12.2283
▁dugi	-12.2283
▁khandelwal	-12.2283
▁golden	-12.2284
▁tinder	-12.2284
▁marry	-12.2284
▁mentor	-12.2285
▁surendra	-12.2286
▁nagaur	-12.2286
▁darshan	-12.2286
▁kamlesh	-12.2286
▁bhiwadi	-12.2287
▁produc	-12.2289
▁hcl	-12.2291
▁vle	-12.2295
ees	-12.2298
▁bhja	-12.2298
▁count	-12.2298
▁hata	-12.2298
▁refno	-12.2298
▁den	-12.2299
▁transactiont	-12.2302
▁gps	-12.2303
travolookin	-12.2305
fwd	-12.2312
▁detect	-12.2326
lk	-12.2327
▁flip	-12.2327
▁usha	-12.2339
ring	-12.235
▁bell	-12.2352
▁lets	-12.2353
aga	-12.2355
▁amoun	-12.2356
▁shame	-12.2368
▁krane	-12.237
ack	-12.2376
▁watts	-12.2388
▁holders	-12.2391
land	-12.2399
uli	-12.24
slove	-12.2404
▁jes	-12.2405
▁blame	-12.2408
▁quickr	-12.2409
ently	-12.2412
mob	-12.2419
▁hit	-12.2422
▁esi	-12.2423
▁wts	-12.2425
kk	-12.2427
▁ish	-12.2431
▁distribut	-12.2433
▁tele	-12.2434
▁factor	-12.2444
▁dose	-12.2445
▁koy	-12.2445
▁tal	-12.2457
▁schemes	-12.2459
gate	-12.2465
▁ifc	-12.2469
▁woke	-12.2475
▁mate	-12.2475
kaise	-12.2478
▁disk	-12.2482
had	-12.2495
▁ky	-12.2502
▁anurag	-12.2502
▁una	-12.2506
▁rehe	-12.2513
lan	-12.2513
▁fradu	-12.2525
▁build	-12.2526
▁hundreds	-12.2527
▁baba	-12.2529
▁jati	-12.2536
▁election	-12.254
mgmailcom	-12.2542
▁wing	-12.2545
▁farmer	-12.2546
▁tes	-12.2549
▁faces	-12.2549
▁electrical	-12.2549
can	-12.2551
▁fil	-12.2553
view	-12.2555
application	-12.2555
▁speaker	-12.256
▁mathur	-12.2566
▁traced	-12.2567
▁arrive	-12.2571
▁industrial	-12.2574
▁nowadays	-12.2574
▁mondal	-12.2574
▁obvious	-12.2574
▁cheyandi	-12.2574
▁jaiswal	-12.2574
▁unsafe	-12.2574
▁tractor	-12.2574
▁jawab	-12.2574
▁silver	-12.2574
▁indira	-12.2574
▁penny	-12.2574
▁favor	-12.2575
▁snatch	-12.2575
▁stupid	-12.2575
▁database	-12.2575
▁absolutely	-12.2575
▁carrier	-12.2575
▁jangid	-12.2575
▁complant	-12.2575
▁wanna	-12.2577
irctc	-12.2577
▁counter	-12.2578
▁solanki	-12.2579
▁cargo	-12.2579
▁ultimate	-12.2579
▁jaisa	-12.258
▁lendmall	-12.2583
▁pat	-12.2583
konchem	-12.2584
▁hath	-12.2584
▁orich	-12.2587
▁employer	-12.2588
▁batakar	-12.2588
▁krdo	-12.2589
▁res	-12.2597
ave	-12.2597
▁jispe	-12.2599
down	-12.2602
▁karib	-12.2603
dia	-12.2604
▁puram	-12.2605
▁nagor	-12.2607
get	-12.2608
▁refurbished	-12.2629
▁durga	-12.263
new	-12.2631
▁payal	-12.2633
comfortable	-12.2634
▁upipaytm	-12.2646
▁roz	-12.2653
▁wp	-12.2659
jeet	-12.2665
told	-12.2672
▁gurinc	-12.2674
rc	-12.2679
nc	-12.2679
▁declar	-12.2685
▁seema	-12.2693
▁indra	-12.2695
▁numbe	-12.2696
▁happ	-12.2698
thing	-12.27
▁byaccount	-12.2701
nkar	-12.2706
gs	-12.2711
▁addresses	-12.2713
▁upiid	-12.2713
let	-12.2723
near	-12.2726
▁airp	-12.2731
▁mena	-12.2737
▁peso	-12.2742
rk	-12.2755
▁kit	-12.2758
▁fl	-12.276
▁confus	-12.2761
▁atah	-12.2765
khan	-12.2768
ece	-12.2771
▁sukh	-12.278
fy	-12.2782
far	-12.2782
pat	-12.2786
▁abt	-12.2794
sky	-12.2799
▁krishan	-12.2801
▁dail	-12.2803
▁chesa	-12.2808
▁sey	-12.281
ash	-12.2819
▁morph	-12.283
uj	-12.2831
▁rajan	-12.2832
▁associate	-12.2833
▁wheel	-12.2836
▁scar	-12.2836
few	-12.2838
▁tarh	-12.2841
▁releas	-12.2848
paid	-12.2851
▁direction	-12.2854
delhi	-12.2855
▁default	-12.2856
airtel	-12.2858
incident	-12.2859
fe	-12.2864
▁fradulant	-12.2867
their	-12.287
attached	-12.2872
▁shameful	-12.2874
▁cricket	-12.2877
▁nuisance	-12.2877
▁platinum	-12.2877
▁treasure	-12.2877
▁decrypt	-12.2877
▁vaccine	-12.2877
▁gareeb	-12.2877
▁association	-12.2877
▁comapny	-12.2877
▁combo	-12.2877
▁tolerate	-12.2877
vu	-12.2877
▁conversion	-12.2877
▁president	-12.2878
▁handover	-12.2879
▁kaushik	-12.2879
▁nuber	-12.2879
▁receving	-12.288
▁cridet	-12.2881
▁guard	-12.2881
▁dalwaye	-12.2882
▁dharmendra	-12.2882
▁marchent	-12.2883
▁chit	-12.2884
▁underage	-12.2884
▁robbed	-12.2886
▁anyhow	-12.2887
▁dedo	-12.2889
▁appreciated	-12.2891
▁vice	-12.2896
very	-12.2901
▁niwe	-12.2903
▁unone	-12.2906
▁comming	-12.2906
▁shouting	-12.291
▁del	-12.291
▁aakash	-12.291
▁sufficient	-12.291
▁upidr	-12.2912
▁sincere	-12.2918
▁tex	-12.2919
▁settings	-12.2922
▁accel	-12.2922
▁harris	-12.2925
▁anonymously	-12.293
res	-12.2931
▁badnami	-12.2931
▁pratik	-12.2932
▁produce	-12.2932
tushar	-12.2933
▁dj	-12.2933
▁cre	-12.2935
▁mileg	-12.294
▁khila	-12.2941
▁raz	-12.2945
▁por	-12.2957
support	-12.296
▁aunt	-12.2961
▁wat	-12.2967
ded	-12.2971
lias	-12.2971
▁reha	-12.2972
▁ce	-12.2977
▁nay	-12.2985
kotak	-12.299
▁harshit	-12.2991
ned	-12.2996
▁khali	-12.3003
xx	-12.3011
▁bhu	-12.3024
▁dup	-12.3026
▁jh	-12.3035
▁chod	-12.3038
▁consumers	-12.3041
gram	-12.3045
▁player	-12.3047
▁accent	-12.3048
▁push	-12.3052
▁cll	-12.3052
instagramcom	-12.3052
▁mayur	-12.3053
sted	-12.3054
asked	-12.3058
▁jae	-12.3069
▁harrs	-12.3076
act	-12.3079
kj	-12.308
▁mature	-12.3083
tak	-12.3092
▁ristedar	-12.3094
▁ivr	-12.3094
used	-12.3098
▁realis	-12.3101
mart	-12.3111
▁kinds	-12.3113
etc	-12.3119
▁function	-12.3124
▁stored	-12.3126
ej	-12.3128
▁hmn	-12.313
hone	-12.3131
▁dell	-12.3132
▁milk	-12.3137
fh	-12.3137
▁style	-12.3141
▁lak	-12.315
▁newspaper	-12.3156
▁developer	-12.316
▁wholesale	-12.3164
next	-12.3176
llllllllllllllll	-12.3182
▁enjoy	-12.3189
▁arogya	-12.3189
▁encounter	-12.3189
▁jewellery	-12.3189
▁nervous	-12.3189
▁okcupid	-12.3189
▁cognizance	-12.3189
▁rubbish	-12.3189
▁betray	-12.3189
▁compny	-12.319
▁tyagi	-12.319
▁suside	-12.319
▁wattsapp	-12.319
▁invitation	-12.319
▁ghosh	-12.319
▁struck	-12.319
▁sequence	-12.319
▁strick	-12.319
▁gorakhpur	-12.3191
▁birthday	-12.3191
▁broda	-12.3191
▁ashutosh	-12.3191
▁drain	-12.3192
▁simran	-12.3192
▁paytem	-12.3192
▁paul	-12.3193
▁ritesh	-12.3193
▁reality	-12.3194
▁mm	-12.3194
▁dhruv	-12.3194
▁topup	-12.3194
▁moblie	-12.3195
▁rough	-12.3195
▁lieu	-12.3195
▁wonder	-12.3196
▁jawahar	-12.3197
▁disagree	-12.3197
▁pavan	-12.3199
▁conned	-12.3199
▁sodala	-12.3199
▁escaped	-12.3199
▁sawai	-12.3199
▁pounds	-12.32
▁vpa	-12.3202
▁shit	-12.3204
ited	-12.3205
dit	-12.3206
▁bn	-12.321
▁hindus	-12.3212
firstly	-12.3212
▁custmor	-12.3217
▁dilva	-12.3218
▁shriman	-12.3224
▁feature	-12.3226
▁summer	-12.3228
▁nikita	-12.3231
hiring	-12.3233
▁pahel	-12.3238
▁acess	-12.3241
▁repot	-12.3242
mse	-12.3247
tv	-12.3248
▁slangs	-12.3251
▁lifted	-12.3253
▁commun	-12.3255
▁pahuch	-12.3263
▁fab	-12.3266
▁ach	-12.3267
▁hal	-12.3271
html	-12.3273
▁adds	-12.3289
▁casual	-12.3295
wat	-12.3296
▁rps	-12.3298
▁ipad	-12.3298
rao	-12.3308
▁hno	-12.3311
▁js	-12.3311
▁fri	-12.3312
▁tutr	-12.3318
▁bin	-12.3325
gt	-12.3326
bas	-12.333
▁maro	-12.3331
▁wit	-12.3335
▁advertisements	-12.3339
▁lai	-12.3341
▁gd	-12.3344
▁bhejta	-12.3348
▁nepal	-12.3349
udential	-12.335
resend	-12.3357
▁coupons	-12.3363
▁makemytrip	-12.3365
hnat	-12.3368
▁defraud	-12.3377
▁sang	-12.3384
sai	-12.3391
▁imp	-12.3391
▁nah	-12.3393
kyc	-12.34
▁plead	-12.3404
hj	-12.3412
saan	-12.3418
▁joki	-12.3419
din	-12.342
▁kalan	-12.3429
▁comm	-12.3432
▁rout	-12.3432
▁gen	-12.3434
ashish	-12.3434
▁respons	-12.3447
▁degi	-12.3448
anand	-12.345
bhu	-12.3457
ath	-12.3459
▁scold	-12.3464
▁kali	-12.3466
▁ifscbarb	-12.3467
▁jaat	-12.3467
uk	-12.3467
▁sections	-12.3477
▁import	-12.3478
fortunately	-12.3479
▁valuable	-12.3481
phir	-12.3488
▁practice	-12.3488
solicited	-12.3491
▁lender	-12.3491
▁cook	-12.3497
▁subsequent	-12.3504
tor	-12.3504
▁vipin	-12.3505
▁bor	-12.351
▁wasted	-12.3511
▁shopify	-12.3511
▁adjust	-12.3512
▁parveen	-12.3512
▁tshirt	-12.3512
▁unparliament	-12.3512
▁dehradun	-12.3512
▁spamming	-12.3512
▁modus	-12.3512
▁facilities	-12.3512
▁prostitute	-12.3512
▁vadodara	-12.3513
▁srinagar	-12.3513
fifteen	-12.3513
▁showroom	-12.3513
▁pervert	-12.3513
▁chouhan	-12.3513
▁shriram	-12.3514
▁abhinav	-12.3515
▁mahadev	-12.3515
▁chandni	-12.3515
▁broad	-12.3516
▁honor	-12.3516
▁provision	-12.3516
▁vaps	-12.3516
▁abhay	-12.3519
▁aslil	-12.3521
▁coaching	-12.3523
▁jija	-12.3524
▁receved	-12.3525
cf	-12.3525
▁aplication	-12.3526
▁krunga	-12.3529
▁violation	-12.353
▁footbal	-12.3532
▁taluk	-12.3533
▁sadi	-12.3533
▁proceedings	-12.3537
rp	-12.3539
your	-12.3542
▁functioning	-12.3543
▁automat	-12.3547
▁pieces	-12.3549
▁captions	-12.355
▁sellers	-12.3557
▁incomplete	-12.3565
port	-12.3566
▁dare	-12.3566
▁adi	-12.3567
▁mone	-12.3567
▁kaa	-12.3568
▁mre	-12.3573
▁ahet	-12.3577
▁ds	-12.3577
▁paymet	-12.3578
▁hps	-12.3581
▁inc	-12.3583
suchnakrta	-12.3584
▁rishi	-12.3587
▁sbm	-12.3591
▁bohat	-12.3593
▁deposits	-12.3594
▁istema	-12.3598
jab	-12.3599
▁ristedaro	-12.3612
waya	-12.3615
uco	-12.3616
▁torchering	-12.3621
▁deti	-12.3627
▁throughout	-12.3632
▁sidha	-12.3633
▁costs	-12.3635
ware	-12.3639
bee	-12.3643
dg	-12.3646
▁alerts	-12.3654
▁raman	-12.3658
getting	-12.3666
▁trie	-12.3667
▁nammin	-12.3667
▁caste	-12.3675
▁tari	-12.3678
▁cousins	-12.3678
calling	-12.3678
ong	-12.3679
code	-12.3683
▁resist	-12.3685
hd	-12.3688
▁namesbi	-12.3693
▁frode	-12.3695
▁avoided	-12.3699
▁mango	-12.37
alia	-12.37
▁sakt	-12.3702
▁bil	-12.3721
▁reli	-12.3721
ham	-12.3721
▁bright	-12.3724
▁bda	-12.3726
tho	-12.3734
▁prof	-12.3735
▁manju	-12.3737
▁navy	-12.3742
▁ranjit	-12.3742
▁cp	-12.3745
▁pet	-12.3757
still	-12.3758
▁mas	-12.3768
py	-12.3773
▁vr	-12.3778
▁kyo	-12.3781
nder	-12.3787
▁misbehave	-12.3798
▁codebarb	-12.3804
▁export	-12.3818
▁commitment	-12.3819
▁thug	-12.3819
mil	-12.382
▁gun	-12.3821
▁distrub	-12.3826
without	-12.3827
▁estate	-12.3827
▁scene	-12.3828
froud	-12.3829
▁follower	-12.383
▁httpwww	-12.3831
▁tea	-12.3832
paise	-12.3834
▁bull	-12.3837
▁mitra	-12.3837
ncial	-12.3843
▁remind	-12.3844
▁straight	-12.3845
▁supplied	-12.3845
▁chesukunnaru	-12.3845
▁generating	-12.3845
▁jariginadi	-12.3845
▁patym	-12.3845
▁focus	-12.3845
▁satisfactory	-12.3845
acuse	-12.3845
▁deactivation	-12.3846
▁crpf	-12.3846
▁activating	-12.3846
▁fess	-12.3846
▁resort	-12.3846
▁hometown	-12.3846
▁referral	-12.3847
kkkkkkkkkkkkkkkk	-12.3847
▁contest	-12.3848
▁marvel	-12.3848
▁ravindra	-12.3849
▁compaint	-12.3851
▁thasil	-12.3852
▁followup	-12.3852
▁vpo	-12.3852
▁ifschdfc	-12.3852
gad	-12.3853
▁equal	-12.3853
▁succeeded	-12.3854
kat	-12.3856
▁mansik	-12.3857
puram	-12.3857
▁shekhar	-12.3857
▁sought	-12.3857
rani	-12.3858
▁sharp	-12.3861
▁parsan	-12.3862
▁oneplus	-12.3863
▁dhamak	-12.3863
▁sonali	-12.3867
▁jag	-12.3869
▁syed	-12.3871
▁kadam	-12.3874
▁kay	-12.388
▁zone	-12.3882
▁journ	-12.3883
▁shikay	-12.3885
gn	-12.3886
▁disguis	-12.3887
▁drugs	-12.3891
ama	-12.3892
sne	-12.3901
▁dat	-12.3904
rkha	-12.3905
cd	-12.3905
▁dhire	-12.3925
▁dark	-12.3926
▁heck	-12.3928
▁crossed	-12.3933
▁throughphonepe	-12.394
form	-12.3945
ore	-12.3945
▁creditcard	-12.3946
▁sl	-12.3948
▁mill	-12.3949
ond	-12.3953
▁route	-12.3955
live	-12.3955
▁nav	-12.3961
test	-12.3971
ada	-12.3971
▁pakistani	-12.3982
▁deductions	-12.3987
▁tarik	-12.3992
▁distribute	-12.3993
dj	-12.4001
▁yesb	-12.4004
▁naik	-12.4004
govin	-12.4005
▁kirpy	-12.4012
▁shiva	-12.4013
▁scane	-12.4013
nj	-12.4017
▁ved	-12.4017
wali	-12.4022
did	-12.4023
▁kise	-12.4024
▁parmar	-12.403
▁falling	-12.4033
▁gaw	-12.4033
▁whi	-12.4035
▁tis	-12.404
more	-12.4046
▁gir	-12.4051
▁chestham	-12.4051
aji	-12.4057
▁financ	-12.4057
gam	-12.4061
▁trh	-12.4075
▁stocks	-12.4078
▁ud	-12.4081
▁chandan	-12.4089
ngry	-12.409
lp	-12.4093
vr	-12.4093
▁solv	-12.4097
▁vast	-12.4108
▁indians	-12.4109
hari	-12.411
▁pho	-12.4114
▁sheet	-12.4117
▁memu	-12.4118
▁indicat	-12.4121
▁sid	-12.413
▁laks	-12.4134
▁atta	-12.4143
▁httpsbitly	-12.4146
ily	-12.4149
▁fra	-12.4149
▁approv	-12.4152
▁xxxxxx	-12.4152
▁baneg	-12.4153
▁sit	-12.4154
▁sis	-12.4155
▁tp	-12.4155
▁complet	-12.4159
▁miscreant	-12.4159
aving	-12.4166
▁trades	-12.4168
▁disappear	-12.4172
▁bully	-12.4172
tom	-12.4172
vijay	-12.4174
ava	-12.4174
▁dey	-12.4175
ung	-12.4177
▁reimburse	-12.4178
waiting	-12.4181
▁tujh	-12.4182
▁restore	-12.4187
▁manipulate	-12.4187
▁aadar	-12.4187
▁fraudulant	-12.4189
▁exploit	-12.419
▁celebrit	-12.419
▁proprietor	-12.419
▁unfair	-12.419
▁blacmail	-12.419
▁suchankrta	-12.419
telugu	-12.419
▁commercial	-12.419
▁overcome	-12.419
▁redressal	-12.419
▁suicidal	-12.419
▁wipro	-12.419
▁dubious	-12.419
▁shrikant	-12.419
▁banerjee	-12.419
▁httpswame	-12.419
▁maruti	-12.419
▁skimm	-12.4191
▁custumer	-12.4191
desh	-12.4192
▁freze	-12.4192
▁bablu	-12.4193
▁masage	-12.4193
▁vaibhav	-12.4193
▁nykaa	-12.4193
▁packers	-12.4193
▁appeal	-12.4193
▁restrict	-12.4194
▁jaisalmer	-12.4195
▁okbizaxis	-12.4195
▁float	-12.4196
▁kavita	-12.4197
bluetooth	-12.4197
▁cybercrimegovin	-12.4199
▁kuki	-12.4199
▁faking	-12.4199
gun	-12.4201
▁bandra	-12.4202
▁enroll	-12.4202
service	-12.4202
▁retun	-12.4203
sam	-12.4205
rgmailcom	-12.4206
▁kbhi	-12.4207
▁threated	-12.4208
▁whataap	-12.421
▁jobless	-12.421
▁affairs	-12.4212
▁tyani	-12.4213
▁beech	-12.4213
guiding	-12.4213
vo	-12.4214
md	-12.4215
▁exposed	-12.4216
▁duly	-12.4216
▁sakti	-12.4217
▁uid	-12.4217
▁aakar	-12.423
▁parivar	-12.423
▁kardi	-12.4232
wallet	-12.4235
▁ispe	-12.4236
▁mak	-12.4236
▁notified	-12.4239
▁fastag	-12.4241
financ	-12.4242
thanks	-12.4243
dgmailcom	-12.4245
▁proff	-12.4247
▁performed	-12.4249
▁chl	-12.425
▁niwas	-12.4252
▁breached	-12.4259
▁numb	-12.426
▁dha	-12.4272
pgmailcom	-12.4284
▁tempt	-12.4289
▁bhare	-12.4295
▁ucl	-12.4295
uska	-12.4295
ible	-12.4303
aadhar	-12.4313
air	-12.4317
▁bale	-12.432
▁chok	-12.432
▁dur	-12.4328
fd	-12.4328
▁partners	-12.4332
ila	-12.4333
▁ren	-12.4337
▁china	-12.4339
lai	-12.4346
▁maar	-12.4355
▁gad	-12.4355
▁khul	-12.4356
wana	-12.4363
▁jate	-12.4364
kd	-12.4368
xix	-12.4373
▁sant	-12.4378
▁nb	-12.4382
vp	-12.4393
▁bydebit	-12.4394
▁missus	-12.4395
▁ht	-12.4395
▁chak	-12.4397
▁commissions	-12.4398
▁nad	-12.441
ale	-12.4415
cket	-12.4417
▁mono	-12.442
▁baja	-12.4425
aw	-12.4432
chandra	-12.4435
rai	-12.4437
▁networking	-12.4441
▁lin	-12.4442
▁messge	-12.4444
▁pooch	-12.4448
▁partial	-12.4451
▁py	-12.4451
▁bid	-12.4451
▁exit	-12.4453
ghar	-12.4479
gst	-12.4484
▁gujar	-12.4485
complainant	-12.4497
▁lite	-12.4507
▁becom	-12.4513
▁doubtful	-12.4514
▁exceed	-12.4516
igmailcom	-12.4524
ide	-12.4525
▁bkid	-12.4528
suddenly	-12.4528
xyz	-12.4529
immediately	-12.4532
▁anni	-12.4533
▁object	-12.4533
▁thret	-12.4534
▁aapna	-12.4535
▁srinivas	-12.4535
▁khor	-12.4538
▁recommend	-12.4547
▁criteria	-12.4547
▁goverment	-12.4547
▁grocer	-12.4547
▁unreachable	-12.4547
▁vikrant	-12.4547
legitimate	-12.4547
▁applicable	-12.4547
▁context	-12.4547
▁whastapp	-12.4547
▁hatred	-12.4547
▁arpit	-12.4547
▁jaikishan	-12.4547
▁shinde	-12.4547
▁deliberately	-12.4548
▁distajmer	-12.4548
▁nikaal	-12.4548
▁mazya	-12.4548
▁hostel	-12.4548
▁aligarh	-12.4548
▁foolish	-12.4548
▁ultra	-12.4548
▁layout	-12.4548
▁photocopy	-12.4549
▁aprox	-12.4549
▁chomu	-12.4549
▁indirectly	-12.4549
▁hero	-12.4549
▁sick	-12.4549
▁httpsplay	-12.455
▁prateek	-12.455
▁satisfied	-12.455
▁banswara	-12.455
▁distribution	-12.455
▁validation	-12.455
▁junior	-12.455
▁adhikari	-12.4551
▁engine	-12.4551
▁cowin	-12.4551
▁frightened	-12.4551
▁acccount	-12.4551
▁welcome	-12.4551
▁mahaveer	-12.4553
▁brain	-12.4554
▁yourself	-12.4555
▁addressed	-12.4559
▁howrah	-12.4559
▁pasie	-12.4561
▁bounced	-12.4561
▁paymnet	-12.4564
▁nict	-12.4571
stern	-12.4571
▁perpetrators	-12.4573
hal	-12.4576
▁bitcoins	-12.4578
vv	-12.4579
▁parent	-12.4579
▁arti	-12.458
▁ushne	-12.458
▁sth	-12.4587
▁paste	-12.4588
▁choti	-12.4589
▁tarikh	-12.459
▁krege	-12.4598
▁tri	-12.4607
▁timeline	-12.4611
asking	-12.4613
▁acceptable	-12.4613
▁remotely	-12.4615
kl	-12.4624
reddy	-12.4626
▁destroyed	-12.4627
▁reside	-12.463
▁geeta	-12.463
▁bankpnb	-12.4634
▁supported	-12.4635
▁interviews	-12.4637
▁pd	-12.4641
▁jal	-12.4647
ibl	-12.465
▁naye	-12.4651
till	-12.466
ludo	-12.4663
▁byphonepe	-12.4675
▁prince	-12.4678
▁rea	-12.4679
▁khola	-12.468
life	-12.4683
▁manta	-12.4683
▁bankbob	-12.4684
▁saud	-12.4684
▁provoke	-12.4686
▁workers	-12.4695
▁bech	-12.4695
▁honeytrap	-12.4713
ora	-12.4715
▁utar	-12.4721
▁waste	-12.4721
▁jinka	-12.4727
▁nuksa	-12.473
who	-12.4733
▁sneha	-12.4744
▁kele	-12.4746
▁founder	-12.4747
▁sree	-12.4747
▁throughphone	-12.4747
adami	-12.475
▁amountvictim	-12.4758
ender	-12.4763
▁jaya	-12.4765
▁challenge	-12.4766
sys	-12.4771
▁phot	-12.4776
like	-12.4777
koko	-12.4777
may	-12.4782
▁neccess	-12.4783
fin	-12.4788
ygmailcom	-12.4799
▁handles	-12.4801
▁costum	-12.4804
▁aake	-12.4806
▁representatives	-12.4823
ease	-12.4841
▁pir	-12.4851
yak	-12.4857
▁bahn	-12.4859
want	-12.4859
dhar	-12.4861
▁swip	-12.4866
▁rp	-12.487
▁kut	-12.487
▁tomar	-12.4872
sending	-12.4872
ibility	-12.4875
▁invit	-12.4877
lam	-12.4878
▁interst	-12.4879
▁prop	-12.4882
▁reminder	-12.4884
▁acquaintance	-12.4887
▁lr	-12.4887
▁giri	-12.4893
▁chata	-12.4896
▁fresh	-12.4897
bk	-12.4898
before	-12.4898
ngmailcom	-12.49
▁fulfill	-12.4901
▁misguide	-12.4904
▁sebi	-12.4905
▁sens	-12.4905
aram	-12.4905
only	-12.4908
▁validate	-12.4909
▁thorough	-12.4909
▁contac	-12.491
▁bhubaneswar	-12.4918
▁luggage	-12.4918
▁shopkeeper	-12.4918
▁thorogh	-12.4918
▁tremendous	-12.4918
▁wednesday	-12.4918
▁guwahati	-12.4918
▁whataspp	-12.4918
▁assault	-12.4918
▁massanger	-12.4918
▁correspondence	-12.4918
▁amritsar	-12.4918
▁fraduster	-12.4918
▁difference	-12.4918
▁anydex	-12.4918
▁mesaage	-12.4918
▁rollover	-12.4918
chanak	-12.4918
▁acknowledgment	-12.4918
▁alwer	-12.4918
▁surprising	-12.4918
▁leasing	-12.4918
▁copyright	-12.4918
▁dialled	-12.4918
▁aurangabad	-12.4919
▁ownership	-12.4919
▁tack	-12.4919
▁shivaji	-12.4919
▁statment	-12.4919
▁natraj	-12.4919
▁junction	-12.4919
▁kncchain	-12.492
enge	-12.492
▁rajsamand	-12.492
▁aarti	-12.492
▁chahti	-12.4921
▁beauty	-12.4921
▁movers	-12.4922
▁phising	-12.4922
▁vcit	-12.4922
▁nidhi	-12.4922
▁puja	-12.4922
▁salman	-12.4923
▁audit	-12.4923
▁facilitated	-12.4923
▁euro	-12.4924
▁everybody	-12.4924
▁pawar	-12.4924
▁attched	-12.4926
scholarship	-12.4926
▁sight	-12.4926
▁girish	-12.4927
▁msme	-12.4929
▁zip	-12.493
▁died	-12.493
▁explaining	-12.493
▁sourav	-12.4932
▁batata	-12.4932
▁imran	-12.4933
▁john	-12.4934
nal	-12.4936
▁helpdesk	-12.4937
▁badmer	-12.4937
▁pariwar	-12.4944
▁kishore	-12.4946
▁nivas	-12.4947
▁yoga	-12.4949
▁esne	-12.4956
▁pakda	-12.4965
cal	-12.4966
tic	-12.497
▁trail	-12.4974
▁chali	-12.4976
aly	-12.4981
▁moti	-12.4982
fast	-12.4983
▁hurting	-12.4985
microsoft	-12.4985
▁concentrate	-12.4991
oun	-12.4993
▁suits	-12.4995
▁restart	-12.4997
rah	-12.4997
athi	-12.4997
▁jayege	-12.4999
▁trough	-12.4999
▁theyre	-12.5001
▁haa	-12.5005
▁ldk	-12.5006
utr	-12.5007
▁pahal	-12.5012
▁islam	-12.5012
gb	-12.5014
▁triple	-12.5016
▁frd	-12.5017
goibibo	-12.5019
nay	-12.5022
▁mc	-12.5023
▁bho	-12.5024
dependent	-12.5024
▁asha	-12.5024
▁finanac	-12.5045
lled	-12.5047
▁exists	-12.5052
▁bolna	-12.5053
▁haras	-12.5068
▁fly	-12.507
▁challeng	-12.5072
hlo	-12.5077
▁eh	-12.5084
▁bharo	-12.5085
▁survive	-12.5087
▁iob	-12.5103
▁shak	-12.5106
▁payme	-12.5107
shree	-12.5115
abhi	-12.5129
▁dam	-12.5131
▁tree	-12.5138
hb	-12.5139
list	-12.5139
sj	-12.5141
▁lett	-12.5141
made	-12.5142
pya	-12.5151
once	-12.5154
▁declare	-12.516
▁admit	-12.5162
aaj	-12.5167
▁jiss	-12.5168
olx	-12.5171
vel	-12.5173
▁mj	-12.5183
▁bandh	-12.5183
cl	-12.5184
hs	-12.5185
lm	-12.5189
▁vis	-12.5189
zo	-12.5195
▁det	-12.5199
▁dea	-12.5204
▁relat	-12.5217
jodhpur	-12.5224
path	-12.5227
▁khel	-12.5229
▁krazy	-12.523
▁bur	-12.5235
master	-12.524
▁avar	-12.5246
send	-12.5248
▁megha	-12.5256
▁bags	-12.5258
▁kid	-12.527
▁flow	-12.5275
manoj	-12.5278
mari	-12.5279
sirmam	-12.5283
▁kishor	-12.5291
gaya	-12.5292
hroom	-12.5296
update	-12.5296
▁sundar	-12.5297
▁maina	-12.5299
▁falle	-12.53
▁fold	-12.53
▁receve	-12.5301
▁udyog	-12.5302
▁circumstances	-12.5302
▁guarantor	-12.5302
▁pretty	-12.5302
▁entries	-12.5302
▁prayagraj	-12.5302
▁maldives	-12.5302
▁keshav	-12.5302
▁vedeo	-12.5302
▁bhaut	-12.5302
▁distijaipur	-12.5302
▁majhya	-12.5302
▁trancation	-12.5302
▁ashamed	-12.5303
▁spice	-12.5303
▁tranaction	-12.5303
▁ravadam	-12.5303
▁crazycash	-12.5303
▁rishabh	-12.5303
▁watsaap	-12.5303
▁reimbursement	-12.5303
▁wtsapp	-12.5303
▁column	-12.5303
▁argo	-12.5303
▁mpokket	-12.5303
▁operandi	-12.5303
▁dawara	-12.5304
▁evident	-12.5304
▁survey	-12.5304
▁lido	-12.5305
▁mod	-12.5305
▁worse	-12.5305
▁ugly	-12.5305
▁anushka	-12.5305
▁nitesh	-12.5305
▁tnx	-12.5305
▁receiev	-12.5305
▁pilot	-12.5306
▁rohan	-12.5306
▁deepika	-12.5307
▁allready	-12.5307
▁plase	-12.5307
▁ranjeet	-12.5307
▁traction	-12.5308
▁maj	-12.5308
▁kushwaha	-12.5309
▁prank	-12.5309
▁learnt	-12.5309
▁prabhu	-12.5309
eeeeeeeeeeeeeeee	-12.531
▁gopi	-12.531
▁ngo	-12.5313
▁sheikh	-12.5313
▁utna	-12.5313
▁crome	-12.5316
▁unho	-12.5318
ela	-12.5321
▁innocen	-12.5322
▁separately	-12.5323
▁parties	-12.5324
▁chetan	-12.5329
▁severely	-12.5331
▁seat	-12.5332
▁compain	-12.5336
▁miscreants	-12.5337
br	-12.5337
▁hired	-12.5338
sb	-12.5338
▁distress	-12.5339
▁inactive	-12.5341
▁associates	-12.5342
▁nois	-12.5345
ola	-12.5346
famous	-12.5348
▁mk	-12.5348
yoki	-12.5348
▁fan	-12.5349
yala	-12.535
ota	-12.535
trichy	-12.5353
▁dead	-12.5356
▁raht	-12.5356
▁kahta	-12.5358
▁narayana	-12.5359
▁undressing	-12.5359
chief	-12.5366
▁attracted	-12.5368
▁cot	-12.5368
try	-12.5371
▁seduce	-12.5372
ayegi	-12.5375
▁bihari	-12.5378
▁insan	-12.5379
▁operations	-12.5383
fully	-12.5387
wada	-12.5388
pc	-12.5395
▁chaha	-12.5396
▁inquir	-12.5399
▁ava	-12.54
▁proved	-12.5401
que	-12.5401
▁differ	-12.5407
ole	-12.5408
cs	-12.541
ew	-12.5412
▁rounds	-12.5422
mummy	-12.5425
▁muz	-12.5426
▁bapi	-12.5426
hacker	-12.5427
▁blok	-12.5438
▁swapp	-12.5444
▁sept	-12.5448
con	-12.545
▁saam	-12.545
niche	-12.5452
▁hire	-12.5461
user	-12.5474
rasment	-12.5478
mod	-12.5487
nan	-12.5505
ini	-12.5507
dc	-12.5508
uch	-12.5508
▁bra	-12.551
▁sarva	-12.5512
▁naga	-12.5518
▁promo	-12.5522
▁vej	-12.5523
fund	-12.5527
▁sexy	-12.553
refund	-12.5543
▁packages	-12.5545
uri	-12.5551
ev	-12.5553
ix	-12.5554
ign	-12.5555
▁acco	-12.5562
▁levels	-12.5565
▁manger	-12.5566
oor	-12.5567
raud	-12.5567
▁portals	-12.557
▁buyers	-12.5584
▁harresme	-12.5593
dask	-12.56
▁usak	-12.5605
▁bharos	-12.5605
▁hau	-12.561
▁opend	-12.5614
▁khushi	-12.5614
▁locations	-12.5615
▁persion	-12.562
sham	-12.5621
▁trah	-12.5624
▁mov	-12.5625
ifsc	-12.5627
ving	-12.5628
▁bah	-12.5629
▁rm	-12.5634
give	-12.5638
request	-12.564
mein	-12.5643
▁legally	-12.5648
fo	-12.5649
▁prov	-12.5656
▁battleground	-12.5656
▁kahe	-12.5669
▁soldier	-12.567
ax	-12.567
▁precaution	-12.5671
▁bottle	-12.5671
jar	-12.5674
police	-12.5677
icit	-12.5679
▁divorce	-12.568
▁rathor	-12.5681
▁kusum	-12.5682
unauthorized	-12.5683
initially	-12.5684
▁nii	-12.5686
▁froze	-12.5693
▁situations	-12.5693
ser	-12.5693
▁unfortunate	-12.5694
▁iphones	-12.5701
▁kurti	-12.5702
outlookcom	-12.5702
▁alcohol	-12.5702
▁excutive	-12.5702
▁revenue	-12.5702
▁vaccinated	-12.5702
▁coneent	-12.5702
▁addpno	-12.5702
▁constable	-12.5702
▁ikarza	-12.5702
▁trucaller	-12.5702
▁construction	-12.5702
▁surgery	-12.5702
▁orissa	-12.5702
▁despatch	-12.5702
▁fuel	-12.5702
▁aacount	-12.5702
▁unemployed	-12.5702
▁accommodation	-12.5703
▁utiliz	-12.5703
▁shekhawat	-12.5703
▁manohar	-12.5703
▁molest	-12.5703
▁esteem	-12.5703
▁referring	-12.5703
▁reena	-12.5703
▁randeep	-12.5703
▁notimepmdate	-12.5703
▁karthik	-12.5703
▁accurate	-12.5703
▁budh	-12.5703
▁pharma	-12.5703
▁smartwatch	-12.5704
▁unexpected	-12.5704
▁bahadur	-12.5704
▁kashyap	-12.5704
▁possibilit	-12.5705
▁kitchen	-12.5705
▁dixit	-12.5705
▁jhodpur	-12.5705
▁lpg	-12.5705
▁daita	-12.5705
ode	-12.5706
▁affordable	-12.5706
▁handsome	-12.5706
▁dholpur	-12.5707
▁sentiments	-12.5707
minal	-12.5707
▁studio	-12.5707
▁recruit	-12.5709
▁movement	-12.571
▁techno	-12.571
▁blockmail	-12.571
▁hitesh	-12.571
▁neglected	-12.5711
▁radha	-12.5711
▁dutta	-12.5712
▁estimate	-12.5712
▁sultanpur	-12.5712
www	-12.5713
▁vachina	-12.5713
▁taruvata	-12.5713
▁krapa	-12.5714
▁behera	-12.5714
▁annoying	-12.5714
▁hiding	-12.5714
▁bhul	-12.5717
tended	-12.5717
▁uber	-12.5718
▁vinayak	-12.5718
▁punit	-12.5722
tatha	-12.5727
▁furd	-12.5729
▁tq	-12.5729
▁negi	-12.5735
▁harasing	-12.5735
▁batch	-12.5735
daniki	-12.5735
▁tips	-12.5737
▁meku	-12.5743
▁transit	-12.5745
▁mms	-12.5748
▁bp	-12.575
▁gor	-12.5753
nda	-12.5754
ron	-12.5755
vadam	-12.5756
▁experienced	-12.5757
▁uploded	-12.5758
▁amazone	-12.5758
▁dobar	-12.5759
▁culture	-12.576
▁thx	-12.5761
▁krdiya	-12.5761
▁googl	-12.5765
▁lagay	-12.5766
ena	-12.5767
▁ec	-12.5768
▁sirplease	-12.5769
ita	-12.5774
▁attacker	-12.5783
amit	-12.5783
▁upiphonepe	-12.5784
▁jod	-12.5784
▁sala	-12.5787
▁vid	-12.5801
▁yhi	-12.5803
under	-12.5804
ajay	-12.5807
▁cast	-12.5817
▁sana	-12.5817
▁msges	-12.5819
▁coordinat	-12.5822
▁palm	-12.5826
▁fron	-12.5827
▁debits	-12.5833
ration	-12.5838
tti	-12.5843
▁employ	-12.5846
plus	-12.5847
media	-12.585
▁curri	-12.5855
▁batao	-12.5861
▁thumb	-12.5863
▁characters	-12.5865
▁subh	-12.5866
▁bengali	-12.5869
▁sada	-12.5873
▁prospect	-12.588
ain	-12.5883
▁milta	-12.5887
gra	-12.5902
httpswww	-12.5903
bag	-12.5904
js	-12.5906
kt	-12.5922
▁gadget	-12.5927
▁sarv	-12.5929
fty	-12.593
▁neighbours	-12.5939
▁cho	-12.5942
▁contractor	-12.5943
▁ager	-12.5944
▁barbo	-12.5944
▁ball	-12.5944
▁rupaya	-12.5952
ify	-12.5958
lent	-12.5963
▁itne	-12.5963
▁maku	-12.5964
▁baj	-12.5967
▁proceeding	-12.5968
rn	-12.5971
tin	-12.5972
▁yatra	-12.5981
rwa	-12.5981
tment	-12.5981
kant	-12.5983
▁whatapps	-12.5986
▁lad	-12.5992
▁mix	-12.5998
▁ecs	-12.6003
▁tan	-12.6008
▁row	-12.6014
▁anu	-12.6017
▁neem	-12.6024
▁mahan	-12.6031
ttu	-12.6039
▁frou	-12.6042
▁bookings	-12.6043
▁anshu	-12.6049
▁plant	-12.605
hacked	-12.6054
vest	-12.6058
▁accusing	-12.6058
tam	-12.6064
▁bir	-12.6064
mukesh	-12.6066
▁disguise	-12.6067
yani	-12.607
▁ritu	-12.6072
official	-12.6074
sure	-12.6076
▁fru	-12.6077
▁pearl	-12.6087
▁range	-12.6088
▁perpetrator	-12.6088
krishna	-12.6091
group	-12.6091
old	-12.6093
▁himhe	-12.6095
▁timepmamount	-12.6095
▁paymen	-12.6096
club	-12.6099
mahindra	-12.6099
just	-12.61
ashok	-12.6103
uc	-12.6104
rant	-12.6104
▁sohan	-12.6105
▁doge	-12.6105
trx	-12.6106
▁reactivate	-12.6106
▁music	-12.611
▁messeg	-12.611
▁ciber	-12.611
▁sach	-12.6112
vc	-12.6113
hence	-12.6113
▁watsap	-12.6115
about	-12.6119
▁convenience	-12.6119
▁fidelity	-12.6119
▁malaysia	-12.6119
▁motorcycle	-12.6119
▁anticipation	-12.6119
▁marksheet	-12.6119
▁macbook	-12.6119
▁ibkl	-12.6119
▁eagle	-12.6119
▁terrorism	-12.6119
▁khatabook	-12.6119
▁chesanu	-12.6119
▁karyava	-12.6119
▁temporary	-12.6119
▁jadhav	-12.6119
▁qnet	-12.6119
▁bullet	-12.6119
▁pharmaceutical	-12.612
▁telecall	-12.612
▁kunj	-12.6121
▁threatned	-12.6121
▁weblink	-12.6121
▁proud	-12.6121
▁othpg	-12.6121
▁campaign	-12.6121
▁sewa	-12.6121
▁tuition	-12.6121
▁dsp	-12.6122
▁compalint	-12.6122
▁ramgarh	-12.6123
tur	-12.6124
▁prabhat	-12.6124
▁strike	-12.6124
▁pvtltd	-12.6126
lc	-12.6126
▁msz	-12.6127
▁rajgarh	-12.6128
▁bay	-12.6128
▁thankfull	-12.6128
▁marudhar	-12.6129
oc	-12.6132
hum	-12.6133
▁khanna	-12.6134
▁aftr	-12.6134
▁boat	-12.6134
▁pant	-12.614
▁reopen	-12.614
▁kardhani	-12.6142
▁resources	-12.6146
▁cad	-12.6146
▁clam	-12.6148
▁alex	-12.6149
aar	-12.6149
▁excha	-12.615
▁nanu	-12.615
▁laptops	-12.6155
▁blackmails	-12.6157
▁khatam	-12.6158
▁huin	-12.6158
respect	-12.616
▁ghya	-12.6161
sup	-12.6162
▁sus	-12.6164
▁gayab	-12.6166
fg	-12.6167
▁jy	-12.6175
ndu	-12.6175
choudhary	-12.6177
▁detials	-12.6179
▁rae	-12.6179
ard	-12.6181
▁grabb	-12.6182
▁kerne	-12.6182
▁sonia	-12.6182
▁arr	-12.6183
▁mgs	-12.6184
▁served	-12.6186
▁makeup	-12.6186
▁emp	-12.6189
▁unblocked	-12.619
▁tweets	-12.6191
lost	-12.6193
▁shoppe	-12.6194
kuch	-12.62
iti	-12.6203
▁lega	-12.6204
iting	-12.6206
▁shikar	-12.6207
gf	-12.6209
▁errors	-12.6214
▁throug	-12.6215
▁tank	-12.6216
▁kyun	-12.6217
▁asset	-12.622
▁cool	-12.622
▁convers	-12.6221
▁kisan	-12.6229
▁dalte	-12.6232
ika	-12.6233
▁hd	-12.6237
car	-12.6237
hy	-12.6249
ved	-12.6252
▁buri	-12.6253
▁borrowing	-12.6259
▁womens	-12.6259
bill	-12.6259
bus	-12.6264
▁beleive	-12.6272
▁verifi	-12.6274
▁registerd	-12.6279
▁gnd	-12.6281
iz	-12.6288
jha	-12.6289
▁bara	-12.6291
though	-12.6297
lg	-12.6299
▁avan	-12.6301
mohan	-12.6304
▁scaned	-12.6304
ltd	-12.6311
▁deb	-12.6313
▁frude	-12.6316
roli	-12.6316
▁ol	-12.6318
charu	-12.6319
ren	-12.6327
iv	-12.6328
▁siwan	-12.6328
▁struggl	-12.633
▁insur	-12.6332
▁awas	-12.6333
▁foto	-12.634
ess	-12.6343
▁vendors	-12.6345
ssa	-12.6346
rged	-12.6349
cide	-12.6357
ans	-12.6357
withdrwal	-12.6358
fu	-12.6366
rish	-12.637
▁taxi	-12.637
aud	-12.6375
uary	-12.6386
▁puche	-12.6394
▁connections	-12.6395
▁asif	-12.6395
▁finaliz	-12.6399
product	-12.6406
gl	-12.6408
▁providers	-12.6409
fj	-12.6412
val	-12.6412
▁pisa	-12.6423
anjana	-12.6424
▁jatin	-12.6426
▁abu	-12.6437
▁keli	-12.6437
▁yaa	-12.6439
kg	-12.6444
▁muzh	-12.6449
shiv	-12.6451
mala	-12.6459
nat	-12.6462
axl	-12.6466
▁traped	-12.6468
▁renu	-12.6478
▁rf	-12.6479
eight	-12.6484
ding	-12.6484
▁ven	-12.6486
mini	-12.6487
▁sonna	-12.6489
▁enn	-12.6492
▁theif	-12.6494
▁ratna	-12.6495
▁dayal	-12.6507
▁minut	-12.651
▁nobank	-12.6512
▁sweet	-12.6516
hel	-12.6516
▁dilaye	-12.6517
▁rom	-12.6522
▁effort	-12.6523
▁measure	-12.6525
cessary	-12.6528
patel	-12.6533
▁yhe	-12.6535
▁bl	-12.654
▁nirmal	-12.6545
central	-12.6545
▁bnak	-12.6547
▁banai	-12.6547
▁resell	-12.6548
▁hindon	-12.655
ou	-12.655
▁chocolate	-12.6554
▁custody	-12.6554
▁nephew	-12.6554
▁quantity	-12.6554
▁desperate	-12.6554
▁negligence	-12.6554
▁oclock	-12.6554
▁vinanti	-12.6554
▁anxiety	-12.6554
▁applecombill	-12.6554
▁orginal	-12.6554
▁dhyan	-12.6554
▁russia	-12.6554
▁biswas	-12.6554
▁unnecessarily	-12.6554
▁scale	-12.6554
▁rural	-12.6554
▁gradually	-12.6554
▁mirror	-12.6554
▁vinti	-12.6554
▁saraswat	-12.6554
team	-12.6554
▁crdit	-12.6554
▁paschim	-12.6555
▁mukherjee	-12.6555
▁irrelevant	-12.6555
▁malware	-12.6555
▁alred	-12.6555
▁naukaricom	-12.6555
▁interaction	-12.6555
▁worng	-12.6555
▁hamper	-12.6556
▁clever	-12.6556
▁codeutib	-12.6556
▁pagal	-12.6556
▁liquid	-12.6556
▁reedem	-12.6557
▁scbl	-12.6557
▁harrasement	-12.6557
▁pareek	-12.6557
▁distudaipur	-12.6557
▁nambar	-12.6557
khangmailcom	-12.6557
aye	-12.6557
▁lifetime	-12.6558
▁saroj	-12.6558
▁smjh	-12.6558
what	-12.6559
▁cheyaman	-12.6559
▁warranty	-12.656
▁irritated	-12.6561
▁dedicated	-12.6561
▁drink	-12.6563
▁kharid	-12.6564
▁pinky	-12.6564
▁compell	-12.6564
buddy	-12.6565
▁yeah	-12.6566
▁lew	-12.6567
dri	-12.6567
▁annaru	-12.6568
▁passward	-12.6568
▁goel	-12.6568
▁csr	-12.6569
▁mediator	-12.6569
▁successfull	-12.657
▁frame	-12.6571
▁reimbursed	-12.6573
▁purani	-12.6573
▁jawan	-12.6576
▁chach	-12.6577
▁kamla	-12.6578
▁aadharcard	-12.6579
▁employed	-12.6584
▁battlegrounds	-12.6586
▁aswell	-12.6586
▁pfa	-12.6587
▁dhar	-12.659
▁frds	-12.659
▁fallow	-12.6591
▁kor	-12.6591
▁deeply	-12.6593
▁mah	-12.6595
▁abous	-12.6598
▁anyway	-12.6598
▁instalments	-12.6601
▁shaw	-12.6603
▁karlo	-12.6604
▁foundation	-12.6606
▁dekht	-12.661
hub	-12.6614
▁discontinue	-12.6625
▁tall	-12.6626
▁bolka	-12.6629
mc	-12.6637
▁timings	-12.6637
▁belt	-12.6637
gat	-12.6639
mit	-12.664
▁eve	-12.6641
▁finserve	-12.6644
ggmailcom	-12.6644
bai	-12.6645
agram	-12.6648
▁shweta	-12.6649
▁tagg	-12.6653
▁tricks	-12.6655
▁vishwas	-12.6656
▁batai	-12.6658
▁upgraded	-12.6659
▁wada	-12.6668
inder	-12.6673
▁notimepm	-12.6679
▁rto	-12.668
▁cardpan	-12.6681
wy	-12.6692
▁hepl	-12.6696
▁daya	-12.6705
vt	-12.6709
▁stat	-12.671
▁stuffs	-12.6713
ize	-12.6716
ced	-12.6716
▁blackmailers	-12.6721
hp	-12.6723
▁blog	-12.6724
▁loaded	-12.6724
▁bet	-12.6725
▁tumhr	-12.6735
▁exams	-12.6738
loving	-12.6739
▁lorr	-12.6739
▁sidh	-12.6744
▁kaushal	-12.6762
▁wb	-12.6764
▁convence	-12.6768
▁remitte	-12.6769
▁bura	-12.677
▁mach	-12.6772
rich	-12.6776
ateful	-12.6777
▁cu	-12.6781
▁questioning	-12.6781
▁gm	-12.6784
ite	-12.6788
sand	-12.6806
▁mesg	-12.6811
▁bani	-12.6813
▁finalize	-12.6814
prasad	-12.6817
▁bj	-12.6818
kisth	-12.6821
prakash	-12.6827
apk	-12.683
sanjay	-12.683
▁vair	-12.6836
▁popular	-12.6838
▁film	-12.6838
vj	-12.6848
▁bache	-12.6848
▁villa	-12.6858
para	-12.6859
▁asia	-12.686
wagmailcom	-12.686
▁okk	-12.6861
▁persuade	-12.6861
trader	-12.6867
ivan	-12.6869
▁rooms	-12.6869
yy	-12.6876
▁gal	-12.6877
▁diff	-12.6878
nine	-12.688
▁tranferr	-12.6883
meena	-12.6884
▁stations	-12.6884
▁watched	-12.6885
▁kyon	-12.6885
aiah	-12.6887
▁rok	-12.6887
▁secs	-12.6888
▁meta	-12.6892
▁hamar	-12.6895
▁bhatt	-12.6898
▁avl	-12.6902
▁kant	-12.6906
▁logistic	-12.6912
▁desh	-12.6913
▁khatri	-12.6915
eted	-12.6917
▁dee	-12.6918
▁kab	-12.6921
▁skin	-12.6929
▁acha	-12.6929
mad	-12.6933
▁retriev	-12.6934
▁dowanlo	-12.6935
▁ratan	-12.6936
pra	-12.694
▁vc	-12.6941
▁expir	-12.6949
wing	-12.6951
▁ncc	-12.6953
▁helpme	-12.6954
▁rashmi	-12.6973
mission	-12.6977
▁dick	-12.6983
▁saat	-12.6988
▁apollo	-12.6988
unauthorised	-12.6989
however	-12.6989
recharge	-12.6989
hood	-12.6989
ger	-12.6993
iyo	-12.6995
▁swami	-12.6997
▁authorize	-12.7
▁silent	-12.7001
▁seize	-12.7002
ea	-12.7002
appsdetailsidcom	-12.7003
▁aomunt	-12.7008
▁dishonest	-12.7008
▁industries	-12.7008
▁kaarvayi	-12.7008
▁freefire	-12.7008
▁jabalpur	-12.7008
▁bombay	-12.7008
▁futher	-12.7008
▁bohut	-12.7008
▁vaishnodevi	-12.7008
▁bhushan	-12.7008
▁residency	-12.7008
▁repist	-12.7009
▁specified	-12.7009
▁lottary	-12.7009
▁dhoke	-12.7009
▁qualification	-12.7009
▁impossible	-12.7009
▁groovy	-12.7009
▁improper	-12.7009
▁bhabhi	-12.7009
▁malum	-12.7009
▁esfb	-12.7009
▁subsidy	-12.7009
▁agian	-12.701
▁ashlil	-12.701
▁bhardwaj	-12.701
▁cerdit	-12.701
▁gallary	-12.701
▁millita	-12.701
▁mosam	-12.701
▁muskan	-12.701
▁chakkar	-12.701
▁weight	-12.701
▁compliment	-12.701
▁intervene	-12.701
▁deletion	-12.701
▁chirag	-12.701
monut	-12.701
▁himachal	-12.7011
▁sapna	-12.7011
▁districtjaipur	-12.7011
▁science	-12.7011
▁ghetle	-12.7011
▁fuck	-12.7011
▁sandhya	-12.7011
▁honour	-12.7012
▁vishwakarma	-12.7012
▁accessible	-12.7013
▁sardar	-12.7013
▁pratapgarh	-12.7013
▁refound	-12.7013
point	-12.7013
▁tilak	-12.7014
▁chargeback	-12.7014
▁maange	-12.7014
▁dheeraj	-12.7014
▁ankur	-12.7015
▁moneyplease	-12.7015
▁dhadi	-12.7015
▁executed	-12.7015
▁subham	-12.7016
hant	-12.7017
▁tarun	-12.7017
▁accountafter	-12.7017
▁vk	-12.7018
▁siddharth	-12.7019
pk	-12.7019
▁resp	-12.7022
▁watches	-12.7023
abid	-12.7024
▁patti	-12.7024
▁greetings	-12.7025
▁jeevan	-12.7027
manish	-12.7028
▁shayam	-12.7029
cher	-12.703
days	-12.7031
yam	-12.7031
▁uae	-12.7032
shankar	-12.7034
▁rcv	-12.7034
▁khera	-12.7036
▁ledu	-12.7036
hsbc	-12.7037
asti	-12.704
▁generally	-12.7041
▁mission	-12.7043
▁datas	-12.7043
▁kurtis	-12.7043
▁courio	-12.7046
▁promptly	-12.7046
▁dud	-12.705
▁eat	-12.7052
▁cheppada	-12.7052
▁pushing	-12.7053
▁dekhne	-12.7055
▁ration	-12.7062
daily	-12.7067
▁whe	-12.7069
hwa	-12.7076
▁xxx	-12.7079
sis	-12.7079
eeb	-12.7079
▁postpon	-12.7082
▁effected	-12.7085
▁eg	-12.7087
▁semi	-12.7094
▁medicines	-12.7094
rg	-12.7096
▁tron	-12.7097
feb	-12.71
▁awb	-12.711
▁prathm	-12.7113
ui	-12.712
▁dy	-12.7121
▁stall	-12.7137
▁gand	-12.7137
▁intimations	-12.7139
▁jun	-12.7142
dm	-12.7149
lod	-12.7151
rahul	-12.7157
▁eb	-12.7157
▁transmitt	-12.7159
▁rama	-12.7161
pudu	-12.7162
▁proves	-12.7163
▁kitn	-12.7164
okka	-12.7169
▁saari	-12.7176
▁refunds	-12.7178
▁medi	-12.7178
▁permit	-12.7183
rugh	-12.7186
▁lab	-12.7186
tlb	-12.7193
▁mass	-12.7195
▁chip	-12.721
room	-12.7213
ahi	-12.7216
▁feet	-12.7217
▁doctors	-12.7219
▁kartik	-12.7222
▁abb	-12.7223
▁ske	-12.7224
▁dno	-12.7225
nehru	-12.723
unch	-12.7231
▁sita	-12.7232
sab	-12.7233
▁foe	-12.7233
iss	-12.7235
▁transt	-12.7238
▁um	-12.7249
ayi	-12.725
lang	-12.725
external	-12.7253
kara	-12.7254
den	-12.7255
▁nik	-12.7267
tap	-12.7269
rajendra	-12.727
edit	-12.7271
▁thak	-12.7273
▁lies	-12.7278
nch	-12.7281
kam	-12.7282
uv	-12.7283
▁ours	-12.7283
▁dho	-12.7288
▁escalate	-12.7288
▁mac	-12.7296
usar	-12.7298
love	-12.73
▁fraudpaytm	-12.7304
uku	-12.7305
ency	-12.7309
cp	-12.7315
ual	-12.7329
pd	-12.7331
▁beat	-12.7333
page	-12.734
wich	-12.7344
▁papers	-12.7344
▁servers	-12.7345
▁repayments	-12.7352
▁viru	-12.7352
jhe	-12.7355
▁jp	-12.7355
lik	-12.7361
▁chut	-12.7372
▁someday	-12.7373
▁bla	-12.7373
yt	-12.7379
▁mnt	-12.7382
gc	-12.7385
▁yad	-12.7391
▁pressur	-12.7392
qr	-12.7395
▁mn	-12.7398
▁sikha	-12.74
▁jam	-12.7401
▁gt	-12.7401
▁teli	-12.7402
▁saran	-12.7403
▁tip	-12.7403
▁mohali	-12.7403
▁vas	-12.7406
aza	-12.7408
▁todays	-12.7412
bed	-12.7416
gold	-12.7416
zy	-12.7419
▁dai	-12.7422
wai	-12.7423
ins	-12.7424
▁rkh	-12.7426
▁indulge	-12.7429
lie	-12.743
ancy	-12.7436
wari	-12.7441
▁mens	-12.7447
▁pattern	-12.745
▁raghu	-12.7453
▁resource	-12.7454
▁allegation	-12.7455
▁instance	-12.7455
▁recruiter	-12.7459
gk	-12.7459
inlaw	-12.7461
recently	-12.7465
social	-12.7465
▁complai	-12.7467
raya	-12.7468
bajaj	-12.7471
▁radhe	-12.7479
▁continous	-12.7479
▁vai	-12.7479
lw	-12.7481
lic	-12.7482
▁warrant	-12.7482
▁confess	-12.7482
▁aggregat	-12.7484
twelve	-12.7484
▁christmas	-12.7484
▁clarify	-12.7484
▁envelop	-12.7484
▁naaptol	-12.7484
▁sponsor	-12.7484
▁square	-12.7484
▁suspension	-12.7484
▁untraceable	-12.7484
▁webiste	-12.7484
▁benifit	-12.7484
▁bluff	-12.7484
▁jitender	-12.7484
▁destination	-12.7484
▁decrease	-12.7484
▁landmark	-12.7484
▁clinic	-12.7484
▁nominee	-12.7484
▁tommor	-12.7484
▁defective	-12.7485
▁prostitution	-12.7485
▁bansur	-12.7485
▁lehenga	-12.7485
▁refrens	-12.7485
kumawatgmailcom	-12.7485
▁andhulo	-12.7485
▁uidai	-12.7485
▁david	-12.7485
▁complient	-12.7485
▁vijayawada	-12.7485
▁kishangarh	-12.7485
▁friendrelative	-12.7485
oxigen	-12.7485
▁distbharatpur	-12.7485
▁distjhunjhunu	-12.7485
▁internship	-12.7485
▁vacation	-12.7485
▁absconding	-12.7485
vermagmailcom	-12.7485
▁rupiye	-12.7485
▁ibm	-12.7485
▁apgb	-12.7485
▁siphon	-12.7486
▁sangam	-12.7486
▁continuation	-12.7486
▁acces	-12.7486
jl	-12.7487
▁anshul	-12.7487
▁swich	-12.7487
▁winter	-12.7487
▁bhatnagar	-12.7487
▁codeubin	-12.7488
▁fitness	-12.7488
▁azad	-12.7488
▁subash	-12.7489
▁docoment	-12.749
▁sunder	-12.749
▁challan	-12.749
▁marchant	-12.7491
▁panchal	-12.7491
▁vipul	-12.7491
▁rajkot	-12.7493
▁congratulations	-12.7493
▁bhandari	-12.7493
▁tender	-12.7494
▁selfi	-12.7495
▁reqest	-12.7495
▁nill	-12.7495
▁sarch	-12.7496
▁terminated	-12.7496
▁dungarpur	-12.7497
▁finalised	-12.7497
▁bolkr	-12.7499
▁karegi	-12.7499
▁gangapur	-12.7501
▁modifi	-12.7501
▁misbehaved	-12.7504
▁madhe	-12.7504
umber	-12.7505
▁didwana	-12.7506
▁sangya	-12.7507
▁wake	-12.7508
▁batayi	-12.7509
hm	-12.751
▁friendly	-12.751
▁ayurveda	-12.7513
▁perfume	-12.7513
▁quar	-12.7516
▁vat	-12.7518
same	-12.7519
▁wire	-12.7519
▁solli	-12.7519
▁begin	-12.752
▁tbhi	-12.7522
▁probe	-12.7529
▁messgae	-12.753
▁anup	-12.753
▁bhagwan	-12.7532
▁chalt	-12.7538
rh	-12.7544
▁fu	-12.7545
ady	-12.7547
▁fround	-12.7551
▁patients	-12.7553
▁jas	-12.7554
▁harress	-12.7556
▁photoshopp	-12.7557
▁cry	-12.756
▁cmd	-12.7566
uni	-12.7569
transfer	-12.7571
away	-12.7572
play	-12.7574
▁pressuriz	-12.7576
adhi	-12.7577
lar	-12.7582
▁dekho	-12.7584
igration	-12.7586
▁snaps	-12.7592
hey	-12.7597
kka	-12.7598
hoot	-12.7599
▁eva	-12.7604
hak	-12.7606
▁toucher	-12.761
▁rank	-12.7611
▁dera	-12.7612
▁mater	-12.7615
▁orderd	-12.7617
▁fruader	-12.7619
▁trns	-12.7619
▁jee	-12.762
▁vara	-12.7621
ink	-12.7626
▁ifscicic	-12.7638
▁httpsm	-12.7639
▁undi	-12.7642
wane	-12.7642
▁flexi	-12.7643
box	-12.7645
▁lea	-12.7646
▁kahan	-12.7648
▁anta	-12.7654
oin	-12.7657
▁odd	-12.7657
▁photoshop	-12.7663
▁noor	-12.7665
▁eye	-12.7666
▁aditi	-12.7667
ebook	-12.7668
▁patra	-12.7668
vir	-12.7672
▁wallets	-12.7674
rom	-12.7675
▁antha	-12.7675
▁intend	-12.7683
▁logs	-12.7689
jun	-12.7694
agi	-12.7696
▁pita	-12.7699
▁badha	-12.77
anjali	-12.7704
▁bhati	-12.7707
▁unsend	-12.7708
▁bikes	-12.7709
▁nikle	-12.7714
▁numbr	-12.7715
▁karle	-12.7716
▁sil	-12.7716
▁shu	-12.772
hand	-12.7723
▁paras	-12.7723
revolt	-12.7723
▁rt	-12.7727
ilkul	-12.7733
bel	-12.7737
▁tau	-12.7739
▁nic	-12.7744
▁matters	-12.7748
▁regist	-12.7752
▁particulars	-12.7759
ast	-12.7763
sana	-12.7763
▁vist	-12.7766
yon	-12.7768
▁recv	-12.7771
fs	-12.7773
▁farz	-12.7773
▁gs	-12.7777
gen	-12.7782
ndhi	-12.7786
nsa	-12.7787
kesh	-12.7787
▁cn	-12.7792
fk	-12.7796
▁gr	-12.7797
aisa	-12.7797
▁ling	-12.7808
▁gao	-12.781
chit	-12.7813
kala	-12.7816
▁daba	-12.7822
▁arm	-12.7822
▁bejh	-12.7824
eswar	-12.7825
▁maker	-12.7831
hn	-12.784
▁yn	-12.7841
▁losse	-12.7842
▁rampur	-12.7845
▁mop	-12.7853
▁motor	-12.7853
▁lay	-12.7855
▁balenc	-12.7859
▁whts	-12.7862
▁credi	-12.7863
case	-12.7864
lur	-12.7864
xi	-12.7866
vb	-12.7874
▁charger	-12.7877
▁tec	-12.7879
isa	-12.788
▁dukan	-12.7882
ear	-12.7883
▁badle	-12.7884
hot	-12.7884
jis	-12.7885
xh	-12.789
▁crn	-12.7893
▁bhr	-12.7897
▁compani	-12.7898
how	-12.7898
▁ghe	-12.7902
laxmi	-12.7902
dom	-12.7907
rw	-12.7909
▁nair	-12.791
facebookcom	-12.7914
▁tution	-12.7916
▁gl	-12.7922
dec	-12.7923
lle	-12.7925
every	-12.7926
gp	-12.7931
yan	-12.7935
▁consist	-12.7936
nai	-12.7938
▁lala	-12.7942
▁ashwin	-12.7942
▁dikhao	-12.7943
▁pursu	-12.7944
vance	-12.7946
well	-12.7947
hii	-12.7947
▁mistak	-12.7951
▁nurse	-12.7951
▁spare	-12.7953
▁affair	-12.7954
▁btaye	-12.7954
▁monitor	-12.7954
▁aad	-12.7955
▁frend	-12.7959
sunil	-12.7962
acceptable	-12.7965
bharat	-12.7965
scammer	-12.7965
because	-12.7965
lekin	-12.7966
▁trainer	-12.7966
bha	-12.7967
▁crop	-12.797
▁undergo	-12.7972
▁hiran	-12.7975
▁consecutive	-12.7976
▁escape	-12.7977
▁atha	-12.7979
▁kraye	-12.7981
▁godaddy	-12.7983
▁extent	-12.7984
▁curiosity	-12.7984
▁dhanyawad	-12.7984
▁kolkatta	-12.7984
▁kulkarni	-12.7984
▁radhika	-12.7984
▁transanction	-12.7984
▁uttarakhand	-12.7984
▁hesitate	-12.7984
▁circulation	-12.7984
▁securities	-12.7984
▁ashwani	-12.7984
▁grandfather	-12.7984
▁janakpuri	-12.7984
▁blackmaling	-12.7984
▁compound	-12.7984
▁detalis	-12.7984
▁journalist	-12.7984
▁riqw	-12.7984
▁peaceloving	-12.7984
▁cancer	-12.7985
▁almirah	-12.7985
▁virel	-12.7985
▁monster	-12.7985
▁googel	-12.7985
▁unscr	-12.7985
▁ravinder	-12.7985
▁earphone	-12.7985
▁jagatpura	-12.7985
▁upgradation	-12.7985
▁vulger	-12.7985
▁transiction	-12.7985
▁disturbance	-12.7985
▁breakup	-12.7986
▁chairman	-12.7986
▁brach	-12.7986
▁corner	-12.7986
blackmailing	-12.7986
▁shreya	-12.7986
▁tactics	-12.7987
▁eleven	-12.7987
▁council	-12.7987
▁unbox	-12.7987
▁phale	-12.7988
▁nashik	-12.7988
▁wealth	-12.7988
▁tapped	-12.7988
▁follw	-12.7989
▁magicbrickscom	-12.7989
▁kannan	-12.7989
▁renwal	-12.7989
▁actress	-12.7989
▁rehne	-12.799
▁politely	-12.799
▁ptm	-12.799
rediffmailcom	-12.7991
▁namber	-12.7991
▁kerke	-12.7991
▁prepare	-12.7991
lower	-12.7992
▁tutor	-12.7993
▁drone	-12.7993
▁dought	-12.7993
▁border	-12.7993
▁serach	-12.7994
▁recall	-12.7995
▁kamble	-12.7996
▁upyog	-12.7996
▁thoroughly	-12.7996
noda	-12.7996
hammad	-12.7996
▁rply	-12.7997
▁charted	-12.7998
▁mnc	-12.7998
odi	-12.7999
▁intimidate	-12.7999
▁ulte	-12.8001
▁hlp	-12.8001
▁calm	-12.8003
▁mandate	-12.8004
▁earnest	-12.8004
▁useless	-12.8005
▁james	-12.8005
eve	-12.8005
▁suchan	-12.8006
▁registeration	-12.8006
▁varsha	-12.8007
▁mamta	-12.8007
▁bath	-12.8007
▁karvahi	-12.8008
▁mpl	-12.8009
▁jalore	-12.801
▁manu	-12.8012
▁millions	-12.8012
▁panwar	-12.8013
▁barbad	-12.8015
▁bound	-12.8015
▁hel	-12.8016
▁sethi	-12.8017
bra	-12.8019
▁measures	-12.802
▁tisukon	-12.8021
▁devayatak	-12.8026
▁morf	-12.8031
▁commitments	-12.8031
uth	-12.8036
▁defrauding	-12.8037
▁allott	-12.8041
▁wave	-12.8044
dont	-12.8045
▁bk	-12.8046
▁shashi	-12.8047
bro	-12.8049
hani	-12.805
ture	-12.8052
ven	-12.8053
▁tough	-12.8057
▁nord	-12.8058
vz	-12.8058
▁joy	-12.806
▁monu	-12.8062
▁retain	-12.8064
ether	-12.8067
▁yogi	-12.8068
ua	-12.8073
▁krk	-12.8075
▁appand	-12.8075
▁teaching	-12.8075
▁raw	-12.8078
▁ajio	-12.8079
▁inlogo	-12.808
▁gaur	-12.8088
late	-12.8095
▁incase	-12.8095
▁kudi	-12.8096
fox	-12.8097
rate	-12.8097
▁darr	-12.8098
▁gods	-12.8098
lad	-12.8102
▁advisors	-12.8103
▁backup	-12.8106
▁protected	-12.8107
▁forud	-12.8122
▁debet	-12.8122
▁haan	-12.8124
▁krra	-12.8126
▁numberac	-12.8126
▁dilever	-12.8131
▁kch	-12.8133
say	-12.8134
mate	-12.8138
▁breaching	-12.814
▁epf	-12.8145
▁appoint	-12.8145
hf	-12.8148
bin	-12.815
▁scaner	-12.8157
▁bnb	-12.8158
▁remains	-12.8161
▁reslove	-12.817
▁vastund	-12.8172
▁disha	-12.8172
▁ajeet	-12.8175
▁gp	-12.8181
key	-12.8182
qq	-12.8185
▁anju	-12.8187
▁authenticat	-12.819
rajgmailcom	-12.8192
▁len	-12.8195
bardast	-12.82
▁absu	-12.8204
▁tests	-12.8205
▁woo	-12.8206
▁esliy	-12.8211
▁cons	-12.8212
▁dekhe	-12.8213
sko	-12.8217
▁manda	-12.8224
▁feelings	-12.8224
ene	-12.8231
ura	-12.8232
kari	-12.8241
▁methods	-12.8244
▁cum	-12.8247
▁competiti	-12.8248
▁gat	-12.8248
▁hash	-12.826
▁wht	-12.8266
bp	-12.8272
num	-12.8273
▁sin	-12.8274
rum	-12.8291
▁hh	-12.8291
▁bija	-12.8296
▁reffer	-12.8297
fare	-12.8298
trading	-12.8304
▁mul	-12.8304
thats	-12.8306
▁hoke	-12.8308
▁slots	-12.8314
cit	-12.8316
dnt	-12.832
▁nammi	-12.8321
▁diposit	-12.8323
guptagmailcom	-12.8325
▁responses	-12.8327
lat	-12.8337
vip	-12.8337
pally	-12.8338
▁vel	-12.8345
acc	-12.8348
▁authenticate	-12.835
▁ana	-12.8351
ill	-12.8351
▁jewel	-12.8355
sun	-12.8359
mand	-12.836
products	-12.8361
▁nal	-12.8375
▁ume	-12.8375
▁hnt	-12.8378
rised	-12.8379
ym	-12.8387
▁kita	-12.8389
kun	-12.8391
lut	-12.8392
hir	-12.8393
▁rise	-12.8402
▁axi	-12.8402
▁carefully	-12.841
▁jj	-12.8412
ida	-12.8423
indiacom	-12.8428
easy	-12.8429
▁mahal	-12.8429
▁disclos	-12.8433
rrier	-12.8433
▁karde	-12.8438
raha	-12.8438
▁pspratap	-12.8439
idex	-12.844
▁prob	-12.8441
kota	-12.8444
▁unfreez	-12.8444
narayan	-12.8445
ramesh	-12.8446
people	-12.8446
▁vasant	-12.8448
▁pareshani	-12.8456
▁gf	-12.8459
▁remov	-12.8465
▁devayat	-12.8467
▁tranis	-12.8469
rth	-12.8471
▁muh	-12.8476
▁salarie	-12.8479
▁sathe	-12.8483
mesh	-12.8483
health	-12.8483
gupta	-12.8484
▁grace	-12.8485
snal	-12.8486
▁crim	-12.8488
▁ow	-12.8488
hkar	-12.8488
▁sap	-12.8489
business	-12.849
above	-12.8491
hz	-12.8492
▁assign	-12.8498
muje	-12.8499
▁lam	-12.85
block	-12.85
▁khaa	-12.8501
▁mud	-12.8501
▁suprem	-12.8506
▁satha	-12.8506
▁bareilly	-12.8511
▁municipal	-12.8511
▁pertinent	-12.8511
▁ruepy	-12.8511
▁aggressive	-12.8511
▁argohash	-12.8511
▁conspiracy	-12.8511
zebpay	-12.8511
▁fingerprint	-12.8511
▁avdhesh	-12.8511
▁bottom	-12.8511
▁coindcx	-12.8511
▁paresaan	-12.8511
▁problam	-12.8511
▁siliguri	-12.8511
▁blunder	-12.8511
▁majboor	-12.8511
▁annexure	-12.8511
▁starmaker	-12.8511
▁safeguard	-12.8511
▁deadline	-12.8511
▁cruci	-12.8511
▁siralen	-12.8511
▁charan	-12.8511
▁mbbs	-12.8511
▁patidar	-12.8511
▁sanju	-12.8511
▁mahajan	-12.8511
▁specifically	-12.8511
▁witness	-12.8511
▁padegi	-12.8511
▁retrive	-12.8511
ket	-12.8511
rathoregmailcom	-12.8512
boutique	-12.8512
▁protest	-12.8512
▁slander	-12.8512
▁dipak	-12.8512
▁guest	-12.8512
▁shopclues	-12.8512
▁chaturvedi	-12.8512
▁ghanshyam	-12.8512
▁pyment	-12.8512
▁switchoff	-12.8512
▁glass	-12.8512
▁gym	-12.8512
▁campus	-12.8513
▁purches	-12.8513
▁built	-12.8513
▁jaayega	-12.8513
▁swati	-12.8513
▁philippines	-12.8513
▁pravin	-12.8513
▁bhejenge	-12.8513
▁chanchal	-12.8514
▁distbarmer	-12.8514
▁rajveer	-12.8514
▁rentpayments	-12.8515
▁disrespectful	-12.8515
▁creator	-12.8515
▁neelam	-12.8515
▁bis	-12.8516
▁rinku	-12.8516
▁operational	-12.8517
▁organiz	-12.8517
▁jbki	-12.8517
▁atteched	-12.8517
▁bayana	-12.8517
▁mahawar	-12.8518
▁matches	-12.8518
gy	-12.8518
▁mha	-12.8519
▁giveaway	-12.852
▁deduced	-12.8521
char	-12.8521
▁cashbus	-12.8521
tgmailcom	-12.8522
▁panjab	-12.8524
▁bhadra	-12.8524
▁puneet	-12.8524
▁rahne	-12.8524
▁kheda	-12.8525
identified	-12.8526
▁bounce	-12.8528
▁signal	-12.8529
▁corrupt	-12.853
prem	-12.853
▁chalta	-12.8531
▁becou	-12.8531
▁raza	-12.8531
sudhir	-12.8532
▁recoding	-12.8533
▁compalin	-12.8533
▁balckmailing	-12.8533
zh	-12.8533
▁batana	-12.8533
llow	-12.8535
▁ern	-12.8536
▁plaes	-12.8537
akhilesh	-12.8537
▁purana	-12.854
eet	-12.8541
tk	-12.8542
vh	-12.8542
▁designer	-12.8542
▁monitoring	-12.8543
▁crying	-12.8544
▁ml	-12.8545
bit	-12.8546
▁exited	-12.8546
▁urban	-12.8549
▁economic	-12.8549
▁technic	-12.8553
shastri	-12.8553
▁cropp	-12.8554
adhar	-12.8554
wahi	-12.8558
▁participate	-12.8558
▁backend	-12.8564
ony	-12.8567
▁scamsters	-12.857
republic	-12.8572
thor	-12.8574
jain	-12.8575
kot	-12.8575
resment	-12.8577
▁rti	-12.8577
▁tie	-12.8578
▁wd	-12.8582
▁palam	-12.8583
▁deepa	-12.8585
gajendra	-12.8588
▁gala	-12.8589
▁keliye	-12.859
▁tik	-12.8593
▁reletives	-12.8594
xxx	-12.8601
vas	-12.8601
▁maz	-12.8601
▁auction	-12.8605
dak	-12.8605
kul	-12.8606
▁bete	-12.8607
▁madi	-12.8608
▁ax	-12.8611
▁pk	-12.8613
iri	-12.8614
▁nud	-12.8624
cle	-12.8627
vn	-12.8627
▁za	-12.863
lon	-12.8632
▁nag	-12.8636
▁spin	-12.8638
▁mur	-12.8643
▁yai	-12.8644
▁toatal	-12.8645
▁ransome	-12.8646
ade	-12.865
▁forword	-12.865
ose	-12.8655
▁jankr	-12.8662
stop	-12.8665
rj	-12.8665
▁jasa	-12.8665
▁uth	-12.8666
eshwar	-12.8667
▁wro	-12.8669
▁typ	-12.8674
▁hall	-12.8675
▁helf	-12.8686
▁wajh	-12.8689
▁distic	-12.8692
qu	-12.8693
▁relations	-12.8697
ller	-12.87
▁exchang	-12.8703
vice	-12.8703
poco	-12.8703
▁samjha	-12.8704
▁goole	-12.8706
▁tarvat	-12.8712
▁singhal	-12.8716
ws	-12.8716
▁alive	-12.8718
▁bhaj	-12.8719
▁bari	-12.872
been	-12.8721
pali	-12.8721
▁trasactions	-12.8726
vk	-12.8729
▁dikhai	-12.8729
▁navin	-12.8732
ater	-12.8736
ree	-12.8736
mone	-12.8738
rl	-12.8739
▁cen	-12.8744
▁fase	-12.8751
▁propos	-12.8751
fx	-12.8754
teen	-12.8756
▁serve	-12.876
road	-12.876
ered	-12.876
ities	-12.8761
▁vere	-12.8767
akkam	-12.8769
ache	-12.8774
hw	-12.8775
fashion	-12.8776
▁baha	-12.8777
bet	-12.8779
php	-12.878
▁employe	-12.8782
sg	-12.8784
▁shaya	-12.8786
yada	-12.8786
▁pressuris	-12.879
▁fat	-12.8792
wh	-12.8797
▁medias	-12.8799
▁rakhe	-12.88
ude	-12.8802
cker	-12.8804
▁regi	-12.8809
▁waq	-12.881
wb	-12.8812
▁yearly	-12.8815
▁ayaa	-12.8815
dal	-12.8816
gging	-12.8817
▁uma	-12.8818
▁targets	-12.8825
▁mira	-12.8834
▁bangal	-12.8835
lion	-12.8836
▁relate	-12.8836
▁dheere	-12.8841
▁qk	-12.8842
aut	-12.8846
ought	-12.8847
kart	-12.8848
▁sriram	-12.8854
sikar	-12.8854
▁lod	-12.8857
worthy	-12.8859
jam	-12.8868
▁ghat	-12.8873
cre	-12.888
▁throu	-12.8882
fdc	-12.8887
put	-12.8887
wk	-12.8889
iki	-12.8894
vana	-12.8897
▁ut	-12.8898
zk	-12.8898
bul	-12.89
▁phne	-12.89
▁turns	-12.8905
▁ordina	-12.8906
▁modes	-12.8914
umar	-12.8917
▁prap	-12.8927
ben	-12.8928
▁hotels	-12.8931
▁dua	-12.8934
▁payphone	-12.8934
isle	-12.8936
▁pais	-12.8936
mmmmmmmmmmmmmmm	-12.8937
thana	-12.8957
▁jhut	-12.8961
ami	-12.8971
udaipur	-12.8973
ium	-12.8975
shopping	-12.8979
yono	-12.8985
lia	-12.8987
win	-12.8988
▁whatts	-12.8991
▁richcash	-12.8993
▁accuse	-12.8994
▁miner	-12.8995
arke	-12.8996
▁hars	-12.8998
▁vari	-12.9
vg	-12.9001
ula	-12.9002
ump	-12.9003
buy	-12.9006
rar	-12.9006
pati	-12.901
▁deactivat	-12.9012
▁smt	-12.9013
uw	-12.9019
oj	-12.9022
look	-12.9031
ssary	-12.9033
▁ess	-12.9033
▁neighbor	-12.9035
cell	-12.9036
▁million	-12.9037
express	-12.9037
▁authorise	-12.9042
▁ep	-12.9043
▁cor	-12.9044
▁wii	-12.9045
▁dan	-12.9046
pankaj	-12.9047
finally	-12.9047
planet	-12.9047
tiwari	-12.9049
download	-12.9051
▁infrom	-12.9052
ppa	-12.9052
▁dash	-12.9054
address	-12.9057
related	-12.9059
▁immidiate	-12.906
▁erase	-12.906
▁influencer	-12.906
▁himalaya	-12.906
▁narrate	-12.9062
▁bhaja	-12.9064
▁shaadi	-12.9065
top	-12.9066
virginmediacom	-12.9066
▁arguing	-12.9066
▁cinema	-12.9066
▁dominos	-12.9066
▁exhausted	-12.9066
▁explanation	-12.9066
▁landlord	-12.9066
▁manufacturing	-12.9066
▁matladutunna	-12.9066
▁packaging	-12.9066
▁rumour	-12.9066
▁secunderabad	-12.9066
▁utkarsh	-12.9066
▁cheyadaniki	-12.9066
▁enforcement	-12.9066
▁telisindhi	-12.9066
▁moeny	-12.9066
▁ielts	-12.9066
▁pepole	-12.9066
▁tenkasi	-12.9066
▁whatsoever	-12.9066
▁prashad	-12.9066
▁dowload	-12.9066
▁rumor	-12.9066
▁bhari	-12.9066
▁dipression	-12.9066
▁dwivedi	-12.9066
▁mountain	-12.9066
▁oobk	-12.9066
▁plateform	-12.9066
▁kidney	-12.9066
▁crorepati	-12.9066
▁kingdom	-12.9066
▁compromise	-12.9067
iggy	-12.9067
▁misguiding	-12.9067
▁suthar	-12.9067
▁harmony	-12.9067
notimeamamountrs	-12.9067
▁split	-12.9067
▁unlimited	-12.9067
▁moradabad	-12.9067
▁servant	-12.9067
▁ipoindhi	-12.9067
▁dharmapuri	-12.9067
▁brokerage	-12.9067
▁ethical	-12.9067
▁aaplication	-12.9067
▁coverage	-12.9067
▁enaku	-12.9067
▁degree	-12.9067
▁battle	-12.9068
▁kinldy	-12.9068
▁meenakshi	-12.9068
▁vocher	-12.9068
▁pharmacy	-12.9068
▁shruti	-12.9068
▁virendra	-12.9068
▁seperate	-12.9069
▁silk	-12.9069
▁workplace	-12.907
▁piram	-12.907
▁distsikar	-12.907
▁khurd	-12.907
▁certifi	-12.907
▁yogendra	-12.9071
▁ukt	-12.9071
▁kncchaincom	-12.9071
▁wame	-12.9071
▁lunch	-12.9072
▁prestige	-12.9072
▁parcels	-12.9072
▁habit	-12.9072
▁donation	-12.9072
babu	-12.9073
photos	-12.9073
▁handcash	-12.9073
▁bhejunga	-12.9073
▁vit	-12.9074
▁engage	-12.9074
▁lelo	-12.9075
▁kanuni	-12.9076
▁salem	-12.9076
▁unlink	-12.9076
▁inadvertent	-12.9076
▁crashed	-12.9076
▁bhartpur	-12.9077
▁crack	-12.9077
▁sakshi	-12.9078
▁vision	-12.9078
▁arrangements	-12.9078
▁geya	-12.9079
▁scary	-12.9081
▁ritika	-12.9081
▁gokul	-12.9082
▁cif	-12.9084
▁cancle	-12.9087
kum	-12.9087
▁pardeep	-12.9088
▁handel	-12.9089
▁txt	-12.9092
▁resive	-12.9092
nki	-12.9093
▁bassi	-12.9096
▁vidya	-12.9097
▁persan	-12.9099
▁dth	-12.91
▁fabricate	-12.9103
▁stake	-12.9103
else	-12.9103
▁nantr	-12.9105
▁possess	-12.9105
▁bhana	-12.9108
▁priced	-12.911
▁revers	-12.9115
asa	-12.9116
▁karliya	-12.9116
ste	-12.9116
▁fradulently	-12.9119
▁rel	-12.912
rent	-12.9124
phon	-12.9124
▁unn	-12.9125
bgmailcom	-12.9126
owned	-12.9129
▁thretn	-12.9132
▁kalyani	-12.9133
▁abhijeet	-12.9136
bg	-12.9138
asha	-12.914
calls	-12.9141
▁para	-12.9142
▁cb	-12.9143
▁scr	-12.9145
▁bula	-12.9147
▁lately	-12.9147
raju	-12.9147
▁krde	-12.9148
during	-12.9148
▁gde	-12.9149
mation	-12.915
▁regd	-12.915
▁til	-12.9156
▁upc	-12.9157
▁ware	-12.9157
▁lark	-12.9166
▁httpscuttly	-12.9168
▁thankfully	-12.9169
priya	-12.9169
▁youth	-12.917
tre	-12.917
▁jet	-12.9172
▁lalch	-12.9172
▁compa	-12.9175
yog	-12.9176
rang	-12.9177
▁aneydes	-12.9179
▁vyas	-12.9179
reserve	-12.9179
uka	-12.918
▁mahin	-12.9183
▁topic	-12.9185
▁rishtedaro	-12.9186
▁revive	-12.9193
▁poses	-12.9205
▁beje	-12.9206
▁khta	-12.9211
▁traf	-12.9218
▁unblocking	-12.9219
▁jante	-12.922
▁eas	-12.9226
▁socially	-12.9227
▁song	-12.9227
ncy	-12.923
raja	-12.923
▁baato	-12.9233
▁ent	-12.9235
▁fam	-12.925
▁sorted	-12.9254
▁herein	-12.9257
▁traps	-12.9263
▁acx	-12.9267
▁pik	-12.927
▁tw	-12.9271
▁trxn	-12.9286
▁yt	-12.9288
▁cars	-12.929
▁jd	-12.9291
▁chai	-12.9292
serv	-12.9292
fax	-12.9294
▁jud	-12.9302
▁chanda	-12.9303
aunt	-12.9305
reddit	-12.9305
▁apolog	-12.9309
bhan	-12.9315
▁rehan	-12.9317
pass	-12.9317
▁recharges	-12.932
▁kochi	-12.9324
▁conect	-12.9325
▁pot	-12.9332
office	-12.9333
▁equi	-12.9334
▁rsrs	-12.9344
ell	-12.9345
▁parul	-12.9351
▁concent	-12.9356
▁mansi	-12.9357
▁rewor	-12.9365
▁fom	-12.9365
aaa	-12.9366
uy	-12.9367
▁diduct	-12.937
▁labor	-12.9374
▁suna	-12.9376
▁chhot	-12.9377
sf	-12.9379
▁dilwaye	-12.9379
▁suchit	-12.9386
cho	-12.9391
lak	-12.9392
aman	-12.9394
▁qc	-12.9397
▁unban	-12.9403
tim	-12.9403
yenge	-12.9405
qnd	-12.9407
▁desi	-12.9407
▁robb	-12.9408
▁haisir	-12.9409
naru	-12.941
▁mute	-12.9412
▁kast	-12.9412
▁manik	-12.9412
▁lgeg	-12.9413
▁core	-12.9413
▁vin	-12.9416
hk	-12.9417
▁jabard	-12.942
ungi	-12.9421
vala	-12.9426
timepm	-12.9435
▁pau	-12.9442
tna	-12.9445
▁kb	-12.9445
shar	-12.9447
mg	-12.945
▁mangta	-12.947
▁bot	-12.947
▁amer	-12.9473
▁baker	-12.9473
▁nohar	-12.9474
udi	-12.9475
pandi	-12.9483
▁smss	-12.9483
▁ujj	-12.9492
take	-12.9492
salary	-12.9493
▁necess	-12.9494
▁nob	-12.9495
lor	-12.9496
hed	-12.95
jat	-12.9501
▁httpsd	-12.9501
▁managers	-12.9505
awa	-12.9506
▁award	-12.9507
▁grp	-12.9509
cross	-12.9513
tle	-12.9513
▁conf	-12.9516
▁partap	-12.9516
mane	-12.9522
og	-12.9522
▁dun	-12.9524
▁bf	-12.9526
bile	-12.9527
▁oppose	-12.9534
ilet	-12.954
▁knw	-12.954
▁mir	-12.9541
sue	-12.9542
▁aske	-12.9542
foji	-12.9543
iii	-12.9544
▁vad	-12.9545
▁dharam	-12.9545
▁masg	-12.9547
▁helo	-12.9551
▁gulab	-12.9554
http	-12.9556
▁meant	-12.9561
rawat	-12.9561
mbar	-12.9562
vaya	-12.9563
▁madhav	-12.957
▁mistaken	-12.9573
▁db	-12.9574
▁mau	-12.9576
▁idib	-12.9577
sacation	-12.9578
rana	-12.9581
dated	-12.9581
grew	-12.9585
udu	-12.9586
indusind	-12.9586
▁propose	-12.9586
vani	-12.9588
▁rand	-12.9592
▁invoices	-12.9594
ior	-12.9595
kra	-12.9597
▁ambala	-12.9603
▁fools	-12.9603
ism	-12.9604
visa	-12.9604
ox	-12.9605
▁sob	-12.9606
▁dek	-12.9607
tav	-12.9608
pre	-12.9614
▁bajrang	-12.9614
▁minit	-12.962
scam	-12.9621
▁classmate	-12.9624
uki	-12.9627
▁mus	-12.9629
▁ubi	-12.9631
egi	-12.9631
▁reel	-12.9633
hanuman	-12.9634
▁vaishnav	-12.9634
▁perosn	-12.9634
mumbai	-12.9634
finacial	-12.9635
delivery	-12.9635
suchana	-12.9637
▁poster	-12.9638
pdf	-12.9639
▁jalor	-12.9641
▁sides	-12.9643
▁oru	-12.9643
▁mathi	-12.9646
inchukunnaru	-12.9646
▁verbal	-12.9646
▁karat	-12.9647
▁naka	-12.9649
▁payumoney	-12.9652
▁academic	-12.9654
▁anamika	-12.9654
▁bathinda	-12.9654
▁diminish	-12.9654
▁gwalior	-12.9654
▁headquarter	-12.9654
▁insecure	-12.9654
▁opinion	-12.9654
forcibly	-12.9654
▁meghwal	-12.9654
▁screeshot	-12.9654
previewdomaincom	-12.9654
▁dhokhe	-12.9654
▁saharanpur	-12.9654
▁sangeeta	-12.9654
▁mattress	-12.9654
▁violent	-12.9654
▁eager	-12.9654
▁excited	-12.9654
▁pradip	-12.9654
▁gurpreet	-12.9655
▁premises	-12.9655
▁bhupendra	-12.9655
▁blakmail	-12.9655
▁mtnl	-12.9655
▁pandranga	-12.9655
▁compnay	-12.9655
▁kreditbee	-12.9655
▁mathod	-12.9655
▁revenge	-12.9655
▁uttarpradesh	-12.9655
▁buddha	-12.9655
▁somthing	-12.9655
▁yoggram	-12.9655
▁tanwar	-12.9655
▁unprofessional	-12.9655
▁familiar	-12.9655
▁disttonk	-12.9655
▁uttrakhand	-12.9655
▁fertilizer	-12.9655
▁rajender	-12.9655
▁qybl	-12.9655
▁farooq	-12.9655
▁vodaphone	-12.9655
▁nijam	-12.9655
▁goodself	-12.9655
opportunities	-12.9655
▁distdausa	-12.9656
▁retrun	-12.9656
▁jaygi	-12.9656
▁sawaimadhopur	-12.9656
▁shahrukh	-12.9656
▁ifscpytm	-12.9656
▁haresment	-12.9657
▁contant	-12.9657
▁waisa	-12.9657
▁negotiation	-12.9657
snol	-12.9657
▁persistent	-12.9657
▁narender	-12.9657
▁identities	-12.9657
▁codepytm	-12.9658
▁tiger	-12.9659
national	-12.966
▁growth	-12.966
▁emitra	-12.966
▁ganv	-12.966
▁chahie	-12.966
▁prabhakar	-12.9661
▁clink	-12.9661
▁desai	-12.9661
▁malpura	-12.9661
▁idiot	-12.9661
▁leliya	-12.9661
▁omkar	-12.9662
▁functional	-12.9662
▁chanel	-12.9662
▁locality	-12.9663
▁mood	-12.9663
▁demond	-12.9663
▁shadow	-12.9664
▁pannunga	-12.9664
▁inconvenience	-12.9664
▁australia	-12.9664
▁warehous	-12.9664
▁shahpura	-12.9665
▁portion	-12.9665
▁stickers	-12.9665
▁jansa	-12.9665
▁ends	-12.9666
▁phonekbc	-12.9666
entity	-12.9667
▁terribl	-12.9667
▁occasions	-12.9669
▁bridge	-12.967
▁screenshort	-12.967
▁cancelation	-12.967
▁vinit	-12.9671
▁regulations	-12.9672
▁sports	-12.9673
▁didn	-12.9673
▁embarrassing	-12.9674
▁gem	-12.9674
▁rameshwar	-12.9675
▁httpswwwyoutube	-12.9676
▁objection	-12.9677
inadi	-12.9679
▁encouraged	-12.9679
▁karakar	-12.968
▁yaar	-12.968
adhya	-12.9685
▁karavi	-12.9685
▁pensioner	-12.9686
hv	-12.9689
▁rose	-12.969
▁kren	-12.9691
▁dekr	-12.9691
▁haking	-12.9693
▁ability	-12.9694
▁skill	-12.9695
▁faud	-12.9695
▁manufacturer	-12.9696
dol	-12.9696
suresh	-12.9696
wq	-12.9698
▁weather	-12.9699
▁beer	-12.9699
▁mca	-12.97
▁collector	-12.9701
tel	-12.9701
▁blacklisted	-12.9702
▁debitcard	-12.9704
▁jean	-12.9704
▁acquaintances	-12.9705
▁bheem	-12.9705
▁aabhar	-12.9707
▁kama	-12.971
▁begum	-12.9712
▁husain	-12.9713
▁bothered	-12.9714
▁consistent	-12.9715
▁faster	-12.9715
wise	-12.9717
▁directions	-12.9717
▁shubh	-12.9718
▁acction	-12.972
▁karba	-12.9722
▁shan	-12.9722
▁tourchering	-12.9724
ching	-12.9728
cent	-12.973
▁karnal	-12.9731
▁awa	-12.9733
bon	-12.9734
▁rj	-12.9735
rupees	-12.9737
▁anant	-12.9738
▁saf	-12.9739
▁chandrakant	-12.974
▁comply	-12.9742
▁pati	-12.9746
▁controll	-12.975
▁khatu	-12.975
▁metter	-12.9751
▁qa	-12.9753
baba	-12.9755
zzzzzzzzzzzzzzzz	-12.9755
▁dk	-12.9756
▁batay	-12.9766
▁pechan	-12.9769
▁resi	-12.977
▁janti	-12.977
mata	-12.9772
▁ty	-12.9774
▁dada	-12.9775
▁kabir	-12.9775
sense	-12.9776
sagar	-12.9777
▁disrespect	-12.9781
▁decent	-12.9781
mitted	-12.9781
timeamdate	-12.9783
ith	-12.9784
▁digitally	-12.9784
▁injur	-12.9785
▁noname	-12.9788
▁hong	-12.9792
▁amountbut	-12.9793
jur	-12.9799
rry	-12.98
long	-12.9803
▁lien	-12.9808
tara	-12.9811
▁pcs	-12.9813
▁dogs	-12.9813
▁proces	-12.9813
ww	-12.9815
▁diy	-12.9824
ntha	-12.9832
took	-12.9835
▁dra	-12.9838
▁mun	-12.9842
▁dilay	-12.9842
▁processes	-12.9845
iyagmailcom	-12.9846
▁attacks	-12.985
▁meaning	-12.9854
▁visha	-12.9859
▁dham	-12.9859
solving	-12.9859
▁sikh	-12.9863
▁dharm	-12.9867
▁amma	-12.9869
▁karli	-12.987
▁firse	-12.9873
▁moon	-12.9874
▁mela	-12.9874
▁pv	-12.9879
placement	-12.9881
▁indicate	-12.9883
login	-12.9887
▁branded	-12.9891
▁throughpaytm	-12.9894
▁faked	-12.9895
bhe	-12.9896
▁whith	-12.9897
sdl	-12.9903
▁tre	-12.9904
nya	-12.9905
ified	-12.991
▁rsdate	-12.9914
▁timely	-12.9915
▁gore	-12.9919
▁httpsbi	-12.9921
aaya	-12.9923
▁conn	-12.9924
▁tam	-12.9928
ets	-12.9928
▁btao	-12.9929
▁lb	-12.9933
yat	-12.9933
▁tuj	-12.9935
hap	-12.9937
▁dinak	-12.9938
▁karur	-12.9942
▁khana	-12.9942
▁cla	-12.9943
▁chep	-12.9944
▁qu	-12.9944
▁jesa	-12.9948
pose	-12.9951
▁sco	-12.9952
whereas	-12.9959
▁reschedule	-12.9961
▁balo	-12.9962
ona	-12.9963
jb	-12.9964
jf	-12.9967
▁taak	-12.9973
▁informations	-12.9977
yda	-12.9978
undhi	-12.9982
▁causes	-12.9983
ools	-12.9987
naam	-12.9995
▁adda	-12.9996
▁shahda	-12.9997
▁damages	-12.9997
▁manual	-12.9999
ppb	-13.0006
▁medam	-13.0007
▁pno	-13.0009
amble	-13.0019
bf	-13.002
▁aala	-13.0025
khar	-13.0027
lite	-13.003
▁saar	-13.003
▁uh	-13.0033
gpay	-13.0035
esting	-13.0039
pot	-13.0042
oth	-13.0043
▁dile	-13.0046
▁caal	-13.0047
▁promiss	-13.0049
▁beleiv	-13.0052
lr	-13.0052
cut	-13.0052
▁aae	-13.0058
wear	-13.0062
govind	-13.0067
▁monet	-13.0067
▁cur	-13.0068
▁dedect	-13.0069
▁cashpal	-13.0078
▁emai	-13.0086
epfo	-13.0101
ining	-13.0102
jn	-13.0106
nar	-13.0108
▁git	-13.0113
▁zo	-13.0114
taken	-13.0116
▁evry	-13.0117
▁whn	-13.0117
finance	-13.0128
▁pahucha	-13.0131
ern	-13.0136
lour	-13.0142
global	-13.0149
pos	-13.015
▁jala	-13.0152
ret	-13.0155
ication	-13.0167
yahoo	-13.0168
kri	-13.0168
▁healthy	-13.0172
▁hike	-13.0172
▁rever	-13.0176
ties	-13.0178
rita	-13.0178
▁acte	-13.0179
▁dig	-13.0183
▁mailer	-13.0184
iiii	-13.0184
onment	-13.0185
▁gra	-13.019
kn	-13.0191
yta	-13.0191
▁hak	-13.0196
rv	-13.0201
▁mut	-13.0203
▁rece	-13.0204
▁taj	-13.0206
nisha	-13.0206
mailcom	-13.0206
▁bass	-13.0215
jw	-13.0215
world	-13.0216
▁receiv	-13.0217
jakr	-13.0218
cause	-13.0226
▁label	-13.0229
sra	-13.0231
khrab	-13.0232
dane	-13.0232
▁iec	-13.0236
▁moh	-13.0236
▁jad	-13.0238
regarding	-13.0239
gd	-13.0239
argmailcom	-13.0241
profile	-13.0241
▁unsecure	-13.0242
▁attache	-13.0245
▁java	-13.0245
kin	-13.0248
▁ipo	-13.0248
▁interval	-13.0248
sm	-13.0249
▁scroll	-13.025
ions	-13.0254
▁bhat	-13.0257
▁bust	-13.0257
rajasthan	-13.026
telegram	-13.026
click	-13.026
threatening	-13.026
friends	-13.026
amazon	-13.0261
black	-13.0263
naresh	-13.0265
kishan	-13.0266
already	-13.0266
▁lapse	-13.0266
▁krupa	-13.0267
▁srivastav	-13.0267
▁terminate	-13.0268
vishing	-13.027
▁command	-13.0271
▁icu	-13.0271
▁swith	-13.0272
▁vachi	-13.0273
yadavgmailcom	-13.0274
▁deliever	-13.0274
tana	-13.0275
▁carder	-13.0275
▁naukari	-13.0278
▁procure	-13.0279
▁suvidha	-13.0279
enfield	-13.0279
▁balck	-13.0279
▁vahi	-13.0279
▁church	-13.0279
▁codeucba	-13.0279
▁conclude	-13.0279
▁cridit	-13.0279
▁horrible	-13.0279
▁prblm	-13.0279
▁protocol	-13.0279
▁rainbow	-13.0279
▁ramanathapuram	-13.0279
▁sikkim	-13.0279
▁visakhapatnam	-13.0279
▁ahuja	-13.0279
▁shashank	-13.0279
▁television	-13.0279
▁incurred	-13.028
▁vulnerable	-13.028
▁chestunnaru	-13.028
▁defens	-13.028
▁fraudulence	-13.028
▁erode	-13.028
▁dividend	-13.028
▁badarpur	-13.028
▁bunk	-13.028
▁observation	-13.028
▁caution	-13.028
▁aggrement	-13.028
▁crises	-13.028
▁modesty	-13.028
▁saurav	-13.028
▁bribe	-13.028
▁laugh	-13.028
▁ravikant	-13.028
▁mandor	-13.028
▁ukhad	-13.028
▁srikanth	-13.028
▁broadcast	-13.028
▁befool	-13.028
▁pallavi	-13.028
▁kanoon	-13.028
▁reservation	-13.028
▁assignment	-13.028
valent	-13.028
▁bpcl	-13.028
text	-13.0281
▁secretary	-13.0281
▁lagenge	-13.0281
▁chepthe	-13.0281
ere	-13.0281
▁rajsthan	-13.0281
▁sulekha	-13.0282
▁halder	-13.0282
vandana	-13.0282
▁germany	-13.0282
▁bipin	-13.0282
▁nigam	-13.0282
▁whatssapp	-13.0282
▁journal	-13.0283
▁cheep	-13.0283
▁continusly	-13.0283
▁paisha	-13.0283
▁haldiram	-13.0283
▁panchayat	-13.0283
▁trivedi	-13.0283
▁makrana	-13.0283
▁threw	-13.0283
▁wireless	-13.0283
▁console	-13.0283
▁wwwkncchaincom	-13.0283
▁jaenge	-13.0283
▁ramganj	-13.0284
▁bhanwar	-13.0284
▁impos	-13.0285
unfortunately	-13.0285
▁vyk	-13.0286
▁kanchan	-13.0286
▁freelancercom	-13.0286
▁deput	-13.0286
▁samadhan	-13.0286
self	-13.0287
▁jaunga	-13.0287
▁appliances	-13.0287
▁bachaye	-13.0287
▁gender	-13.0287
▁falt	-13.0287
▁controller	-13.0287
▁tread	-13.0287
▁queen	-13.0288
▁priti	-13.0288
anydisk	-13.0288
adian	-13.0289
▁nitish	-13.0289
▁cashew	-13.0289
▁alarm	-13.029
▁mssg	-13.0291
▁quikrcom	-13.0291
lava	-13.0291
ped	-13.0292
▁annex	-13.0292
▁manali	-13.0292
▁regrad	-13.0293
muthoot	-13.0293
oid	-13.0294
▁tfr	-13.0295
▁narrat	-13.0295
▁mantra	-13.0295
▁befriend	-13.0296
▁demean	-13.0296
giri	-13.0296
▁carpet	-13.0297
▁seekers	-13.0297
▁kirti	-13.0297
▁deraha	-13.0298
▁likewise	-13.0298
▁dedected	-13.0299
▁maza	-13.03
▁sekhar	-13.0301
▁ayyai	-13.0303
▁grid	-13.0303
ij	-13.0309
▁fulfilled	-13.0312
▁classmates	-13.0313
▁diary	-13.0313
▁mla	-13.0313
▁behaved	-13.0315
▁whatsupp	-13.0317
▁adders	-13.0318
▁defaulted	-13.0319
▁nx	-13.0319
▁rupeestar	-13.0321
shailesh	-13.0323
services	-13.0326
porn	-13.0329
▁soniya	-13.033
▁rink	-13.0331
▁jahan	-13.0332
ments	-13.0334
hana	-13.0337
chya	-13.0338
▁practices	-13.0342
rit	-13.0342
▁reminders	-13.0342
fayda	-13.0344
▁induced	-13.0344
sence	-13.0346
cheyinchukunnaru	-13.035
▁bhawani	-13.035
▁ishwar	-13.0352
▁repaired	-13.0352
▁indulg	-13.0353
▁gauri	-13.0355
nig	-13.0356
ypad	-13.0356
walgmailcom	-13.036
▁professionally	-13.036
▁container	-13.0361
▁saku	-13.0363
▁complen	-13.0365
sara	-13.0366
▁institutions	-13.0367
▁amunt	-13.0367
▁bajar	-13.037
ugmailcom	-13.0372
▁tonight	-13.0375
▁freelance	-13.0375
▁scamers	-13.0379
▁encourage	-13.038
▁massge	-13.0381
▁bonds	-13.0381
▁thiru	-13.0382
▁sabak	-13.0384
▁annu	-13.0386
▁tem	-13.0386
seller	-13.0388
uru	-13.0388
▁karein	-13.039
▁mints	-13.0392
▁audi	-13.0393
ragmailcom	-13.0396
▁coustm	-13.0396
▁googlepe	-13.04
▁pehel	-13.04
ris	-13.0403
▁samples	-13.0404
hve	-13.0408
▁elig	-13.0409
bor	-13.0409
▁fincar	-13.0413
▁inlaw	-13.0413
▁foreigner	-13.0415
vat	-13.0417
▁hora	-13.0419
dding	-13.0419
▁retrieved	-13.0423
▁lights	-13.0426
▁innocents	-13.0428
mw	-13.0429
desk	-13.0429
▁mra	-13.043
nni	-13.0431
devi	-13.0431
▁born	-13.0434
jsjs	-13.0438
▁gras	-13.0445
mba	-13.0445
dho	-13.0445
hc	-13.0447
ative	-13.0449
▁reasonable	-13.0451
▁befor	-13.0452
▁grameen	-13.0453
▁insident	-13.0454
▁pron	-13.0455
lakshmi	-13.0456
▁muslims	-13.0457
atgmailcom	-13.0457
▁terminati	-13.0465
▁kora	-13.0469
▁respos	-13.0469
iest	-13.0481
▁pakde	-13.0483
▁shear	-13.0484
▁ster	-13.0484
▁spa	-13.0486
▁cabin	-13.0491
▁concerns	-13.0496
furthermore	-13.0501
▁diliver	-13.0501
▁karava	-13.0503
hare	-13.0506
▁ush	-13.0508
▁samn	-13.0512
▁pss	-13.0513
share	-13.0515
corp	-13.0518
gourp	-13.052
▁govinda	-13.0522
virar	-13.0526
▁bnay	-13.0531
real	-13.0535
jee	-13.0536
▁rob	-13.0537
▁paint	-13.0544
▁bnake	-13.0548
indus	-13.055
oon	-13.055
sav	-13.0551
▁signatures	-13.0551
jr	-13.0553
▁ayya	-13.0556
zar	-13.0559
jy	-13.056
▁minu	-13.0562
▁hon	-13.0563
▁neb	-13.0564
jc	-13.0564
gre	-13.0565
banking	-13.0566
patti	-13.0567
▁preet	-13.057
▁sole	-13.0571
fee	-13.0571
gv	-13.0576
▁samas	-13.0578
▁tana	-13.0578
easing	-13.0581
ood	-13.0582
▁chase	-13.0582
▁rail	-13.0583
▁unregister	-13.0585
▁acid	-13.0588
▁bdi	-13.059
yes	-13.0594
gya	-13.0596
▁pw	-13.0596
ove	-13.0601
▁bahu	-13.0605
hil	-13.0611
apping	-13.0611
▁phonecall	-13.0613
▁yesa	-13.0613
agar	-13.0618
▁cond	-13.062
cgmailcom	-13.0621
dl	-13.0625
▁towers	-13.0626
▁tourch	-13.0626
▁sce	-13.0633
▁kiy	-13.0635
▁afer	-13.0636
gin	-13.0639
rik	-13.064
mself	-13.0641
▁chestha	-13.0643
▁rock	-13.0643
▁bud	-13.0645
▁trak	-13.0647
ez	-13.0649
sonu	-13.065
▁accou	-13.0651
▁prr	-13.0657
▁eco	-13.0662
▁poora	-13.0662
▁teja	-13.0667
dera	-13.0669
▁computers	-13.0672
pleaseplease	-13.0683
▁waya	-13.0684
▁art	-13.0688
niya	-13.0689
▁bali	-13.069
▁shok	-13.0691
▁tyach	-13.0692
▁kree	-13.0695
ske	-13.0695
kp	-13.0695
hq	-13.0696
▁kadu	-13.0708
unal	-13.0715
oratori	-13.0716
▁uday	-13.0717
▁tim	-13.0717
cm	-13.0721
▁deva	-13.0725
▁amzon	-13.0735
nv	-13.0739
▁jara	-13.0741
sment	-13.0744
chna	-13.0746
▁committe	-13.0749
▁jach	-13.0752
▁refu	-13.0755
piya	-13.0758
▁ley	-13.0758
gir	-13.0765
▁tala	-13.0767
jg	-13.0768
nish	-13.0768
▁memo	-13.0773
▁shanti	-13.0776
▁kada	-13.0783
dv	-13.0785
law	-13.0791
leel	-13.0792
▁jub	-13.0793
ako	-13.0794
▁hares	-13.0796
▁senders	-13.0798
▁geet	-13.0799
aran	-13.0803
▁rishtedar	-13.0803
rtch	-13.081
▁mangal	-13.0813
ass	-13.0815
▁karata	-13.0819
▁baith	-13.0821
ray	-13.0826
reg	-13.0827
vgmailcom	-13.0829
▁digi	-13.083
▁staffs	-13.0831
paru	-13.0833
kamal	-13.0834
▁excel	-13.0838
shit	-13.0839
▁patn	-13.0844
sum	-13.0849
videos	-13.0849
▁utn	-13.0855
▁chij	-13.086
roop	-13.086
▁threatend	-13.086
▁laksh	-13.0865
▁indhi	-13.0866
▁pwd	-13.0869
rest	-13.0869
▁lat	-13.0876
▁flag	-13.0878
▁pressurize	-13.0883
tundhi	-13.0884
▁ajj	-13.0889
▁scot	-13.0889
▁prizes	-13.0892
china	-13.0898
market	-13.0899
imei	-13.09
▁kavi	-13.09
▁ludhiana	-13.09
titude	-13.0901
▁fabric	-13.0903
▁consum	-13.0907
amid	-13.0907
▁captur	-13.0911
▁quarter	-13.0914
digital	-13.0916
▁accord	-13.0917
▁frind	-13.0919
deo	-13.092
namaste	-13.0925
tory	-13.0926
future	-13.0927
▁succeed	-13.0928
proof	-13.0928
idfc	-13.0928
▁strip	-13.0929
▁confront	-13.0929
mina	-13.093
oz	-13.0932
▁bean	-13.0932
bane	-13.0933
▁nast	-13.0933
lz	-13.0934
vishal	-13.0935
check	-13.0938
▁dere	-13.0939
ging	-13.094
sinh	-13.0942
▁fre	-13.0944
▁faceboo	-13.0945
▁jeevansathi	-13.0945
▁shaik	-13.0945
▁correspond	-13.0946
▁ambedkar	-13.0946
▁avenue	-13.0946
▁ayodhya	-13.0946
▁bureau	-13.0946
▁chhattisgarh	-13.0946
▁chinchwad	-13.0946
▁gullible	-13.0946
▁kotputli	-13.0946
▁luxury	-13.0946
▁nexus	-13.0946
▁portfolio	-13.0946
▁surrender	-13.0946
▁illiterate	-13.0946
▁immense	-13.0946
▁avilable	-13.0946
▁remittance	-13.0946
▁spicejet	-13.0946
▁thomas	-13.0946
rrespective	-13.0946
▁xpressbees	-13.0946
▁omegle	-13.0946
▁amitabh	-13.0946
▁bisht	-13.0946
▁recored	-13.0946
▁iffco	-13.0946
▁captcha	-13.0946
qqqqqqqqqqqqqqqq	-13.0946
▁verfication	-13.0946
▁frauduster	-13.0946
▁terminal	-13.0946
▁archana	-13.0946
▁nandini	-13.0946
▁superchat	-13.0946
▁viedo	-13.0947
▁mahender	-13.0947
pore	-13.0947
▁affiliate	-13.0947
▁regain	-13.0947
▁depict	-13.0947
jjat	-13.0947
▁pregnant	-13.0947
▁expiration	-13.0947
▁firestar	-13.0947
▁maneger	-13.0947
▁muzaffarpur	-13.0947
▁volcano	-13.0947
▁disjodhpur	-13.0947
▁delivary	-13.0947
▁prediction	-13.0947
▁pahchan	-13.0947
▁increse	-13.0947
▁agrwal	-13.0947
▁disalwar	-13.0947
mn	-13.0947
▁enrollment	-13.0948
▁fraund	-13.0948
▁epic	-13.0948
▁gajanan	-13.0948
▁distbhilwara	-13.0948
▁vicky	-13.0948
▁karvayi	-13.0948
▁occupation	-13.0948
▁withdral	-13.0949
▁uprok	-13.0949
▁yamuna	-13.095
▁gagan	-13.095
▁sammry	-13.095
▁corrier	-13.095
▁banjara	-13.095
▁pappu	-13.095
▁punch	-13.095
▁representation	-13.095
▁dhokhadha	-13.095
iate	-13.0951
▁glove	-13.0951
▁fraudalent	-13.0951
▁rewari	-13.0951
ition	-13.0951
▁croc	-13.0951
▁savita	-13.0951
▁genitals	-13.0952
▁steam	-13.0952
▁peyment	-13.0952
▁bhanu	-13.0952
▁brijesh	-13.0952
▁waap	-13.0953
▁kuchaman	-13.0953
▁xxxxx	-13.0954
▁delievery	-13.0954
▁availability	-13.0954
▁triggered	-13.0955
▁akansha	-13.0955
▁cooler	-13.0957
▁youtub	-13.0957
▁ena	-13.0958
▁malakar	-13.0958
▁shahu	-13.0958
utility	-13.0958
▁vidhya	-13.0958
▁shilpa	-13.096
▁leti	-13.096
▁hamane	-13.096
▁fatehpur	-13.0961
▁dispos	-13.0961
nika	-13.0962
▁contct	-13.0962
▁jave	-13.0963
▁telecaller	-13.0964
▁karraha	-13.0965
▁crosscheck	-13.0965
▁rap	-13.0966
▁root	-13.0966
▁lan	-13.0967
shyam	-13.0968
▁controlled	-13.0969
▁hills	-13.0969
▁erased	-13.0969
uff	-13.097
▁parshan	-13.0971
▁effective	-13.0972
bhar	-13.0972
▁detais	-13.0973
▁vaishnavi	-13.0973
▁chha	-13.0973
▁shakti	-13.0974
whats	-13.0975
▁frinds	-13.0976
qatar	-13.0976
row	-13.0976
▁daar	-13.0977
▁restored	-13.0978
▁tejas	-13.0979
▁intervals	-13.098
▁difficulty	-13.0981
▁pamp	-13.0985
groovyfashioncom	-13.0987
▁ples	-13.099
▁ncr	-13.099
▁vidoe	-13.0991
▁transac	-13.0991
▁builder	-13.0992
▁ayyi	-13.0992
▁spy	-13.0994
press	-13.0994
▁khati	-13.0995
▁hisar	-13.0996
▁imported	-13.0997
▁tempting	-13.0997
▁banglades	-13.0997
▁simcard	-13.0998
▁lagaye	-13.1
hya	-13.1003
▁robber	-13.1007
▁lk	-13.1008
▁audios	-13.1009
▁wholesaler	-13.1009
▁writt	-13.1009
▁digiye	-13.101
▁jogi	-13.101
▁panchku	-13.1011
▁plse	-13.1011
nude	-13.1011
kta	-13.1013
▁karol	-13.1013
▁shat	-13.1019
▁likhe	-13.102
▁boost	-13.102
▁kissi	-13.1021
▁leaders	-13.1024
▁pssa	-13.1024
▁aka	-13.1025
▁pessa	-13.1026
▁og	-13.1027
▁harss	-13.1028
jio	-13.1032
▁sav	-13.1034
▁sankar	-13.1034
▁purp	-13.1035
▁chiz	-13.1037
ikh	-13.1038
▁nick	-13.1042
pune	-13.1043
jjar	-13.1044
▁rasid	-13.1047
ces	-13.1054
▁thefted	-13.1056
▁bug	-13.1057
dk	-13.1058
▁intern	-13.1058
▁kerna	-13.1058
reverify	-13.1061
▁magne	-13.1062
adarsh	-13.1067
▁badme	-13.107
▁las	-13.1071
lin	-13.1073
iw	-13.1075
▁lona	-13.1076
▁denie	-13.1078
rohit	-13.1079
ries	-13.1082
▁conclusi	-13.1082
▁hanging	-13.1085
np	-13.1085
ndar	-13.1086
adu	-13.1087
▁spending	-13.1092
games	-13.1093
jection	-13.1096
thanking	-13.1097
▁krishnan	-13.1099
art	-13.11
iksha	-13.1105
denge	-13.1108
inal	-13.1116
compost	-13.1116
▁apo	-13.1118
guru	-13.1118
▁padha	-13.112
lx	-13.113
▁production	-13.1138
▁poochh	-13.1139
ization	-13.1141
eri	-13.1144
▁ladkiyo	-13.1145
aid	-13.1147
▁amazonin	-13.1153
▁bnk	-13.1154
sse	-13.1155
▁olxcom	-13.1161
smart	-13.1162
▁une	-13.1163
mahendra	-13.1164
anil	-13.1168
ulla	-13.117
▁panda	-13.1173
▁pichh	-13.1176
uction	-13.1176
ccha	-13.1177
▁propertie	-13.1179
▁prevented	-13.1182
▁chin	-13.1182
cq	-13.119
▁garam	-13.1194
ranga	-13.1206
▁pachi	-13.1207
tl	-13.1212
▁khada	-13.1215
▁costly	-13.1215
seen	-13.1221
making	-13.1223
▁actor	-13.1224
▁compli	-13.1224
riye	-13.1227
▁pone	-13.1229
ramchar	-13.123
▁idpaytm	-13.1235
zen	-13.124
▁daman	-13.1241
lj	-13.1242
▁hve	-13.1244
▁bann	-13.1249
rbl	-13.1257
▁nahe	-13.1258
duping	-13.1259
hsa	-13.1261
dresh	-13.1265
verification	-13.1266
▁panch	-13.1266
▁ushk	-13.1271
▁gains	-13.1276
kkk	-13.1277
apt	-13.1279
▁useful	-13.1279
▁ea	-13.128
ang	-13.128
▁credt	-13.1285
mk	-13.1287
▁amounttime	-13.1287
▁pon	-13.1288
track	-13.1292
▁bharati	-13.1292
▁olxin	-13.1302
words	-13.1302
▁adopt	-13.131
jobs	-13.1311
ght	-13.1311
▁vallan	-13.1316
why	-13.1318
▁announce	-13.132
▁lohar	-13.1324
▁dreampl	-13.1327
qy	-13.1332
▁arn	-13.1332
▁prasan	-13.1332
▁bolck	-13.1334
▁transctions	-13.1335
▁trains	-13.134
▁corrected	-13.134
seru	-13.1342
eg	-13.1344
game	-13.135
nav	-13.1351
▁improve	-13.1353
▁devit	-13.1354
fit	-13.1357
▁shiprocket	-13.1359
vinod	-13.136
▁tmhar	-13.137
ganga	-13.137
ledu	-13.1372
▁dair	-13.1372
▁karn	-13.1373
▁vali	-13.1373
▁seal	-13.1378
fz	-13.1379
▁veg	-13.1382
ague	-13.1384
▁assume	-13.1384
vw	-13.1389
▁mum	-13.1391
▁rupa	-13.1392
▁lya	-13.1394
▁banay	-13.1395
kaar	-13.1398
noifscsbinbranch	-13.14
▁tx	-13.1405
pla	-13.1405
koi	-13.1409
hhh	-13.1411
▁cus	-13.142
▁bind	-13.1422
six	-13.1424
▁fame	-13.1426
▁chan	-13.1428
ech	-13.1432
hala	-13.1438
karan	-13.1447
▁chart	-13.1448
algmailcom	-13.1449
▁shahi	-13.1452
▁insure	-13.1454
▁mrp	-13.1456
tanu	-13.1458
▁upr	-13.1459
▁dab	-13.1466
uba	-13.1467
yber	-13.1472
him	-13.1481
ended	-13.1481
▁ifcs	-13.1482
emi	-13.1492
rha	-13.1495
▁capt	-13.1499
▁updat	-13.15
nb	-13.1501
ngal	-13.1501
▁rr	-13.1506
ux	-13.1508
het	-13.151
enga	-13.1514
▁deliverd	-13.1519
▁aak	-13.152
▁anger	-13.1522
▁nut	-13.1527
garam	-13.1528
lash	-13.153
kali	-13.1534
▁sup	-13.1534
▁ooo	-13.1544
▁boh	-13.1544
bhag	-13.1545
▁dikhaye	-13.1547
friend	-13.1555
preet	-13.1557
▁avu	-13.1557
hera	-13.1562
xy	-13.1563
▁kharida	-13.1564
▁osk	-13.1569
anydesk	-13.1579
▁kye	-13.158
▁igi	-13.1584
tab	-13.1585
▁former	-13.1591
▁terror	-13.1591
boi	-13.1593
siya	-13.1594
▁sikaya	-13.16
lesh	-13.1601
▁ect	-13.1603
▁cy	-13.1603
▁msge	-13.1606
▁reverting	-13.1607
▁freelanc	-13.1609
▁entertain	-13.161
blackmail	-13.1611
bari	-13.1613
harish	-13.1614
saw	-13.1616
vid	-13.1616
dbs	-13.1619
claim	-13.1621
▁addgaav	-13.1627
▁intension	-13.1627
▁deserve	-13.1628
▁balckmail	-13.1628
▁belief	-13.163
ipuram	-13.163
ome	-13.1631
▁manpreet	-13.1632
rel	-13.1634
youtube	-13.1635
▁madhur	-13.1635
orbita	-13.1636
house	-13.1636
mf	-13.1636
▁pose	-13.1637
▁sultan	-13.1641
below	-13.1641
redirect	-13.1641
sumit	-13.1643
family	-13.1644
▁parth	-13.1644
right	-13.1646
vikash	-13.1646
▁convience	-13.1646
idbi	-13.1648
most	-13.1648
duga	-13.1648
▁kushwah	-13.1649
▁motivat	-13.1651
▁polite	-13.1653
ariya	-13.1654
▁dana	-13.1654
govt	-13.1654
▁chota	-13.1655
jaingmailcom	-13.1658
kalyan	-13.1658
file	-13.1658
▁brij	-13.1659
▁sandip	-13.166
▁chestunnam	-13.166
▁wtsap	-13.166
ince	-13.166
▁codekkbk	-13.166
jangidgmailcom	-13.166
▁borivali	-13.166
▁ifscbkid	-13.166
▁sourabh	-13.166
▁vacancies	-13.166
▁npci	-13.166
▁vundi	-13.166
▁administrative	-13.166
▁barbbrgbxx	-13.166
▁aggreement	-13.166
▁allianz	-13.166
▁nimisha	-13.166
▁burden	-13.166
▁karnivihar	-13.166
▁patiala	-13.166
▁ignorance	-13.166
▁soumya	-13.166
▁administration	-13.1661
▁fifth	-13.1661
▁helipad	-13.1661
▁pehchan	-13.1661
▁varification	-13.1661
▁quiet	-13.1661
▁faroud	-13.1661
▁mismatch	-13.1661
▁absurd	-13.1661
▁hariyana	-13.1661
▁vineet	-13.1661
▁intagram	-13.1661
▁shiksha	-13.1661
▁invesment	-13.1661
▁murlipura	-13.1661
▁meesage	-13.1661
▁ragister	-13.1661
▁httpsbibank	-13.1661
▁juice	-13.1661
▁siddiqui	-13.1661
▁finace	-13.1661
▁ballia	-13.1661
▁eighteen	-13.1661
▁neccesa	-13.1661
▁nobanksbi	-13.1661
▁supriya	-13.1661
▁coupen	-13.1661
▁veena	-13.1661
▁shalini	-13.1661
▁alliance	-13.1661
▁hsrp	-13.1661
▁indiranagar	-13.1661
▁agrement	-13.1661
▁plzzzz	-13.1661
▁harkat	-13.1661
▁shailendra	-13.1661
▁padenge	-13.1661
▁acconut	-13.1662
▁pipe	-13.1662
▁abnormal	-13.1662
▁hogyi	-13.1662
▁painting	-13.1662
▁harpal	-13.1662
▁realtive	-13.1662
▁marrige	-13.1662
▁kardunga	-13.1663
▁jn	-13.1663
▁ankush	-13.1663
▁christian	-13.1663
▁wallte	-13.1663
▁shrma	-13.1663
▁dbssin	-13.1663
▁handset	-13.1663
▁ifscubin	-13.1663
▁astrologer	-13.1663
wakar	-13.1664
▁harrashment	-13.1664
▁sharad	-13.1664
▁jrur	-13.1664
▁participants	-13.1664
nnot	-13.1664
▁dipressed	-13.1664
▁dakshin	-13.1664
▁distchuru	-13.1664
bihar	-13.1664
mang	-13.1664
▁freak	-13.1665
▁balki	-13.1665
▁neetu	-13.1665
▁surender	-13.1666
▁wapp	-13.1666
▁animal	-13.1666
ganist	-13.1666
▁temper	-13.1667
▁dehli	-13.1667
▁babita	-13.1667
▁mansarovar	-13.1667
▁basant	-13.1668
▁jiya	-13.1668
▁geniune	-13.1668
▁nikaliye	-13.1668
▁demad	-13.1668
▁smoothly	-13.1668
▁asleep	-13.1669
▁realted	-13.1669
▁phoen	-13.1669
▁stick	-13.1669
▁sync	-13.1669
ruogh	-13.167
▁chesukoman	-13.167
▁whereabout	-13.167
▁bhagat	-13.1671
▁unhold	-13.1671
▁chahata	-13.1671
▁surch	-13.1671
▁anoop	-13.1671
▁srinivasa	-13.1672
▁registred	-13.1672
▁gogle	-13.1672
▁dip	-13.1672
▁utube	-13.1673
▁emotions	-13.1673
wp	-13.1673
▁sathish	-13.1673
▁krwaye	-13.1673
▁requisit	-13.1674
▁aahet	-13.1675
▁elements	-13.1676
▁hdb	-13.1676
▁baap	-13.1676
▁pushpa	-13.1677
▁metal	-13.1677
▁slicepay	-13.1677
▁heights	-13.1678
▁apana	-13.1678
afte	-13.1679
stone	-13.1679
▁nishant	-13.1679
▁greedy	-13.168
▁restrictions	-13.168
▁provid	-13.168
▁recvd	-13.1681
▁grade	-13.1681
dara	-13.1682
▁grup	-13.1683
▁jimedar	-13.1684
▁satyam	-13.1686
▁bab	-13.1687
ping	-13.1688
rx	-13.1688
▁advt	-13.1689
▁aspas	-13.1689
▁jiye	-13.1691
▁krega	-13.1691
▁ela	-13.1692
ense	-13.1692
▁vilas	-13.1699
▁aryan	-13.1701
▁panday	-13.1701
▁khara	-13.1702
▁pament	-13.1703
▁vimal	-13.1703
▁sangitle	-13.1705
▁bypass	-13.1705
▁fried	-13.1707
watch	-13.171
akshi	-13.1711
ariki	-13.1711
deals	-13.1713
▁cheted	-13.1714
▁ramu	-13.1714
▁stores	-13.1715
▁rewa	-13.1716
▁bottles	-13.1717
▁rite	-13.1718
▁cheet	-13.1718
▁plants	-13.172
▁cord	-13.172
▁nurs	-13.172
▁roam	-13.1722
▁aayenge	-13.1723
▁bagru	-13.1726
▁attest	-13.1729
▁abh	-13.1732
▁lenders	-13.1732
▁hosted	-13.174
▁milege	-13.174
▁pampina	-13.1741
▁sarma	-13.1741
tried	-13.1742
▁chesukon	-13.1742
▁veri	-13.1744
▁tanisha	-13.1747
knc	-13.175
▁reson	-13.1751
▁tanvi	-13.1761
▁requ	-13.1761
▁moble	-13.1765
▁rupi	-13.1769
▁recod	-13.1772
▁aslam	-13.1775
▁abuseing	-13.1778
▁socked	-13.1779
lagmailcom	-13.178
▁chances	-13.1783
▁sonal	-13.1787
▁snapshots	-13.179
lease	-13.1791
▁subhas	-13.1796
▁btt	-13.1799
▁hq	-13.1799
▁massager	-13.1799
▁flats	-13.1801
▁safely	-13.1803
ntine	-13.1808
rding	-13.1808
best	-13.1813
▁karayi	-13.1814
rb	-13.1814
shin	-13.1821
kwik	-13.1823
▁chle	-13.1823
▁cheyagane	-13.1824
▁dah	-13.1827
dani	-13.1828
▁whatsp	-13.1829
charan	-13.1833
part	-13.1834
akulam	-13.184
▁jhansi	-13.1841
▁superi	-13.1844
▁consultants	-13.1844
avi	-13.1849
yg	-13.1851
▁charu	-13.1853
▁el	-13.1855
▁moneyso	-13.1861
▁nohdfc	-13.1865
need	-13.1865
bale	-13.1867
▁aaps	-13.1867
nit	-13.1869
apl	-13.1876
bol	-13.188
▁jank	-13.1882
▁shaming	-13.1884
qx	-13.189
junk	-13.1891
▁magi	-13.1892
rty	-13.19
tation	-13.1903
ndra	-13.1904
ously	-13.1904
station	-13.1909
▁cheyyal	-13.1911
ection	-13.1913
drive	-13.1915
▁humiliate	-13.1919
vaste	-13.1921
▁paylater	-13.1923
▁kori	-13.1925
▁dg	-13.1926
▁bhir	-13.1926
▁detailes	-13.1931
kf	-13.1932
▁vibha	-13.1934
sale	-13.1938
cont	-13.1941
▁hyd	-13.1946
hdfcbank	-13.1946
ugh	-13.1947
▁hj	-13.1954
▁ussi	-13.1954
▁trai	-13.1955
▁choos	-13.1956
surveymonkeycomr	-13.1956
vise	-13.1964
sales	-13.1964
▁bhanj	-13.1965
▁rasi	-13.1968
▁amir	-13.1969
▁rkhi	-13.197
▁becu	-13.1973
▁dads	-13.1973
▁pyr	-13.1976
▁corp	-13.1982
qw	-13.1982
town	-13.1985
fw	-13.1987
▁khula	-13.1989
▁sas	-13.199
▁bulay	-13.2
nag	-13.2003
sari	-13.2015
rain	-13.2016
▁torch	-13.2018
▁keht	-13.2025
gj	-13.2025
▁dawnlo	-13.2025
▁talent	-13.2027
▁katta	-13.2027
▁alleg	-13.2029
mnagar	-13.2035
acom	-13.2036
housewife	-13.2036
▁compline	-13.2039
▁thu	-13.2039
deal	-13.2042
garding	-13.2043
▁offices	-13.2044
▁shakt	-13.2047
chain	-13.2049
▁keys	-13.2049
▁kanta	-13.2051
ssing	-13.2051
billdesk	-13.2052
▁responds	-13.2053
▁guna	-13.2061
▁jari	-13.2067
del	-13.2068
▁stor	-13.207
▁misrepresent	-13.2075
hragmailcom	-13.2079
▁pap	-13.2087
▁bhel	-13.2091
▁sets	-13.2092
▁adults	-13.2098
owing	-13.21
▁namak	-13.21
rma	-13.2104
▁mock	-13.2107
▁displays	-13.211
▁shouldnt	-13.2114
maan	-13.2119
rse	-13.212
▁uta	-13.2123
odar	-13.2127
▁suc	-13.2127
▁poi	-13.2131
▁finan	-13.2135
▁jaal	-13.2136
tran	-13.2137
isne	-13.2138
liable	-13.2139
kla	-13.214
▁sarita	-13.2143
▁cancell	-13.2143
▁thre	-13.2146
forma	-13.2159
hl	-13.2159
ecom	-13.216
lty	-13.2164
▁wt	-13.2164
▁agreeing	-13.2172
▁neet	-13.2173
aab	-13.2181
▁seri	-13.2184
▁vansh	-13.2185
▁jaru	-13.2188
▁maja	-13.219
▁mug	-13.2194
▁badd	-13.2194
▁freely	-13.2201
▁gan	-13.2202
▁rev	-13.2206
▁navigat	-13.2209
register	-13.2219
lata	-13.2222
▁hk	-13.2222
bhim	-13.2226
tta	-13.2228
gana	-13.223
ajaf	-13.2239
sw	-13.2241
charge	-13.2244
cin	-13.2245
▁refun	-13.2248
▁wood	-13.225
algaon	-13.2253
▁kush	-13.2254
lapur	-13.2255
started	-13.2258
eck	-13.2264
▁gyaa	-13.2268
▁skti	-13.2272
fab	-13.2273
▁wel	-13.2275
▁withraw	-13.2281
section	-13.2281
egift	-13.2283
▁pushpend	-13.2284
▁ella	-13.2287
anti	-13.2288
▁bharath	-13.2296
tained	-13.2298
ankit	-13.23
dle	-13.2306
lwa	-13.2307
▁unlog	-13.2316
tax	-13.2319
▁ips	-13.232
cat	-13.2326
door	-13.2327
bw	-13.2332
▁relise	-13.2332
photo	-13.2335
▁problm	-13.2341
inf	-13.2341
flu	-13.2343
ndy	-13.2348
alag	-13.2359
sss	-13.2372
▁parag	-13.2373
holder	-13.2376
▁patan	-13.2377
asi	-13.2377
▁addvill	-13.2378
duckdnsorg	-13.2378
cap	-13.238
▁krli	-13.2381
▁rahu	-13.2382
▁padma	-13.2387
▁manipulat	-13.239
ganesh	-13.239
▁patta	-13.2391
kil	-13.2392
▁lick	-13.2392
▁scree	-13.2394
▁messsage	-13.2398
▁dhana	-13.2399
▁remark	-13.24
▁guideline	-13.24
pen	-13.2404
ttle	-13.2405
tric	-13.2407
loom	-13.2409
▁bargain	-13.2409
greetings	-13.241
argopro	-13.241
yogesh	-13.241
ooooooooooooooo	-13.2413
rupeeking	-13.2413
known	-13.2415
rta	-13.2416
▁america	-13.2416
▁kidnap	-13.2418
▁rice	-13.2418
▁upadhyay	-13.2419
▁shrivastav	-13.242
hx	-13.242
▁smooth	-13.2421
▁lakhan	-13.2421
chasing	-13.2422
kuldeep	-13.2422
▁solicit	-13.2422
▁regar	-13.2424
provide	-13.2425
lodge	-13.2425
nx	-13.2425
▁memebers	-13.2426
pleasehelpme	-13.2427
plzz	-13.2427
▁gamil	-13.2428
▁bewakoof	-13.2428
▁whtsap	-13.2429
▁abhimanyu	-13.243
▁brainwash	-13.243
▁clarity	-13.243
▁deceiving	-13.243
▁facebok	-13.243
▁fecbook	-13.243
▁graduation	-13.243
▁indonesia	-13.243
▁instrument	-13.243
▁pssanganer	-13.243
▁rohtak	-13.243
▁suiside	-13.243
▁surveillance	-13.243
▁unanswered	-13.243
▁unfortunatl	-13.243
▁flirt	-13.243
▁furthur	-13.243
▁goutam	-13.243
▁terrified	-13.243
▁nainital	-13.243
▁rescue	-13.243
▁ridiculous	-13.243
▁steady	-13.243
▁cutomer	-13.243
▁lajpat	-13.243
▁recharj	-13.243
▁tranacation	-13.243
▁communities	-13.243
▁essential	-13.243
▁guntur	-13.243
▁paytym	-13.243
▁patience	-13.243
▁hemraj	-13.243
▁kanwar	-13.243
▁vatika	-13.243
▁andhrapradesh	-13.243
▁reacharge	-13.243
▁irfan	-13.243
▁venom	-13.243
▁avvadam	-13.243
aolcom	-13.243
▁bhattacharya	-13.243
▁disdausa	-13.243
▁agricultur	-13.243
▁surbhi	-13.243
▁arushi	-13.243
▁duwara	-13.243
▁fraudelent	-13.243
▁langauge	-13.243
▁compuls	-13.243
▁kurnool	-13.2431
▁naushad	-13.2431
▁goons	-13.2431
▁chamber	-13.2431
▁confusion	-13.2431
▁mischievous	-13.2431
▁champa	-13.2431
morgan	-13.2431
▁booth	-13.2431
▁ghatna	-13.2431
▁continious	-13.2431
▁faizan	-13.2431
▁whatssap	-13.2432
▁ifscutib	-13.2432
▁presaan	-13.2432
▁arabia	-13.2432
▁emptie	-13.2432
▁mpocket	-13.2432
▁prachi	-13.2432
▁meeru	-13.2432
▁conatct	-13.2433
▁krwakr	-13.2433
▁arif	-13.2433
▁commodity	-13.2433
▁sharif	-13.2433
▁mirzapur	-13.2433
hotmailcom	-13.2434
▁namaskar	-13.2434
▁psmahesh	-13.2434
▁ramasamy	-13.2434
▁sitapur	-13.2434
▁shell	-13.2434
▁handyloan	-13.2435
▁oobicyclecom	-13.2435
▁dombiv	-13.2435
▁pytam	-13.2435
▁lodhi	-13.2436
▁johnson	-13.2436
▁avuthund	-13.2436
blocked	-13.2436
▁venture	-13.2436
▁deatails	-13.2436
▁unpaid	-13.2437
▁rupeefund	-13.2437
▁aproved	-13.2437
▁bishnoi	-13.2437
▁hopeless	-13.2437
▁mumber	-13.2438
▁taiya	-13.2438
▁lord	-13.2438
▁swearing	-13.2438
▁sucessfully	-13.2438
given	-13.2438
▁mohmmad	-13.2439
▁smith	-13.2439
▁nathi	-13.2439
saction	-13.2439
▁earth	-13.2439
▁tempo	-13.2439
▁rong	-13.244
etra	-13.244
saste	-13.244
▁passcode	-13.2441
▁gayatri	-13.2442
▁shrivastava	-13.2442
▁breed	-13.2443
▁registrar	-13.2443
▁contineous	-13.2443
▁krvaya	-13.2443
▁loop	-13.2445
▁persent	-13.2445
▁immedietly	-13.2445
▁deeg	-13.2445
▁outfit	-13.2445
▁publication	-13.2446
▁norms	-13.2446
▁stalked	-13.2446
▁nogoogle	-13.2446
▁netherlands	-13.2446
▁iruku	-13.2446
▁parihar	-13.2447
▁pehla	-13.2447
▁verge	-13.2448
▁trasnfer	-13.2448
▁compay	-13.2449
▁tense	-13.2449
kheda	-13.245
▁pratham	-13.2452
barmer	-13.2453
▁blockage	-13.2453
nageshwar	-13.2454
▁lapsed	-13.2454
▁kovil	-13.2455
▁bhagwat	-13.2456
▁gulsha	-13.2459
▁vasai	-13.2459
madam	-13.2459
source	-13.2459
▁padi	-13.2459
▁machinery	-13.246
▁dnd	-13.246
▁javed	-13.2461
▁battmi	-13.2461
▁tay	-13.2462
▁attitude	-13.2463
▁vashi	-13.2464
▁vaid	-13.2464
sharing	-13.2465
tb	-13.2465
▁ramdev	-13.2468
▁menu	-13.2468
anukon	-13.2469
ashram	-13.2469
▁reels	-13.2471
nad	-13.2471
pulsar	-13.2473
▁mujay	-13.2473
jjj	-13.2474
▁pados	-13.2477
▁jena	-13.2478
▁dum	-13.2478
▁janakar	-13.2479
complainants	-13.248
zu	-13.248
▁janak	-13.248
▁risky	-13.2481
▁instances	-13.2481
▁khatik	-13.2482
▁karuga	-13.2483
▁forwad	-13.2485
▁recheck	-13.2485
peeth	-13.2485
▁aeronpay	-13.2485
jm	-13.2487
▁mia	-13.2488
▁jye	-13.249
▁financials	-13.2492
▁zale	-13.2492
▁secur	-13.2494
fsl	-13.2495
▁vish	-13.2497
▁submited	-13.2497
▁lyi	-13.2498
▁recha	-13.2502
sil	-13.2503
bairawa	-13.2503
dip	-13.2504
▁mahit	-13.2504
abbusing	-13.2505
rav	-13.2508
maha	-13.251
▁bord	-13.251
slice	-13.2511
▁parsel	-13.2512
▁fiancee	-13.2513
uttar	-13.2514
▁sudd	-13.2515
▁mx	-13.2515
▁ret	-13.2516
▁krana	-13.2517
load	-13.2519
rchent	-13.2521
▁goud	-13.2523
▁harrest	-13.2525
andeep	-13.2527
airways	-13.2529
▁jaun	-13.253
▁whstap	-13.2533
▁velan	-13.2534
match	-13.2534
nchi	-13.2534
meet	-13.2534
▁wipe	-13.2537
▁rela	-13.254
▁pah	-13.254
▁loved	-13.254
kkam	-13.2545
▁lis	-13.2546
lne	-13.255
▁nyay	-13.2553
doli	-13.2553
pimpri	-13.2559
xt	-13.256
ough	-13.2563
▁william	-13.2565
ush	-13.2566
▁kroge	-13.2573
mlm	-13.2575
▁portel	-13.2576
▁kothi	-13.2578
cv	-13.2578
amask	-13.258
educated	-13.2583
▁facke	-13.2583
ability	-13.2583
▁soc	-13.2584
ches	-13.2584
sandeep	-13.2585
▁stone	-13.2589
▁oman	-13.2591
dkar	-13.2593
▁aws	-13.2594
▁imposters	-13.2598
▁mhin	-13.2602
▁customar	-13.2604
▁handler	-13.2605
▁umar	-13.2605
▁gap	-13.2606
▁funding	-13.2607
mare	-13.2608
dental	-13.2611
somnath	-13.2611
▁chu	-13.2612
▁afte	-13.2616
▁rita	-13.2618
▁crm	-13.2618
▁ecomm	-13.2619
sho	-13.2622
▁ul	-13.2623
▁treaten	-13.2627
▁karate	-13.263
▁margin	-13.2631
▁tanu	-13.2634
▁ches	-13.2637
▁cid	-13.2642
ttpsmfacebookcom	-13.2643
mnet	-13.2643
xp	-13.2644
aage	-13.2645
▁happended	-13.2646
fected	-13.2648
▁promoter	-13.2653
gor	-13.2655
boy	-13.2655
rase	-13.2657
▁kalwar	-13.2663
▁qui	-13.2664
jgmailcom	-13.2664
▁fraudstar	-13.2666
▁transfr	-13.2666
roy	-13.2666
▁pahl	-13.2667
premier	-13.2667
maxlife	-13.2667
yk	-13.267
▁zee	-13.2671
mia	-13.2675
▁gum	-13.2677
oti	-13.2679
uge	-13.2679
earbuds	-13.2681
▁jeya	-13.2681
▁seduc	-13.2681
tp	-13.2682
▁cah	-13.2683
uma	-13.2687
pf	-13.269
▁whtasap	-13.2692
▁scott	-13.2693
thane	-13.2694
▁succesful	-13.2695
▁fans	-13.2696
▁eth	-13.27
▁giv	-13.2701
▁gv	-13.2701
unda	-13.2703
▁bron	-13.2703
▁pilla	-13.2705
▁suck	-13.271
enty	-13.2711
▁chk	-13.2711
▁addb	-13.2714
yer	-13.2714
▁debi	-13.2716
anna	-13.2717
▁jar	-13.2717
▁leag	-13.2718
▁ekta	-13.2718
▁shir	-13.2719
sfar	-13.272
▁agins	-13.2721
ducing	-13.2725
▁showcase	-13.2729
make	-13.2733
▁sahib	-13.2735
ute	-13.2736
adit	-13.2736
▁opc	-13.2739
index	-13.274
adh	-13.2744
ached	-13.2744
lice	-13.2746
ntly	-13.2746
asan	-13.2747
ria	-13.2748
▁chs	-13.2749
oul	-13.2749
▁nathu	-13.2749
▁teams	-13.2749
▁dep	-13.275
▁daale	-13.2751
pee	-13.2752
▁unload	-13.2753
▁chandi	-13.2756
▁jawa	-13.2756
paisa	-13.2757
deepak	-13.2758
▁sabi	-13.2759
▁tesuko	-13.2761
▁sindh	-13.2762
jjd	-13.2771
▁revise	-13.2774
▁ene	-13.2779
▁bankindia	-13.2785
yee	-13.2809
rahe	-13.281
▁mujje	-13.2815
appa	-13.2815
▁kot	-13.2816
graphy	-13.2817
▁ipos	-13.2817
▁replac	-13.282
mont	-13.2823
▁repa	-13.2827
▁females	-13.2827
▁appli	-13.2828
▁films	-13.2832
zx	-13.2833
nanga	-13.2834
▁maharaj	-13.285
riyar	-13.2853
accelsharecom	-13.2854
▁dhanipay	-13.2856
▁compete	-13.2856
▁apan	-13.2858
▁ria	-13.2863
pad	-13.2863
anta	-13.2865
▁purposely	-13.2865
ssion	-13.2867
▁dura	-13.2868
rose	-13.2876
tw	-13.2877
▁pressurise	-13.2878
▁dima	-13.2878
uis	-13.2882
hul	-13.2882
▁surviv	-13.2884
rudra	-13.2891
mid	-13.2893
▁fass	-13.29
pak	-13.29
▁deactive	-13.29
nani	-13.2903
▁issi	-13.2904
▁moni	-13.2906
▁vibe	-13.2907
▁baya	-13.291
▁padta	-13.291
▁lkh	-13.2915
▁sag	-13.2918
aint	-13.2918
▁chitt	-13.2919
▁cg	-13.2921
▁expos	-13.2921
▁pach	-13.2922
▁rip	-13.2924
▁chuna	-13.2928
▁bahana	-13.2928
▁whic	-13.2933
etna	-13.2937
vs	-13.2942
▁chey	-13.2943
maram	-13.2944
ict	-13.2955
nent	-13.2957
▁achieve	-13.296
khe	-13.2961
▁shin	-13.2961
dos	-13.2962
alo	-13.2964
▁bolra	-13.2965
fide	-13.2969
jfj	-13.2975
tamu	-13.2976
▁eli	-13.2978
▁ballo	-13.2978
wade	-13.2979
▁jami	-13.2982
▁thora	-13.2983
▁cheppad	-13.2992
▁avva	-13.2992
tika	-13.2992
▁sooner	-13.2994
ails	-13.2994
▁upiupi	-13.2994
bating	-13.2997
▁banwan	-13.3001
▁eyes	-13.3001
umko	-13.3002
▁lav	-13.3008
slr	-13.301
▁math	-13.3012
▁venkata	-13.3013
▁lagake	-13.3014
▁provocat	-13.3022
mae	-13.3026
gali	-13.3029
gonoisecom	-13.3037
xk	-13.3037
▁tav	-13.3037
thala	-13.3039
rmal	-13.304
▁relet	-13.304
iagmailcom	-13.3061
rti	-13.3063
▁bhavan	-13.3064
apane	-13.3064
▁mng	-13.3065
▁dhor	-13.3066
▁haresh	-13.3068
▁mou	-13.3069
eta	-13.3075
▁muk	-13.3075
▁aggr	-13.3083
ml	-13.3084
bat	-13.309
kay	-13.3094
▁jor	-13.3095
▁pac	-13.3099
▁amnt	-13.3104
kku	-13.3108
indexphp	-13.311
eel	-13.3112
uit	-13.3116
▁pala	-13.3117
▁doonga	-13.3119
pooja	-13.312
▁vaal	-13.3121
▁amrit	-13.3122
▁practic	-13.3128
ick	-13.3129
base	-13.313
▁jaiye	-13.3131
▁sums	-13.3132
lian	-13.3137
▁httpsyoutube	-13.3138
▁lagwan	-13.3139
ule	-13.314
etr	-13.3141
avesh	-13.3142
▁pun	-13.3142
▁ris	-13.3142
▁jit	-13.3145
▁clo	-13.3145
yar	-13.3146
tlife	-13.3146
▁bera	-13.315
▁milan	-13.3152
kishor	-13.3158
vane	-13.3158
verse	-13.316
▁nin	-13.3161
ives	-13.3162
▁dhd	-13.3163
saini	-13.3165
gourav	-13.3169
▁troubles	-13.317
mount	-13.3172
halli	-13.3184
ssb	-13.3185
▁proses	-13.319
▁masturbati	-13.3193
ility	-13.3193
▁ld	-13.3195
sl	-13.3196
high	-13.3197
bhk	-13.3199
ntu	-13.3202
rage	-13.3208
registration	-13.3211
▁harasse	-13.3213
soft	-13.3216
▁depress	-13.3218
verage	-13.3219
crime	-13.322
antly	-13.322
sonigmailcom	-13.3222
mother	-13.3224
▁origin	-13.3225
tage	-13.3225
▁compromis	-13.3226
▁ideas	-13.3227
iously	-13.3227
mudra	-13.3227
▁likin	-13.3228
isk	-13.3228
custom	-13.3231
laya	-13.3232
ime	-13.3232
bil	-13.3233
▁micr	-13.3233
▁psba	-13.3234
pri	-13.3234
bhilwara	-13.3234
▁coach	-13.3235
▁passenger	-13.3235
▁kuma	-13.3236
mahesh	-13.3237
▁iii	-13.3238
▁saki	-13.3239
bareli	-13.3241
cybercrimegovin	-13.3243
jawahar	-13.3243
▁apprehend	-13.3243
▁whatshap	-13.3243
▁dukh	-13.3243
bangalore	-13.3244
otherwise	-13.3244
gaurav	-13.3244
giving	-13.3244
disc	-13.3244
▁nager	-13.3245
lucky	-13.3247
▁compensate	-13.3247
ingmailcom	-13.3248
▁apologize	-13.3248
▁irritate	-13.3249
▁execute	-13.325
awatgmailcom	-13.3253
pping	-13.3254
▁continuos	-13.3255
▁willl	-13.3256
didnt	-13.3257
consumercompl	-13.326
▁phool	-13.3261
▁oobicycle	-13.3262
▁whattsap	-13.3262
vvvv	-13.3263
▁chanakya	-13.3263
▁supplement	-13.3263
▁amravati	-13.3263
▁bhugtan	-13.3263
▁capacity	-13.3263
▁currencies	-13.3263
▁dhanyvad	-13.3263
▁ethereum	-13.3263
▁ghabra	-13.3263
▁iganagt	-13.3263
▁jurisdiction	-13.3263
▁kharagpur	-13.3263
▁psbhiwadi	-13.3263
▁rastogi	-13.3263
▁satisfy	-13.3263
▁separatist	-13.3263
▁stashfin	-13.3263
▁superintendent	-13.3263
▁tiffin	-13.3263
▁trivandrum	-13.3263
▁consequent	-13.3263
▁irresponsible	-13.3263
▁ixigo	-13.3263
▁swapnil	-13.3263
▁thieves	-13.3263
patellgmailcom	-13.3263
▁gentlem	-13.3263
▁imediately	-13.3263
▁nakli	-13.3263
▁robert	-13.3263
▁waghmare	-13.3263
▁apllication	-13.3263
▁azamgarh	-13.3263
▁dikkat	-13.3263
▁majumdar	-13.3263
▁misconduct	-13.3263
▁shimla	-13.3263
▁dilshad	-13.3263
▁courage	-13.3263
▁jagmohan	-13.3263
▁purohit	-13.3263
▁dhanyabad	-13.3263
▁reception	-13.3263
▁istagram	-13.3263
▁merchandise	-13.3263
▁conferm	-13.3263
▁disnagor	-13.3263
▁debnath	-13.3263
▁gunjan	-13.3263
▁presence	-13.3263
▁ombudsman	-13.3263
▁basket	-13.3263
▁santhosh	-13.3263
▁unacademy	-13.3263
▁creep	-13.3263
▁pllz	-13.3263
▁kanota	-13.3263
▁mahipal	-13.3263
▁agaist	-13.3263
▁sujeet	-13.3264
▁vermi	-13.3264
▁embarrassment	-13.3264
▁kijie	-13.3264
▁murli	-13.3264
ecious	-13.3264
▁infromation	-13.3264
▁liability	-13.3264
▁arrival	-13.3264
▁mri	-13.3264
▁clarified	-13.3264
▁cheez	-13.3264
▁chakraborty	-13.3264
▁sarthak	-13.3264
▁ifsccnrb	-13.3264
▁administrator	-13.3264
▁burari	-13.3264
▁trnsaction	-13.3264
plex	-13.3264
▁torchar	-13.3264
▁moncy	-13.3265
▁galary	-13.3265
▁lakshman	-13.3265
▁fiber	-13.3265
▁mysore	-13.3265
▁negotiat	-13.3265
▁ulti	-13.3265
▁webside	-13.3265
▁subrat	-13.3265
▁brit	-13.3266
pleasehelpmesir	-13.3266
▁khurana	-13.3266
▁rizwan	-13.3266
▁amozon	-13.3266
▁bhaskar	-13.3266
▁plastic	-13.3266
▁guddu	-13.3266
▁kigiye	-13.3266
▁namdev	-13.3266
▁chalega	-13.3266
▁clint	-13.3266
▁khuch	-13.3266
▁hosur	-13.3266
▁salim	-13.3266
▁unfriend	-13.3266
▁kharch	-13.3266
▁aqua	-13.3266
▁compen	-13.3266
▁adjustment	-13.3266
▁bul	-13.3267
▁muhana	-13.3267
▁fruadster	-13.3267
▁chavan	-13.3267
▁comany	-13.3267
▁madarchod	-13.3267
▁mahato	-13.3267
▁accpet	-13.3267
▁hkmalls	-13.3267
▁dcp	-13.3268
▁dlf	-13.3268
▁garima	-13.3268
▁hogye	-13.3268
▁unofficial	-13.3268
▁mingle	-13.3269
▁beniwal	-13.3269
▁signup	-13.3269
▁shoud	-13.3269
▁entertainment	-13.327
▁distracted	-13.327
▁bolraha	-13.3271
▁bhilwada	-13.3271
▁spred	-13.3271
▁elite	-13.3271
▁invad	-13.3271
bairwagmailcom	-13.3271
▁viswas	-13.3271
▁chopra	-13.3271
▁mangwaya	-13.3272
▁refresh	-13.3272
▁accusations	-13.3273
jpeg	-13.3273
▁compliance	-13.3273
▁dilya	-13.3273
▁mahb	-13.3274
▁paspin	-13.3274
▁llp	-13.3274
▁alka	-13.3275
▁dijiyega	-13.3275
east	-13.3275
▁ananya	-13.3276
▁doosr	-13.3276
▁glad	-13.3276
▁servise	-13.3276
▁prashanth	-13.3276
▁ccv	-13.3277
▁gonda	-13.3277
▁jayanti	-13.3277
▁ramakrishna	-13.3278
▁degana	-13.3278
▁mot	-13.3278
▁detils	-13.3278
▁sitaram	-13.3279
▁tarf	-13.3279
▁analysis	-13.3279
▁amtrs	-13.3279
▁magri	-13.328
▁kalra	-13.328
▁vijayakumar	-13.328
reen	-13.328
▁intimat	-13.3281
▁seedha	-13.3282
▁majhi	-13.3282
▁froudster	-13.3282
▁programme	-13.3282
▁blackmailling	-13.3282
▁pedith	-13.3283
▁herrasment	-13.3283
▁collegues	-13.3284
▁dav	-13.3284
sexual	-13.3284
▁khoti	-13.3285
▁pandra	-13.3285
▁rare	-13.3285
▁sawant	-13.3286
▁onboarding	-13.3286
▁rudra	-13.3286
▁fist	-13.3287
▁applecom	-13.3287
▁khand	-13.3287
▁nirmala	-13.3288
▁plat	-13.3288
buja	-13.3289
▁drama	-13.3289
zone	-13.3289
▁himalayan	-13.329
tunnaru	-13.329
▁naina	-13.3291
shika	-13.3291
▁rajou	-13.3294
▁mafia	-13.3294
▁sabut	-13.3295
▁aft	-13.3296
▁bellow	-13.3296
▁adil	-13.3296
▁chalate	-13.3296
▁bhiwani	-13.3296
▁maze	-13.3299
▁trike	-13.33
▁beliefs	-13.33
▁expense	-13.33
▁adiga	-13.3302
vivah	-13.3302
▁molt	-13.3302
lakh	-13.3304
▁samj	-13.3306
▁btata	-13.3306
▁jaay	-13.3308
▁deman	-13.3308
▁icicibank	-13.3309
pack	-13.3311
▁healthcare	-13.3311
sap	-13.3312
▁rahte	-13.3312
kiosk	-13.3312
▁frends	-13.3313
▁pak	-13.3314
▁aunty	-13.3314
bz	-13.3315
▁recov	-13.3316
▁chander	-13.3316
annu	-13.3319
▁nikalna	-13.332
▁bataiye	-13.3325
▁sahayat	-13.3328
▁munna	-13.3328
▁jpg	-13.3329
▁litre	-13.3329
▁imitat	-13.333
mahavir	-13.3332
▁onlin	-13.3332
▁pahil	-13.3334
djd	-13.3337
▁himmat	-13.3337
▁browse	-13.3339
based	-13.3339
▁aru	-13.3341
▁bsc	-13.3344
▁cooking	-13.3345
▁chap	-13.3347
▁seats	-13.3348
▁features	-13.3349
▁siya	-13.3349
core	-13.335
▁refe	-13.3353
cunt	-13.3357
▁ubs	-13.3359
▁rahy	-13.3359
▁shay	-13.336
▁tru	-13.3361
army	-13.3361
went	-13.3361
▁linkhttps	-13.3362
▁barbb	-13.3366
pher	-13.3366
▁giftcard	-13.3366
apped	-13.337
▁guessed	-13.337
▁pyar	-13.3377
▁karye	-13.3378
▁scenes	-13.3382
▁viva	-13.3383
▁compan	-13.3384
▁hlo	-13.3389
▁kv	-13.3389
gcyb	-13.339
▁tranj	-13.3391
eral	-13.3393
▁sumer	-13.3395
▁observe	-13.3395
▁chang	-13.3396
ordered	-13.3396
mishra	-13.3396
hri	-13.3402
iah	-13.3402
▁distributors	-13.3403
gfashionsalescom	-13.3405
▁prefer	-13.3406
▁chauk	-13.341
gov	-13.341
▁instagar	-13.3412
naught	-13.3417
▁palak	-13.3423
mana	-13.3424
▁dow	-13.3428
▁borrower	-13.3428
▁soch	-13.3433
abusing	-13.3436
three	-13.3436
orm	-13.3437
▁payable	-13.3438
▁chestam	-13.344
ital	-13.3442
▁tools	-13.3444
[...]
