<unk>	0
<s>	0
</s>	0
▁a	-0
▁t	-1
▁i	-2
he	-3
▁m	-4
▁s	-5
in	-6
on	-7
re	-8
▁p	-9
▁c	-10
ha	-11
▁f	-12
nd	-13
er	-14
▁the	-15
▁b	-16
ou	-17
nt	-18
ed	-19
▁n	-20
▁w	-21
an	-22
ing	-23
▁d	-24
▁to	-25
al	-26
▁and	-27
ar	-28
or	-29
om	-30
es	-31
▁k	-32
ti	-33
as	-34
le	-35
hi	-36
▁in	-37
▁l	-38
▁fr	-39
▁re	-40
ount	-41
▁my	-42
▁o	-43
▁ac	-44
▁g	-45
▁me	-46
ay	-47
me	-48
at	-49
▁ha	-50
it	-51
ve	-52
ai	-53
ac	-54
one	-55
hat	-56
▁no	-57
all	-58
▁e	-59
▁r	-60
▁he	-61
▁of	-62
▁u	-63
st	-64
ll	-65
▁am	-66
▁is	-67
tion	-68
ce	-69
▁acc	-70
▁on	-71
ir	-72
▁de	-73
de	-74
ke	-75
pp	-76
▁account	-77
his	-78
▁se	-79
au	-80
▁h	-81
▁tr	-82
▁that	-83
um	-84
vi	-85
▁for	-86
▁call	-87
▁amount	-88
▁as	-89
▁they	-90
▁from	-91
▁ban	-92
▁y	-93
ber	-94
se	-95
ver	-96
ail	-97
aud	-98
▁th	-99
▁fraud	-100
▁lo	-101
▁this	-102
▁bank	-103
ut	-104
▁it	-105
▁pay	-106
ot	-107
ur	-108
ol	-109
en	-110
▁num	-111
ch	-112
ain	-113
▁number	-114
▁are	-115
ro	-116
ge	-117
▁an	-118
ter	-119
▁was	-120
▁be	-121
sa	-122
▁st	-123
▁j	-124
ly	-125
ad	-126
▁su	-127
ake	-128
ic	-129
ase	-130
ow	-131
pl	-132
▁com	-133
am	-134
▁mo	-135
▁you	-136
▁ne	-137
lease	-138
▁but	-139
ked	-140
▁ph	-141
ard	-142
ame	-143
oney	-144
▁please	-145
gh	-146
▁money	-147
▁have	-148
▁di	-149
▁so	-150
ate	-151
▁vi	-152
▁af	-153
red	-154
▁not	-155
ted	-156
▁or	-157
▁con	-158
ans	-159
▁after	-160
▁rs	-161
ith	-162
pe	-163
ers	-164
▁with	-165
ment	-166
ome	-167
▁trans	-168
▁app	-169
▁at	-170
▁fe	-171
bi	-172
▁phone	-173
▁we	-174
▁us	-175
tal	-176
▁li	-177
aid	-178
▁ti	-179
fu	-180
▁pro	-181
▁some	-182
▁then	-183
▁do	-184
▁total	-185
▁card	-186
is	-187
king	-188
ven	-189
erson	-190
▁up	-191
ation	-192
ough	-193
oo	-194
out	-195
▁sir	-196
▁ab	-197
▁by	-198
▁person	-199
mail	-200
ri	-201
ld	-202
very	-203
ne	-204
ia	-205
▁got	-206
▁id	-207
plain	-208
▁hel	-209
ill	-210
▁take	-211
her	-212
tac	-213
▁ki	-214
▁ru	-215
ya	-216
ess	-217
▁al	-218
th	-219
ack	-220
ind	-221
▁sha	-222
ust	-223
▁complain	-224
▁kar	-225
▁name	-226
▁time	-227
▁even	-228
▁any	-229
▁det	-230
▁help	-231
▁area	-232
▁what	-233
▁thr	-234
▁detail	-235
et	-236
iv	-237
▁through	-238
▁pl	-239
▁ag	-240
▁will	-241
▁rece	-242
qu	-243
ant	-244
▁ad	-245
▁all	-246
est	-247
ag	-248
li	-249
op	-250
si	-251
▁loan	-252
▁hi	-253
lo	-254
▁mes	-255
▁pe	-256
▁send	-257
▁whi	-258
han	-259
▁transac	-260
▁action	-261
▁transaction	-262
ine	-263
▁messa	-264
▁mobi	-265
▁par	-266
▁inv	-267
▁contac	-268
any	-269
▁more	-270
ye	-271
▁mobile	-272
ap	-273
sapp	-274
▁asked	-275
now	-276
ct	-277
ci	-278
ally	-279
▁ot	-280
▁details	-281
▁sh	-282
▁ke	-283
▁un	-284
▁hai	-285
ble	-286
▁them	-287
▁which	-288
▁complaint	-289
so	-290
ary	-291
▁wor	-292
▁one	-293
▁whatsapp	-294
▁payment	-295
os	-296
▁has	-297
▁said	-298
▁receiv	-299
▁again	-300
ink	-301
cess	-302
ace	-303
▁such	-304
orm	-305
thing	-306
cked	-307
and	-308
ue	-309
us	-310
ance	-311
▁also	-312
▁off	-313
are	-314
▁get	-315
ak	-316
▁whe	-317
redit	-318
full	-319
▁vide	-320
▁its	-321
▁him	-322
▁acti	-323
▁she	-324
bit	-325
ss	-326
▁their	-327
▁his	-328
ta	-329
▁credit	-330
▁contact	-331
▁mall	-332
▁received	-333
un	-334
▁upi	-335
▁sc	-336
▁did	-337
har	-338
fe	-339
▁every	-340
ore	-341
▁te	-342
te	-343
cti	-344
line	-345
▁debit	-346
▁email	-347
▁requ	-348
▁im	-349
fer	-350
▁like	-351
ated	-352
form	-353
▁told	-354
▁sa	-355
ctim	-356
▁online	-357
▁video	-358
▁out	-359
▁few	-360
▁comp	-361
ra	-362
▁v	-363
▁victim	-364
ok	-365
▁ra	-366
▁mu	-367
▁rupe	-368
old	-369
ass	-370
▁che	-371
ties	-372
▁day	-373
ie	-374
cted	-375
▁if	-376
▁int	-377
▁ind	-378
med	-379
▁know	-380
▁now	-381
cessary	-382
▁gi	-383
▁activi	-384
▁add	-385
▁activities	-386
ck	-387
▁gar	-388
▁link	-389
▁message	-390
▁goo	-391
▁necessary	-392
▁hold	-393
▁star	-394
ook	-395
ting	-396
▁reg	-397
▁there	-398
▁res	-399
▁ma	-400
▁your	-401
▁shame	-402
▁shamefull	-403
▁co	-404
▁garia	-405
▁ka	-406
▁ex	-407
▁many	-408
▁inform	-409
▁had	-410
ous	-411
lic	-412
▁can	-413
▁tri	-414
▁called	-415
▁inst	-416
ms	-417
▁refu	-418
gle	-419
▁frie	-420
▁pm	-421
▁ye	-422
▁friend	-423
our	-424
▁paid	-425
plo	-426
ast	-427
▁when	-428
▁face	-429
▁everything	-430
hed	-431
ite	-432
▁sent	-433
olve	-434
▁doing	-435
▁iss	-436
verse	-437
▁rep	-438
▁request	-439
ople	-440
▁people	-441
aya	-442
▁google	-443
ght	-444
▁date	-445
pur	-446
▁thre	-447
▁kr	-448
book	-449
▁ko	-450
▁bl	-451
ice	-452
▁been	-453
▁wh	-454
▁sbi	-455
▁fir	-456
▁about	-457
na	-458
ash	-459
▁asking	-460
▁back	-461
ide	-462
▁reverse	-463
▁very	-464
▁cust	-465
com	-466
▁le	-467
▁fi	-468
▁issue	-469
ul	-470
▁plac	-471
▁custom	-472
▁mere	-473
▁transfer	-474
ight	-475
▁refund	-476
▁need	-477
▁want	-478
▁ap	-479
▁rec	-480
▁blo	-481
▁facebook	-482
▁how	-483
nti	-484
ont	-485
▁black	-486
▁jo	-487
▁tha	-488
cial	-489
▁em	-490
▁otp	-491
▁park	-492
ord	-493
▁started	-494
▁other	-495
▁involve	-496
▁places	-497
▁sub	-498
ily	-499
no	-500
▁threat	-501
▁gariahat	-502
ist	-503
▁say	-504
be	-505
▁ser	-506
ram	-507
ress	-508
▁pass	-509
▁using	-510
▁last	-511
ang	-512
▁fake	-513
▁customer	-514
ong	-515
ges	-516
▁india	-517
ange	-518
ity	-519
ould	-520
▁mer	-521
bs	-522
▁care	-523
tm	-524
▁mat	-525
▁against	-526
ici	-527
▁kind	-528
art	-529
▁blackmail	-530
▁har	-531
tu	-532
▁code	-533
▁dont	-534
▁muj	-535
▁rupees	-536
sc	-537
ort	-538
az	-539
▁who	-540
▁same	-541
ened	-542
day	-543
▁than	-544
▁bec	-545
▁came	-546
▁na	-547
der	-548
ata	-549
▁ar	-550
▁tried	-551
ars	-552
▁her	-553
▁paytm	-554
▁happ	-555
▁aur	-556
ause	-557
sh	-558
▁days	-559
▁company	-560
ning	-561
age	-562
▁kiya	-563
ound	-564
▁just	-565
▁because	-566
▁po	-567
▁pr	-568
▁emplo	-569
▁phot	-570
▁ba	-571
df	-572
od	-573
▁lost	-574
rop	-575
▁webs	-576
▁employe	-577
ove	-578
▁matter	-579
▁kindly	-580
▁hu	-581
▁op	-582
▁ho	-583
▁debited	-584
▁give	-585
▁fin	-586
ep	-587
▁calling	-588
▁work	-589
▁years	-590
▁employee	-591
▁evening	-592
▁jan	-593
dent	-594
▁website	-595
ening	-596
▁wom	-597
▁main	-598
tr	-599
▁bol	-600
▁address	-601
▁pic	-602
▁proble	-603
ntion	-604
▁regard	-605
▁show	-606
dfc	-607
▁women	-608
du	-609
pay	-610
▁bu	-611
▁working	-612
la	-613
▁blackmailing	-614
▁pai	-615
▁messages	-616
▁unk	-617
▁pin	-618
kur	-619
▁above	-620
edu	-621
▁provi	-622
hro	-623
▁our	-624
▁sus	-625
▁thing	-626
▁saha	-627
olis	-628
▁per	-629
gun	-630
▁hdfc	-631
vpur	-632
other	-633
▁attac	-634
gunge	-635
ropolis	-636
▁subhro	-637
▁made	-638
▁pan	-639
ft	-640
▁log	-641
▁fam	-642
fere	-643
▁done	-644
ious	-645
agram	-646
▁br	-647
▁first	-648
▁go	-649
▁inves	-650
▁blocked	-651
reen	-652
side	-653
▁mujhe	-654
▁family	-655
▁med	-656
▁state	-657
ged	-658
▁friends	-659
ater	-660
▁threatening	-661
▁ret	-662
▁were	-663
▁screen	-664
ying	-665
▁saying	-666
urn	-667
▁qu	-668
▁fix	-669
ab	-670
more	-671
sed	-672
▁instagram	-673
▁clic	-674
▁upd	-675
pt	-676
ating	-677
▁anymore	-678
ane	-679
xt	-680
ale	-681
▁dedu	-682
▁es	-683
▁applic	-684
pon	-685
▁make	-686
umar	-687
ka	-688
▁cy	-689
▁suspe	-690
▁order	-691
▁social	-692
▁someone	-693
▁though	-694
cha	-695
id	-696
▁job	-697
▁see	-698
▁ek	-699
ty	-700
▁unknow	-701
▁later	-702
ction	-703
▁aap	-704
nce	-705
▁today	-706
▁these	-707
ga	-708
▁cyber	-709
▁application	-710
ana	-711
▁tw	-712
▁liye	-713
▁respe	-714
▁numbers	-715
▁noti	-716
▁prof	-717
▁post	-718
own	-719
▁ins	-720
▁accounts	-721
cu	-722
▁run	-723
▁respon	-724
▁pri	-725
ved	-726
ud	-727
▁getting	-728
opp	-729
▁media	-730
able	-731
▁calls	-732
▁right	-733
▁str	-734
▁utr	-735
▁unknown	-736
▁office	-737
▁mention	-738
▁didnt	-739
▁chan	-740
▁stange	-741
ree	-742
▁dep	-743
▁pol	-744
ban	-745
▁sending	-746
▁dist	-747
▁regist	-748
duct	-749
▁bad	-750
▁cash	-751
▁return	-752
▁ga	-753
▁bhi	-754
▁happened	-755
▁only	-756
▁mail	-757
▁ifsc	-758
medi	-759
▁tra	-760
fic	-761
▁dear	-762
▁inter	-763
▁dal	-764
▁kumar	-765
ately	-766
ps	-767
▁frou	-768
▁attached	-769
▁karta	-770
▁information	-771
mes	-772
▁sms	-773
raw	-774
▁feb	-775
▁wr	-776
▁down	-777
▁nam	-778
▁product	-779
hind	-780
▁el	-781
▁where	-782
▁given	-783
word	-784
lete	-785
iti	-786
▁pur	-787
hal	-788
ered	-789
aa	-790
▁problems	-791
ali	-792
▁cl	-793
▁taken	-794
▁servi	-795
▁maine	-796
▁locked	-797
▁cant	-798
▁fell	-799
▁immedi	-800
▁apart	-801
▁recei	-802
▁mon	-803
▁password	-804
▁thank	-805
▁respected	-806
▁dif	-807
▁ms	-808
▁gu	-809
cent	-810
ada	-811
ady	-812
▁isnt	-813
ras	-814
tig	-815
▁sal	-816
▁hacked	-817
mit	-818
▁contacted	-819
il	-820
mailcom	-821
▁into	-822
▁ask	-823
▁mera	-824
▁dem	-825
▁man	-826
▁investig	-827
▁think	-828
▁transactions	-829
▁photo	-830
ised	-831
ital	-832
mall	-833
▁withd	-834
▁scam	-835
urance	-836
▁finan	-837
ful	-838
▁near	-839
▁ps	-840
lt	-841
▁aaya	-842
▁bar	-843
▁things	-844
▁differe	-845
lent	-846
▁suspect	-847
▁different	-848
▁deducted	-849
▁insurance	-850
▁share	-851
▁look	-852
▁took	-853
▁ent	-854
▁times	-855
▁mentioned	-856
▁lod	-857
▁deli	-858
▁cri	-859
▁stop	-860
▁night	-861
▁withdraw	-862
▁sever	-863
ched	-864
▁suchna	-865
ile	-866
▁without	-867
ath	-868
im	-869
▁several	-870
▁paise	-871
▁demand	-872
ving	-873
hing	-874
▁financial	-875
by	-876
▁offici	-877
▁fo	-878
▁bola	-879
▁diya	-880
▁msg	-881
gin	-882
▁downlo	-883
tt	-884
▁shared	-885
▁another	-886
ular	-887
▁rd	-888
▁uplo	-889
ince	-890
ki	-891
my	-892
ulent	-893
ara	-894
▁contacts	-895
▁update	-896
hone	-897
opping	-898
▁pos	-899
fully	-900
▁serious	-901
▁receive	-902
▁met	-903
▁list	-904
▁tell	-905
fore	-906
▁char	-907
pped	-908
▁track	-909
▁supp	-910
ba	-911
▁giv	-912
▁banking	-913
kar	-914
▁download	-915
▁shopping	-916
▁investigate	-917
▁nhi	-918
ward	-919
▁inno	-920
▁upload	-921
▁invest	-922
▁regarding	-923
▁min	-924
sible	-925
▁hack	-926
▁record	-927
▁inc	-928
▁fraudulent	-929
anch	-930
shot	-931
oni	-932
par	-933
▁immediately	-934
▁hos	-935
▁innocent	-936
▁chat	-937
irc	-938
▁use	-939
▁since	-940
▁circ	-941
ma	-942
▁rel	-943
▁due	-944
▁mis	-945
▁hind	-946
hari	-947
▁hosp	-948
▁froud	-949
lf	-950
▁phonepe	-951
▁running	-952
▁month	-953
▁hospital	-954
▁sp	-955
▁police	-956
▁process	-957
▁gr	-958
▁suf	-959
▁lodge	-960
▁long	-961
yc	-962
▁thought	-963
▁screenshot	-964
▁cre	-965
▁tre	-966
aye	-967
▁eas	-968
▁gave	-969
mber	-970
▁kol	-971
▁ah	-972
▁nahi	-973
▁two	-974
▁force	-975
▁trace	-976
▁giving	-977
esk	-978
▁gir	-979
▁block	-980
▁felt	-981
▁branch	-982
lly	-983
mm	-984
▁ive	-985
▁cha	-986
▁trapped	-987
▁reli	-988
apur	-989
▁behal	-990
gmailcom	-991
▁pre	-992
of	-993
hou	-994
▁dir	-995
▁nu	-996
▁behind	-997
▁soon	-998
▁liya	-999
▁dirty	-1000
fication	-1001
▁suffer	-1002
ko	-1003
ments	-1004
▁afterno	-1005
▁flo	-1006
▁afternoon	-1007
ach	-1008
bd	-1009
▁fee	-1010
dr	-1011
kata	-1012
ture	-1013
▁bat	-1014
▁sear	-1015
▁bag	-1016
▁fem	-1017
▁floor	-1018
▁kolkata	-1019
▁used	-1020
▁usne	-1021
ded	-1022
▁raha	-1023
▁shar	-1024
▁dat	-1025
▁female	-1026
reet	-1027
▁suffering	-1028
▁plz	-1029
▁something	-1030
je	-1031
▁cont	-1032
▁service	-1033
ru	-1034
pu	-1035
▁sing	-1036
lan	-1037
▁girl	-1038
▁hari	-1039
▁ahmed	-1040
▁anand	-1041
ild	-1042
▁wrong	-1043
▁fraudst	-1044
▁strange	-1045
tive	-1046
▁crime	-1047
oka	-1048
▁reliance	-1049
▁build	-1050
▁would	-1051
▁before	-1052
▁loo	-1053
▁ear	-1054
▁next	-1055
▁found	-1056
▁kas	-1057
▁transferred	-1058
▁bans	-1059
▁whats	-1060
▁easily	-1061
net	-1062
▁aad	-1063
▁maid	-1064
▁outside	-1065
▁profile	-1066
▁atm	-1067
ni	-1068
▁jis	-1069
▁ic	-1070
tl	-1071
▁trying	-1072
park	-1073
▁building	-1074
▁well	-1075
▁jada	-1076
▁thakur	-1077
▁forcefully	-1078
▁forum	-1079
▁bes	-1080
life	-1081
llow	-1082
▁sti	-1083
▁iz	-1084
▁mob	-1085
rasad	-1086
▁tal	-1087
▁rash	-1088
bind	-1089
▁trend	-1090
ustan	-1091
sie	-1092
▁ch	-1093
▁hindustan	-1094
▁lake	-1095
▁while	-1096
esh	-1097
▁anir	-1098
▁officially	-1099
▁beside	-1100
▁docu	-1101
▁datta	-1102
ik	-1103
▁follow	-1104
▁ruby	-1105
▁rabind	-1106
anade	-1107
devpur	-1108
anex	-1109
street	-1110
▁possible	-1111
▁tolly	-1112
▁anirban	-1113
▁jadavpur	-1114
▁bbd	-1115
▁sec	-1116
pukur	-1117
▁elgin	-1118
▁maidan	-1119
tlake	-1120
▁espl	-1121
▁izaz	-1122
housie	-1123
▁bally	-1124
▁kasba	-1125
▁quest	-1126
▁circus	-1127
▁triang	-1128
▁hdfclife	-1129
▁saltlake	-1130
▁dalhousie	-1131
droni	-1132
behari	-1133
▁amlan	-1134
anexide	-1135
▁acropolis	-1136
▁anandapur	-1137
▁bansdroni	-1138
▁esplanade	-1139
▁ballygunge	-1140
▁haridevpur	-1141
▁metropolis	-1142
▁parkstreet	-1143
▁rashbehari	-1144
▁tollygunge	-1145
▁triangular	-1146
rasadanexide	-1147
▁thakurpukur	-1148
▁acropolismall	-1149
▁hindustanpark	-1150
co	-1151
▁conf	-1152
▁en	-1153
sion	-1154
▁mai	-1155
azar	-1156
ry	-1157
▁joka	-1158
ts	-1159
▁depos	-1160
▁rupee	-1161
▁free	-1162
▁still	-1163
▁photos	-1164
▁caller	-1165
▁kyc	-1166
▁q	-1167
ure	-1168
▁too	-1169
▁mar	-1170
▁named	-1171
▁complete	-1172
den	-1173
▁nude	-1174
▁check	-1175
▁picture	-1176
ited	-1177
▁inci	-1178
▁sell	-1179
mer	-1180
nder	-1181
▁meri	-1182
ig	-1183
bazar	-1184
▁could	-1185
akher	-1186
▁citi	-1187
▁army	-1188
akherbazar	-1189
ise	-1190
▁ol	-1191
▁por	-1192
▁htt	-1193
oup	-1194
gal	-1195
▁behalas	-1196
▁never	-1197
▁ta	-1198
▁harass	-1199
▁dis	-1200
▁site	-1201
▁internet	-1202
▁via	-1203
▁olx	-1204
▁wal	-1205
ding	-1206
▁incident	-1207
▁priv	-1208
▁gya	-1209
ready	-1210
led	-1211
▁new	-1212
▁informed	-1213
▁icici	-1214
ja	-1215
▁provide	-1216
new	-1217
▁reco	-1218
▁repay	-1219
▁ver	-1220
▁install	-1221
▁personal	-1222
▁may	-1223
▁bo	-1224
▁already	-1225
low	-1226
▁ur	-1227
▁dele	-1228
▁purcha	-1229
▁support	-1230
▁going	-1231
tiv	-1232
▁should	-1233
▁adv	-1234
▁rha	-1235
way	-1236
ent	-1237
▁singh	-1238
▁col	-1239
▁rela	-1240
ish	-1241
ww	-1242
ones	-1243
▁mene	-1244
ds	-1245
▁abus	-1246
zen	-1247
▁ro	-1248
▁del	-1249
▁appro	-1250
up	-1251
rest	-1252
▁qr	-1253
▁sud	-1254
▁confir	-1255
uch	-1256
▁mor	-1257
▁sw	-1258
▁bhe	-1259
▁click	-1260
let	-1261
mis	-1262
▁norm	-1263
agar	-1264
▁yes	-1265
▁contin	-1266
▁uske	-1267
▁fraudster	-1268
▁pls	-1269
▁clicked	-1270
ese	-1271
ion	-1272
▁ref	-1273
▁thi	-1274
▁activ	-1275
▁aadhar	-1276
▁wo	-1277
▁knew	-1278
▁fu	-1279
ned	-1280
ose	-1281
▁ment	-1282
▁regards	-1283
ather	-1284
▁indi	-1285
▁group	-1286
ther	-1287
▁sudden	-1288
▁credited	-1289
▁normal	-1290
act	-1291
▁ident	-1292
▁atte	-1293
▁citizen	-1294
▁cheated	-1295
▁karne	-1296
▁identity	-1297
▁much	-1298
▁cut	-1299
bl	-1300
▁play	-1301
▁part	-1302
▁data	-1303
▁repor	-1304
▁aut	-1305
▁mas	-1306
▁av	-1307
▁rem	-1308
▁mr	-1309
▁open	-1310
▁pun	-1311
▁bal	-1312
▁scan	-1313
▁provided	-1314
▁gaya	-1315
▁opened	-1316
▁here	-1317
▁gl	-1318
▁suddenly	-1319
apt	-1320
▁bus	-1321
▁around	-1322
wa	-1323
▁disc	-1324
▁lak	-1325
ket	-1326
▁usu	-1327
▁clai	-1328
▁anything	-1329
▁inr	-1330
▁start	-1331
gent	-1332
▁find	-1333
▁wasnt	-1334
gi	-1335
▁rahe	-1336
ested	-1337
▁trust	-1338
▁under	-1339
gg	-1340
▁father	-1341
▁team	-1342
▁seemed	-1343
▁guy	-1344
ict	-1345
▁baad	-1346
▁showing	-1347
self	-1348
io	-1349
xx	-1350
ces	-1351
▁advance	-1352
▁inte	-1353
▁abu	-1354
▁sex	-1355
▁youtu	-1356
▁report	-1357
bin	-1358
▁reci	-1359
▁requested	-1360
cept	-1361
ji	-1362
oda	-1363
▁offer	-1364
▁veri	-1365
▁frauds	-1366
▁delivery	-1367
▁ty	-1368
▁hard	-1369
▁problem	-1370
tter	-1371
▁case	-1372
▁months	-1373
▁happen	-1374
▁wallet	-1375
▁keep	-1376
▁fur	-1377
▁over	-1378
aptop	-1379
▁laptop	-1380
▁being	-1381
ew	-1382
▁koi	-1383
ced	-1384
▁deposit	-1385
▁suchn	-1386
ari	-1387
▁user	-1388
▁member	-1389
akr	-1390
ational	-1391
▁youtube	-1392
▁documents	-1393
shi	-1394
sing	-1395
▁paisa	-1396
▁form	-1397
▁reply	-1398
leg	-1399
eved	-1400
zed	-1401
ani	-1402
▁delhi	-1403
▁pu	-1404
▁theft	-1405
▁wi	-1406
▁sure	-1407
▁registered	-1408
▁vo	-1409
ical	-1410
▁page	-1411
▁pa	-1412
▁net	-1413
▁related	-1414
▁receiving	-1415
▁further	-1416
▁lakh	-1417
▁till	-1418
▁actu	-1419
▁incl	-1420
▁indian	-1421
▁saw	-1422
▁file	-1423
▁aa	-1424
▁loss	-1425
▁sol	-1426
▁search	-1427
cting	-1428
▁kuch	-1429
ason	-1430
▁abusing	-1431
▁hum	-1432
omised	-1433
▁change	-1434
▁hua	-1435
▁sharma	-1436
desk	-1437
▁notification	-1438
▁tech	-1439
▁rupay	-1440
pm	-1441
atch	-1442
▁wa	-1443
di	-1444
▁reason	-1445
cri	-1446
▁https	-1447
ze	-1448
▁imp	-1449
uary	-1450
▁imag	-1451
tives	-1452
▁buy	-1453
▁dhan	-1454
em	-1455
per	-1456
▁includ	-1457
▁step	-1458
▁plat	-1459
▁tran	-1460
▁clo	-1461
▁sath	-1462
▁january	-1463
ution	-1464
▁put	-1465
▁confirm	-1466
rect	-1467
aaaa	-1468
▁response	-1469
▁sim	-1470
▁come	-1471
▁morning	-1472
itt	-1473
▁portal	-1474
code	-1475
▁air	-1476
▁jai	-1477
akrta	-1478
sand	-1479
▁proof	-1480
▁colle	-1481
gn	-1482
▁suc	-1483
dered	-1484
verti	-1485
▁anydesk	-1486
▁enter	-1487
terday	-1488
▁making	-1489
▁really	-1490
▁limit	-1491
tic	-1492
▁boo	-1493
▁platform	-1494
mission	-1495
▁ordered	-1496
▁nd	-1497
▁suchnakrta	-1498
▁ja	-1499
▁continu	-1500
▁yesterday	-1501
▁vir	-1502
▁helpl	-1503
▁massa	-1504
▁ter	-1505
hir	-1506
the	-1507
▁apps	-1508
▁balance	-1509
not	-1510
adam	-1511
▁dou	-1512
phone	-1513
▁home	-1514
▁access	-1515
ple	-1516
cy	-1517
▁baroda	-1518
▁looking	-1519
▁des	-1520
▁within	-1521
▁actually	-1522
▁interest	-1523
sent	-1524
▁feel	-1525
▁text	-1526
▁pese	-1527
ading	-1528
af	-1529
ks	-1530
▁frauder	-1531
▁thats	-1532
▁recover	-1533
nected	-1534
ined	-1535
ono	-1536
▁aya	-1537
oth	-1538
zing	-1539
▁including	-1540
▁relatives	-1541
▁adverti	-1542
▁videos	-1543
▁cou	-1544
▁techn	-1545
▁rai	-1546
▁amaz	-1547
▁login	-1548
▁created	-1549
▁nagar	-1550
iness	-1551
ham	-1552
ied	-1553
cing	-1554
▁dec	-1555
▁raj	-1556
▁fill	-1557
▁station	-1558
▁complainant	-1559
▁thou	-1560
▁nothing	-1561
sement	-1562
▁mental	-1563
▁reported	-1564
▁dhani	-1565
▁needful	-1566
sive	-1567
pr	-1568
lip	-1569
▁activity	-1570
cking	-1571
ond	-1572
▁amazon	-1573
▁cau	-1574
nding	-1575
▁bt	-1576
ference	-1577
▁demanding	-1578
▁thousand	-1579
ssss	-1580
ived	-1581
▁din	-1582
antly	-1583
▁ago	-1584
▁solution	-1585
rs	-1586
▁wife	-1587
▁krta	-1588
▁telling	-1589
view	-1590
▁bit	-1591
▁paying	-1592
▁checked	-1593
▁purchase	-1594
▁rechar	-1595
▁late	-1596
▁cance	-1597
▁table	-1598
▁store	-1599
▁bi	-1600
itch	-1601
legram	-1602
ori	-1603
▁rhe	-1604
▁business	-1605
▁minut	-1606
▁logged	-1607
▁bas	-1608
▁gye	-1609
▁lang	-1610
▁karke	-1611
▁telegram	-1612
▁spe	-1613
▁having	-1614
▁invested	-1615
▁changed	-1616
▁entered	-1617
▁spam	-1618
ways	-1619
▁gen	-1620
▁reference	-1621
▁able	-1622
uring	-1623
▁ed	-1624
▁real	-1625
sation	-1626
ware	-1627
ously	-1628
▁langu	-1629
▁taking	-1630
▁thanks	-1631
▁repayment	-1632
▁completely	-1633
▁pincode	-1634
▁unhone	-1635
▁ce	-1636
▁delete	-1637
▁responding	-1638
▁went	-1639
▁beli	-1640
▁kaha	-1641
▁kat	-1642
▁left	-1643
▁national	-1644
tc	-1645
▁viral	-1646
▁submit	-1647
alth	-1648
▁try	-1649
▁fb	-1650
▁loc	-1651
mmmm	-1652
ration	-1653
▁bataya	-1654
▁timepm	-1655
acy	-1656
jab	-1657
ging	-1658
▁desk	-1659
▁stating	-1660
▁pictures	-1661
▁always	-1662
▁stu	-1663
▁tablet	-1664
▁appli	-1665
ote	-1666
▁rent	-1667
mi	-1668
▁kare	-1669
▁ax	-1670
▁mist	-1671
lti	-1672
▁lag	-1673
ever	-1674
▁words	-1675
▁shi	-1676
▁explain	-1677
▁massage	-1678
▁book	-1679
▁recorded	-1680
▁type	-1681
▁sit	-1682
▁relation	-1683
gar	-1684
ner	-1685
▁withdrawal	-1686
▁bhej	-1687
▁hence	-1688
▁those	-1689
▁gmail	-1690
▁side	-1691
war	-1692
wise	-1693
▁ign	-1694
▁avail	-1695
▁tou	-1696
▁applied	-1697
▁private	-1698
▁const	-1699
▁health	-1700
▁claim	-1701
hh	-1702
▁once	-1703
▁register	-1704
ident	-1705
▁dail	-1706
▁sam	-1707
ired	-1708
▁naam	-1709
▁posted	-1710
▁below	-1711
kha	-1712
▁kis	-1713
▁initi	-1714
▁kot	-1715
▁charges	-1716
▁la	-1717
▁yono	-1718
▁hour	-1719
▁multi	-1720
▁cards	-1721
hut	-1722
▁mess	-1723
▁ram	-1724
▁daily	-1725
▁members	-1726
▁etc	-1727
▁du	-1728
▁pare	-1729
▁otherwise	-1730
▁hon	-1731
▁krne	-1732
▁why	-1733
▁unke	-1734
▁payments	-1735
▁accident	-1736
▁language	-1737
▁fact	-1738
▁agent	-1739
▁advertisement	-1740
▁harassing	-1741
▁ever	-1742
▁phir	-1743
▁gst	-1744
▁recharge	-1745
▁affe	-1746
▁knowing	-1747
▁recording	-1748
min	-1749
▁searched	-1750
ng	-1751
▁both	-1752
res	-1753
▁sum	-1754
▁profit	-1755
▁cle	-1756
▁mistake	-1757
▁ahe	-1758
▁else	-1759
▁life	-1760
▁multiple	-1761
▁privacy	-1762
▁hell	-1763
▁investment	-1764
▁baat	-1765
▁abusive	-1766
▁technical	-1767
▁sab	-1768
▁deleting	-1769
▁conte	-1770
▁tic	-1771
▁attention	-1772
▁ow	-1773
▁offic	-1774
▁relationshi	-1775
ory	-1776
▁def	-1777
▁sirm	-1778
▁reali	-1779
▁punjab	-1780
ledge	-1781
▁charge	-1782
▁constantly	-1783
▁conver	-1784
▁car	-1785
▁registration	-1786
▁mang	-1787
cially	-1788
als	-1789
▁manag	-1790
ala	-1791
▁afterward	-1792
▁place	-1793
▁recieved	-1794
▁looked	-1795
ntil	-1796
▁var	-1797
td	-1798
ittle	-1799
leep	-1800
chant	-1801
▁jaye	-1802
▁until	-1803
▁cop	-1804
▁fre	-1805
▁descri	-1806
▁vis	-1807
▁way	-1808
▁little	-1809
▁nik	-1810
▁full	-1811
▁image	-1812
▁wanted	-1813
iting	-1814
▁ignore	-1815
off	-1816
ick	-1817
▁helpless	-1818
hu	-1819
fying	-1820
▁axis	-1821
▁three	-1822
▁sleep	-1823
merce	-1824
rier	-1825
▁bha	-1826
▁compr	-1827
va	-1828
▁tas	-1829
▁end	-1830
▁muje	-1831
▁hand	-1832
▁depart	-1833
▁legal	-1834
▁union	-1835
▁others	-1836
rated	-1837
tered	-1838
urity	-1839
▁adhar	-1840
▁uploaded	-1841
dh	-1842
▁merchant	-1843
row	-1844
▁viol	-1845
▁inside	-1846
▁second	-1847
▁minutes	-1848
▁department	-1849
▁sbin	-1850
▁lin	-1851
▁ones	-1852
▁maybe	-1853
▁ve	-1854
▁rup	-1855
▁hello	-1856
▁compromised	-1857
ouse	-1858
▁refused	-1859
fy	-1860
vt	-1861
▁frust	-1862
▁ham	-1863
▁deleted	-1864
▁discon	-1865
▁accidentally	-1866
▁talk	-1867
▁services	-1868
anj	-1869
▁direct	-1870
▁inf	-1871
▁wat	-1872
▁flip	-1873
▁cell	-1874
▁sour	-1875
nel	-1876
▁cor	-1877
▁distr	-1878
▁except	-1879
▁persons	-1880
aru	-1881
▁verification	-1882
▁gpay	-1883
▁ahead	-1884
▁deni	-1885
▁sharing	-1886
cer	-1887
kart	-1888
▁son	-1889
▁slow	-1890
▁usually	-1891
orised	-1892
▁frustrated	-1893
▁available	-1894
▁lot	-1895
ird	-1896
▁says	-1897
▁kha	-1898
▁sist	-1899
▁usual	-1900
▁proper	-1901
port	-1902
▁frod	-1903
▁acting	-1904
▁shat	-1905
▁hacker	-1906
▁officer	-1907
▁ans	-1908
▁pas	-1909
▁terri	-1910
▁theres	-1911
▁booking	-1912
▁someones	-1913
jiye	-1914
▁cent	-1915
▁worst	-1916
▁does	-1917
▁z	-1918
▁rupey	-1919
we	-1920
ody	-1921
▁sexu	-1922
▁cheating	-1923
▁dece	-1924
▁idt	-1925
▁sur	-1926
▁brother	-1927
▁affecting	-1928
▁weird	-1929
▁statement	-1930
▁comm	-1931
▁courier	-1932
▁anx	-1933
wal	-1934
▁sto	-1935
ee	-1936
jj	-1937
su	-1938
▁glitch	-1939
▁honest	-1940
▁careful	-1941
▁jaipur	-1942
▁shattered	-1943
ndra	-1944
▁sho	-1945
▁violated	-1946
▁confirmation	-1947
▁espe	-1948
▁conside	-1949
▁considered	-1950
please	-1951
▁especially	-1952
▁dham	-1953
▁fees	-1954
▁strict	-1955
▁security	-1956
▁diye	-1957
bank	-1958
urre	-1959
▁touched	-1960
▁oneoff	-1961
▁freezing	-1962
▁terrifying	-1963
ek	-1964
▁ya	-1965
▁denied	-1966
▁ext	-1967
▁finance	-1968
▁transction	-1969
▁phonepay	-1970
ached	-1971
opped	-1972
tious	-1973
▁letter	-1974
▁noticing	-1975
▁anxious	-1976
▁source	-1977
▁acce	-1978
▁hadnt	-1979
▁kisi	-1980
▁glance	-1981
kk	-1982
▁mi	-1983
▁threatened	-1984
▁cautious	-1985
▁exp	-1986
▁shop	-1987
▁describe	-1988
▁honestly	-1989
ntly	-1990
▁house	-1991
wer	-1992
▁ltd	-1993
▁talking	-1994
ony	-1995
▁comple	-1996
around	-1997
▁imagined	-1998
▁slower	-1999
▁gift	-2000
▁clear	-2001
▁recived	-2002
eve	-2003
▁everyones	-2004
▁relationships	-2005
cher	-2006
▁runaround	-2007
▁tak	-2008
▁harras	-2009
▁himself	-2010
▁tot	-2011
bil	-2012
ared	-2013
used	-2014
▁jab	-2015
▁apply	-2016
▁kok	-2017
▁manager	-2018
▁ji	-2019
▁imperson	-2020
after	-2021
▁prom	-2022
▁stopped	-2023
▁flipkart	-2024
▁apne	-2025
▁linked	-2026
▁underst	-2027
▁following	-2028
▁nor	-2029
▁screenshots	-2030
▁lu	-2031
▁option	-2032
▁mad	-2033
ither	-2034
▁auth	-2035
▁save	-2036
▁district	-2037
▁exe	-2038
▁btaya	-2039
▁products	-2040
▁sy	-2041
▁fac	-2042
hana	-2043
▁bhar	-2044
▁si	-2045
▁kept	-2046
▁refunded	-2047
▁koko	-2048
vered	-2049
▁demanded	-2050
bai	-2051
▁mine	-2052
▁added	-2053
▁processing	-2054
adi	-2055
▁tex	-2056
▁bill	-2057
▁accept	-2058
▁sister	-2059
▁continuously	-2060
▁earli	-2061
▁copy	-2062
kh	-2063
▁uska	-2064
bt	-2065
▁repl	-2066
▁document	-2067
▁gaye	-2068
▁accep	-2069
▁knowledge	-2070
gr	-2071
▁big	-2072
▁gand	-2073
▁polic	-2074
▁however	-2075
▁content	-2076
▁agree	-2077
tel	-2078
▁old	-2079
▁ecom	-2080
▁during	-2081
▁showed	-2082
▁student	-2083
▁unable	-2084
▁requesting	-2085
▁good	-2086
but	-2087
▁policy	-2088
▁downloaded	-2089
debit	-2090
▁totally	-2091
▁chi	-2092
▁delivered	-2093
▁swit	-2094
▁febru	-2095
▁solve	-2096
int	-2097
▁devi	-2098
▁mother	-2099
▁execu	-2100
▁ben	-2101
▁february	-2102
auth	-2103
▁saving	-2104
kin	-2105
cc	-2106
▁logo	-2107
▁dhamki	-2108
▁emi	-2109
sist	-2110
▁fru	-2111
▁shot	-2112
▁ie	-2113
▁ni	-2114
hindra	-2115
▁fund	-2116
▁hain	-2117
▁mujh	-2118
app	-2119
▁mach	-2120
▁instru	-2121
▁reward	-2122
▁selling	-2123
▁trading	-2124
wara	-2125
▁mum	-2126
mo	-2127
▁gali	-2128
▁small	-2129
▁conversation	-2130
vel	-2131
▁harr	-2132
▁switched	-2133
▁deal	-2134
▁price	-2135
▁anyone	-2136
ef	-2137
aining	-2138
▁unauth	-2139
▁far	-2140
▁high	-2141
▁road	-2142
band	-2143
▁hours	-2144
▁amm	-2145
▁dated	-2146
▁channel	-2147
reed	-2148
▁evi	-2149
aaaaaaaa	-2150
▁resolve	-2151
▁interview	-2152
▁mahindra	-2153
▁ved	-2154
▁permission	-2155
dence	-2156
▁gal	-2157
▁disp	-2158
▁disconnected	-2159
ead	-2160
ult	-2161
www	-2162
▁da	-2163
▁situ	-2164
▁relative	-2165
time	-2166
▁mein	-2167
▁kotak	-2168
denti	-2169
▁task	-2170
▁ani	-2171
nn	-2172
▁claiming	-2173
▁urgent	-2174
▁frouder	-2175
▁curre	-2176
▁instead	-2177
▁hope	-2178
▁realized	-2179
▁jankar	-2180
▁ticket	-2181
▁boy	-2182
▁purp	-2183
▁lotter	-2184
nge	-2185
▁tor	-2186
▁airtel	-2187
▁lottery	-2188
▁december	-2189
▁bahut	-2190
▁concer	-2191
▁raised	-2192
▁band	-2193
▁val	-2194
▁cod	-2195
▁ok	-2196
▁lady	-2197
▁rupaye	-2198
▁various	-2199
ropri	-2200
▁executive	-2201
▁apna	-2202
▁fro	-2203
▁iam	-2204
▁cul	-2205
▁along	-2206
▁ammount	-2207
▁sirmadam	-2208
▁cost	-2209
▁abhi	-2210
▁abuse	-2211
▁holder	-2212
ency	-2213
▁hus	-2214
▁prete	-2215
▁week	-2216
▁messe	-2217
▁close	-2218
lect	-2219
▁url	-2220
▁commun	-2221
cel	-2222
▁bh	-2223
▁fail	-2224
▁http	-2225
▁issu	-2226
unga	-2227
▁situation	-2228
chi	-2229
▁spo	-2230
▁known	-2231
av	-2232
▁quick	-2233
▁seen	-2234
▁shown	-2235
▁conne	-2236
aj	-2237
ropriate	-2238
▁forward	-2239
▁seller	-2240
▁ecommerce	-2241
▁il	-2242
▁deliver	-2243
prit	-2244
nded	-2245
▁lekin	-2246
▁stole	-2247
▁images	-2248
▁realised	-2249
▁each	-2250
yy	-2251
apas	-2252
▁culprit	-2253
▁recovery	-2254
gggg	-2255
▁mil	-2256
hra	-2257
▁rah	-2258
▁tum	-2259
▁yet	-2260
▁sexual	-2261
▁httpswww	-2262
▁double	-2263
▁connected	-2264
▁year	-2265
▁voice	-2266
oma	-2267
▁cannot	-2268
▁machine	-2269
▁active	-2270
▁harassment	-2271
card	-2272
▁jal	-2273
rypt	-2274
▁success	-2275
▁parcel	-2276
▁fal	-2277
▁pub	-2278
ssssssss	-2279
▁dene	-2280
▁pics	-2281
▁deposited	-2282
▁lakhs	-2283
rip	-2284
▁cer	-2285
nb	-2286
▁installed	-2287
go	-2288
use	-2289
▁repe	-2290
▁won	-2291
▁shows	-2292
back	-2293
▁dig	-2294
▁salary	-2295
▁kh	-2296
▁agreed	-2297
▁mumbai	-2298
haar	-2299
▁rand	-2300
hle	-2301
yi	-2302
ric	-2303
▁mujhse	-2304
▁creditdebit	-2305
▁sli	-2306
ns	-2307
▁messaged	-2308
ctions	-2309
fied	-2310
▁vedio	-2311
call	-2312
▁worth	-2313
▁vish	-2314
▁closed	-2315
▁promised	-2316
▁susp	-2317
▁limited	-2318
por	-2319
shan	-2320
▁lad	-2321
▁purpose	-2322
ood	-2323
▁required	-2324
▁tax	-2325
▁four	-2326
▁true	-2327
▁cancel	-2328
omatic	-2329
▁crypt	-2330
▁evidence	-2331
▁pat	-2332
▁aapko	-2333
▁cancell	-2334
▁self	-2335
▁husband	-2336
ute	-2337
▁enqu	-2338
▁gener	-2339
ah	-2340
▁bel	-2341
▁commission	-2342
▁mentally	-2343
▁reporting	-2344
▁nikal	-2345
cle	-2346
▁karo	-2347
▁tu	-2348
▁game	-2349
mmmmmmmm	-2350
▁automatic	-2351
▁providing	-2352
▁ob	-2353
▁loans	-2354
▁aj	-2355
▁fil	-2356
▁incre	-2357
▁whole	-2358
▁crypto	-2359
▁earned	-2360
▁location	-2361
▁vou	-2362
▁stat	-2363
ip	-2364
js	-2365
ayi	-2366
▁pen	-2367
▁sar	-2368
▁canara	-2369
▁thanking	-2370
▁fl	-2371
▁slice	-2372
▁accepted	-2373
▁customers	-2374
og	-2375
urb	-2376
akar	-2377
▁understand	-2378
▁war	-2379
fered	-2380
ery	-2381
xxxx	-2382
ition	-2383
▁bike	-2384
▁sare	-2385
action	-2386
▁suchana	-2387
ject	-2388
▁fut	-2389
▁believed	-2390
▁intro	-2391
▁neither	-2392
ph	-2393
▁suspici	-2394
▁agreement	-2395
▁confirmed	-2396
▁act	-2397
▁pvt	-2398
▁fruad	-2399
ign	-2400
jaj	-2401
whe	-2402
▁notice	-2403
▁rahi	-2404
▁coming	-2405
▁immediate	-2406
chan	-2407
zz	-2408
nger	-2409
▁aware	-2410
▁contr	-2411
▁false	-2412
hes	-2413
▁toh	-2414
▁followed	-2415
▁karna	-2416
▁voucher	-2417
▁genu	-2418
▁edited	-2419
ire	-2420
▁gur	-2421
▁lal	-2422
▁unf	-2423
▁remo	-2424
▁attach	-2425
▁indus	-2426
▁approx	-2427
raj	-2428
store	-2429
▁didnot	-2430
▁introdu	-2431
▁scammed	-2432
val	-2433
▁law	-2434
ial	-2435
ctor	-2436
▁vij	-2437
▁www	-2438
ication	-2439
▁initially	-2440
body	-2441
▁answer	-2442
el	-2443
▁ids	-2444
▁rbl	-2445
activ	-2446
orrow	-2447
▁purchased	-2448
▁cons	-2449
▁sale	-2450
▁placed	-2451
rd	-2452
▁pick	-2453
▁rever	-2454
abad	-2455
▁scr	-2456
vv	-2457
▁inke	-2458
dd	-2459
vin	-2460
cation	-2461
▁syst	-2462
▁ready	-2463
reverse	-2464
▁future	-2465
iya	-2466
▁trac	-2467
▁compl	-2468
▁updated	-2469
▁fraudsters	-2470
▁holdreverse	-2471
▁submitted	-2472
they	-2473
▁kal	-2474
▁doubt	-2475
▁harrass	-2476
man	-2477
▁hoga	-2478
▁seems	-2479
ried	-2480
▁genuine	-2481
▁posting	-2482
▁withdrawn	-2483
aipur	-2484
▁gone	-2485
uk	-2486
▁claimed	-2487
▁ak	-2488
▁kiye	-2489
▁plan	-2490
▁resi	-2491
▁san	-2492
ortun	-2493
▁madam	-2494
ff	-2495
▁ci	-2496
▁public	-2497
bo	-2498
▁dena	-2499
▁watsapp	-2500
▁bet	-2501
▁catch	-2502
erg	-2503
▁kam	-2504
▁scammer	-2505
▁everyone	-2506
ral	-2507
▁hes	-2508
▁phon	-2509
▁bajaj	-2510
▁remove	-2511
▁replied	-2512
▁victims	-2513
▁official	-2514
▁messaging	-2515
▁jio	-2516
▁pnb	-2517
▁baar	-2518
▁misuse	-2519
▁ten	-2520
▁behalf	-2521
▁apko	-2522
▁dh	-2523
▁earn	-2524
▁eli	-2525
▁booked	-2526
▁accused	-2527
▁suspicious	-2528
▁dau	-2529
ples	-2530
ross	-2531
ient	-2532
▁tar	-2533
▁web	-2534
▁random	-2535
olved	-2536
ool	-2537
▁mal	-2538
ems	-2539
▁krke	-2540
▁otps	-2541
▁completed	-2542
bur	-2543
▁karw	-2544
ety	-2545
▁asap	-2546
lected	-2547
▁girls	-2548
orized	-2549
▁names	-2550
▁belong	-2551
resent	-2552
▁create	-2553
▁stated	-2554
▁checking	-2555
▁sak	-2556
▁party	-2557
▁twice	-2558
▁talked	-2559
▁searching	-2560
▁tid	-2561
▁deactiv	-2562
vent	-2563
▁rest	-2564
▁karte	-2565
bha	-2566
▁mag	-2567
aming	-2568
cious	-2569
itter	-2570
▁commit	-2571
▁failed	-2572
da	-2573
▁advi	-2574
▁cr	-2575
▁offered	-2576
▁hm	-2577
▁wait	-2578
hin	-2579
▁luck	-2580
agmailcom	-2581
▁codes	-2582
fc	-2583
era	-2584
▁sm	-2585
▁vul	-2586
legal	-2587
▁class	-2588
▁system	-2589
▁usko	-2590
▁filed	-2591
▁stolen	-2592
▁amounts	-2593
crime	-2594
▁join	-2595
▁march	-2596
▁deduct	-2597
▁mam	-2598
▁info	-2599
▁chatting	-2600
▁finally	-2601
ors	-2602
▁peo	-2603
to	-2604
yam	-2605
▁myself	-2606
ished	-2607
▁karwa	-2608
▁whose	-2609
jd	-2610
▁agar	-2611
▁updation	-2612
ates	-2613
▁disturb	-2614
▁sun	-2615
▁actions	-2616
▁automatically	-2617
bar	-2618
ita	-2619
▁hr	-2620
fr	-2621
pta	-2622
▁eligi	-2623
▁represent	-2624
▁bta	-2625
ording	-2626
▁twitter	-2627
▁usd	-2628
▁replying	-2629
▁rahul	-2630
▁filled	-2631
▁win	-2632
▁repeated	-2633
▁item	-2634
▁loot	-2635
▁cheat	-2636
▁jayega	-2637
▁cam	-2638
▁own	-2639
▁sch	-2640
▁illegal	-2641
dhdh	-2642
▁respond	-2643
wik	-2644
wor	-2645
▁enc	-2646
▁suspecious	-2647
sha	-2648
▁dr	-2649
▁sat	-2650
▁oper	-2651
▁bheja	-2652
▁consent	-2653
▁peoples	-2654
▁unath	-2655
▁vishing	-2656
▁deep	-2657
bility	-2658
▁picked	-2659
▁cybercrime	-2660
ence	-2661
▁tab	-2662
▁soft	-2663
aking	-2664
▁fast	-2665
▁chand	-2666
▁reach	-2667
▁nos	-2668
▁reput	-2669
▁humble	-2670
▁aaj	-2671
▁gover	-2672
▁unathorised	-2673
inst	-2674
▁mode	-2675
grap	-2676
▁jisme	-2677
▁texted	-2678
▁chu	-2679
▁huge	-2680
▁meet	-2681
▁cour	-2682
▁items	-2683
▁crimin	-2684
bb	-2685
▁cap	-2686
▁picking	-2687
▁messenger	-2688
oj	-2689
ati	-2690
▁trap	-2691
ween	-2692
▁elect	-2693
▁extra	-2694
▁gupta	-2695
▁hackd	-2696
▁status	-2697
nts	-2698
▁iphone	-2699
▁verify	-2700
▁returned	-2701
▁according	-2702
▁deduction	-2703
▁er	-2704
ring	-2705
yan	-2706
itten	-2707
▁helpline	-2708
bc	-2709
ves	-2710
▁bin	-2711
▁hrs	-2712
▁jam	-2713
▁khat	-2714
▁spre	-2715
▁pending	-2716
▁attaching	-2717
▁appropriate	-2718
▁dus	-2719
▁porn	-2720
adav	-2721
hhhh	-2722
▁don	-2723
▁laga	-2724
▁income	-2725
ena	-2726
▁rak	-2727
▁between	-2728
ashi	-2729
garh	-2730
▁written	-2731
▁abused	-2732
▁transe	-2733
▁threaten	-2734
ages	-2735
ceed	-2736
▁dam	-2737
▁owner	-2738
▁punish	-2739
▁ori	-2740
▁entry	-2741
▁intern	-2742
▁frez	-2743
▁pareshan	-2744
▁dwara	-2745
▁might	-2746
▁market	-2747
nc	-2748
mishing	-2749
▁removed	-2750
▁aud	-2751
▁ker	-2752
▁pata	-2753
▁usme	-2754
▁benef	-2755
▁bata	-2756
▁kijiye	-2757
▁based	-2758
▁school	-2759
▁notific	-2760
▁approved	-2761
▁frezzing	-2762
jh	-2763
▁jay	-2764
▁fool	-2765
▁vill	-2766
gu	-2767
▁obs	-2768
▁clot	-2769
▁naked	-2770
▁scared	-2771
tice	-2772
nment	-2773
▁banks	-2774
▁earlier	-2775
▁hacking	-2776
▁instructions	-2777
▁refre	-2778
▁directly	-2779
▁notifiction	-2780
iry	-2781
▁cli	-2782
▁aapke	-2783
▁basis	-2784
▁reached	-2785
▁receipt	-2786
ies	-2787
▁frad	-2788
▁playstore	-2789
▁therefore	-2790
▁jus	-2791
▁pdf	-2792
hit	-2793
▁kre	-2794
▁let	-2795
ghter	-2796
▁beha	-2797
▁mater	-2798
▁ai	-2799
▁indusind	-2800
▁jiska	-2801
che	-2802
face	-2803
▁bankar	-2804
▁government	-2805
ub	-2806
▁rhi	-2807
▁local	-2808
▁recently	-2809
▁wapas	-2810
coin	-2811
▁hui	-2812
▁miss	-2813
▁introduced	-2814
▁ut	-2815
ints	-2816
▁previ	-2817
▁hun	-2818
▁deci	-2819
▁lone	-2820
▁gandi	-2821
▁ches	-2822
▁attem	-2823
▁dar	-2824
▁dete	-2825
▁daughter	-2826
▁contacting	-2827
les	-2828
credit	-2829
▁vulgar	-2830
▁threating	-2831
▁sb	-2832
using	-2833
▁furn	-2834
▁prad	-2835
▁press	-2836
▁selected	-2837
jar	-2838
▁tracking	-2839
▁believe	-2840
▁gate	-2841
▁rate	-2842
▁whatsup	-2843
▁transfered	-2844
ker	-2845
ys	-2846
umer	-2847
▁lac	-2848
▁regular	-2849
▁kya	-2850
▁aapka	-2851
▁thana	-2852
▁sr	-2853
▁wale	-2854
vid	-2855
▁wants	-2856
▁origin	-2857
▁concern	-2858
▁note	-2859
▁arrest	-2860
▁unfortun	-2861
▁nag	-2862
▁arr	-2863
▁morp	-2864
wards	-2865
▁child	-2866
▁consi	-2867
▁cashback	-2868
kr	-2869
▁occ	-2870
▁yadav	-2871
pro	-2872
ming	-2873
ority	-2874
▁chal	-2875
▁krip	-2876
▁percent	-2877
▁continue	-2878
▁interested	-2879
▁live	-2880
▁past	-2881
▁blackmailed	-2882
▁imps	-2883
▁mand	-2884
▁rese	-2885
▁emerg	-2886
aur	-2887
tain	-2888
▁pap	-2889
▁refrence	-2890
bad	-2891
where	-2892
▁amit	-2893
▁poor	-2894
▁spoke	-2895
▁points	-2896
▁approached	-2897
po	-2898
▁emails	-2899
▁review	-2900
▁earliest	-2901
▁thereafter	-2902
▁transacation	-2903
▁unauthorized	-2904
▁exchan	-2905
▁scratch	-2906
▁software	-2907
its	-2908
▁flat	-2909
▁colony	-2910
▁afr	-2911
▁mila	-2912
pura	-2913
▁line	-2914
▁dating	-2915
ush	-2916
▁hy	-2917
▁ri	-2918
play	-2919
▁proofs	-2920
▁count	-2921
▁insta	-2922
▁watch	-2923
▁connect	-2924
▁justice	-2925
▁harrasing	-2926
▁five	-2927
▁third	-2928
▁buying	-2929
▁cancelled	-2930
ative	-2931
▁freeze	-2932
▁fraudulently	-2933
ncy	-2934
isha	-2935
ctive	-2936
ought	-2937
▁jankari	-2938
▁present	-2939
ilar	-2940
▁amt	-2941
▁cvv	-2942
▁clicking	-2943
▁emergency	-2944
▁kro	-2945
▁pra	-2946
▁rbi	-2947
▁jiske	-2948
▁raise	-2949
▁timeam	-2950
▁addition	-2951
wan	-2952
ande	-2953
tions	-2954
▁froder	-2955
ines	-2956
most	-2957
▁ass	-2958
▁teh	-2959
▁kara	-2960
▁galat	-2961
▁parents	-2962
▁visited	-2963
ror	-2964
kumar	-2965
▁funds	-2966
▁sometime	-2967
▁bring	-2968
ug	-2969
pal	-2970
▁short	-2971
▁approval	-2972
▁afraid	-2973
▁similar	-2974
▁bro	-2975
▁happening	-2976
ny	-2977
▁pack	-2978
aaaaaaaaaaaaaaaa	-2979
air	-2980
▁certi	-2981
facebook	-2982
▁kra	-2983
▁vac	-2984
▁credenti	-2985
name	-2986
▁nau	-2987
▁mobik	-2988
▁switch	-2989
▁involved	-2990
▁sk	-2991
▁msgs	-2992
▁delay	-2993
▁bharat	-2994
▁smishing	-2995
then	-2996
▁ash	-2997
▁apke	-2998
▁chala	-2999
▁seeing	-3000
iture	-3001
▁hone	-3002
▁rupp	-3003
▁upon	-3004
▁almost	-3005
▁original	-3006
if	-3007
▁visa	-3008
▁transport	-3009
oli	-3010
sured	-3011
▁issues	-3012
▁speaking	-3013
end	-3014
▁dil	-3015
▁half	-3016
▁harrassing	-3017
▁sn	-3018
▁away	-3019
▁authori	-3020
hey	-3021
▁ku	-3022
kets	-3023
▁intim	-3024
▁whatsa	-3025
▁complained	-3026
▁reputation	-3027
▁unfortunately	-3028
ites	-3029
icate	-3030
▁admin	-3031
▁chats	-3032
sp	-3033
ota	-3034
▁non	-3035
ser	-3036
▁set	-3037
anger	-3038
quent	-3039
▁alag	-3040
▁allow	-3041
▁retur	-3042
▁unauthorised	-3043
liye	-3044
▁gang	-3045
▁insist	-3046
▁decided	-3047
▁proceed	-3048
▁somebody	-3049
▁trou	-3050
▁furniture	-3051
▁x	-3052
icici	-3053
▁steps	-3054
▁device	-3055
▁disbur	-3056
▁dri	-3057
▁eng	-3058
graph	-3059
▁central	-3060
▁international	-3061
▁tele	-3062
▁dijiye	-3063
▁googlepay	-3064
upi	-3065
▁ill	-3066
▁typ	-3067
▁city	-3068
▁collect	-3069
▁dress	-3070
▁noticed	-3071
▁sign	-3072
▁trusted	-3073
▁ack	-3074
▁gav	-3075
aring	-3076
▁seni	-3077
▁condi	-3078
▁bg	-3079
▁ip	-3080
▁opp	-3081
▁most	-3082
▁ladki	-3083
▁discus	-3084
ls	-3085
▁jobs	-3086
▁audio	-3087
facebookcom	-3088
oid	-3089
▁pta	-3090
paytm	-3091
cene	-3092
▁doll	-3093
▁guide	-3094
▁mahar	-3095
▁needed	-3096
▁suppor	-3097
▁investigation	-3098
▁bs	-3099
▁fa	-3100
▁chest	-3101
▁assist	-3102
▁savings	-3103
▁mobikwik	-3104
▁remaining	-3105
oc	-3106
▁vik	-3107
▁proc	-3108
▁shri	-3109
▁creating	-3110
▁kan	-3111
jaipur	-3112
▁pahle	-3113
▁bull	-3114
▁must	-3115
▁corpor	-3116
▁resident	-3117
akash	-3118
▁apka	-3119
▁head	-3120
▁peri	-3121
▁chesaru	-3122
▁clothes	-3123
▁material	-3124
▁body	-3125
ession	-3126
ho	-3127
▁appe	-3128
▁mile	-3129
▁center	-3130
▁khan	-3131
▁facing	-3132
▁period	-3133
▁assured	-3134
▁consider	-3135
br	-3136
▁nud	-3137
▁jain	-3138
rected	-3139
▁story	-3140
▁correct	-3141
▁opening	-3142
▁commerce	-3143
oice	-3144
▁ide	-3145
▁avoid	-3146
▁occur	-3147
▁returning	-3148
▁impersonation	-3149
lu	-3150
que	-3151
acha	-3152
▁edit	-3153
▁hote	-3154
▁early	-3155
▁identi	-3156
▁successful	-3157
yo	-3158
jsjs	-3159
▁decl	-3160
▁havent	-3161
▁complaints	-3162
▁kai	-3163
amount	-3164
▁cibil	-3165
▁dunga	-3166
▁needs	-3167
▁pradesh	-3168
bu	-3169
▁ig	-3170
ntire	-3171
▁sirmam	-3172
▁dispute	-3173
▁pancard	-3174
▁criminal	-3175
▁uploading	-3176
▁bgmi	-3177
▁sanj	-3178
▁united	-3179
ders	-3180
▁fear	-3181
▁soci	-3182
▁credentials	-3183
bhi	-3184
amil	-3185
▁shiv	-3186
▁train	-3187
▁senior	-3188
ndi	-3189
▁airport	-3190
▁impersonating	-3191
aff	-3192
▁mid	-3193
▁mins	-3194
▁bangal	-3195
▁entire	-3196
pa	-3197
hot	-3198
osed	-3199
▁hund	-3200
▁publ	-3201
▁cheap	-3202
▁refundable	-3203
bal	-3204
▁tom	-3205
▁vin	-3206
ressed	-3207
▁visit	-3208
▁communication	-3209
ses	-3210
▁ud	-3211
with	-3212
▁rele	-3213
▁charged	-3214
▁low	-3215
▁unko	-3216
▁medical	-3217
ssssssssssssssss	-3218
▁guys	-3219
▁threats	-3220
▁mane	-3221
▁texting	-3222
▁applications	-3223
tra	-3224
wat	-3225
▁word	-3226
▁acount	-3227
▁display	-3228
▁increase	-3229
▁vai	-3230
banking	-3231
gggggggg	-3232
icide	-3233
▁denge	-3234
▁investing	-3235
pin	-3236
onic	-3237
▁knc	-3238
▁pras	-3239
▁firstly	-3240
▁pretending	-3241
▁iske	-3242
▁ques	-3243
▁import	-3244
adu	-3245
▁isne	-3246
▁valid	-3247
▁attempt	-3248
▁scanned	-3249
fi	-3250
goo	-3251
▁bole	-3252
▁suicide	-3253
▁responded	-3254
za	-3255
▁jha	-3256
▁bhut	-3257
▁complainants	-3258
▁kbc	-3259
▁fore	-3260
▁aadhaar	-3261
▁obscene	-3262
▁certific	-3263
▁govt	-3264
▁across	-3265
sam	-3266
▁parts	-3267
▁orient	-3268
xn	-3269
▁sug	-3270
▁convin	-3271
▁hundred	-3272
▁bangalore	-3273
▁rede	-3274
▁college	-3275
▁society	-3276
▁blocking	-3277
▁west	-3278
▁point	-3279
▁sites	-3280
▁stand	-3281
▁transferring	-3282
▁gyi	-3283
▁kari	-3284
▁toll	-3285
▁adhaar	-3286
▁shocked	-3287
hta	-3288
▁websites	-3289
work	-3290
▁cas	-3291
▁dikha	-3292
▁heshe	-3293
▁client	-3294
▁username	-3295
hr	-3296
how	-3297
▁fed	-3298
▁tho	-3299
light	-3300
▁less	-3301
caller	-3302
▁sector	-3303
▁procedu	-3304
▁oriental	-3305
ev	-3306
ank	-3307
▁bre	-3308
▁andhra	-3309
athi	-3310
▁smart	-3311
▁representative	-3312
▁trade	-3313
▁circul	-3314
▁revert	-3315
▁transcation	-3316
cash	-3317
onds	-3318
▁sad	-3319
▁karv	-3320
▁morphed	-3321
▁covid	-3322
▁harrasment	-3323
▁transection	-3324
ator	-3325
vind	-3326
▁idea	-3327
▁lots	-3328
▁zest	-3329
▁means	-3330
▁writing	-3331
▁offering	-3332
ousing	-3333
▁links	-3334
▁mobno	-3335
▁lodged	-3336
▁orders	-3337
for	-3338
▁jald	-3339
▁swap	-3340
▁goods	-3341
▁acknow	-3342
▁defame	-3343
▁benefici	-3344
nu	-3345
▁bob	-3346
▁uni	-3347
▁nauk	-3348
▁recieve	-3349
▁additional	-3350
ger	-3351
llll	-3352
▁pal	-3353
▁rap	-3354
▁trn	-3355
▁idfc	-3356
google	-3357
▁enclo	-3358
▁forced	-3359
▁village	-3360
▁codesbin	-3361
▁contract	-3362
▁harassed	-3363
▁yeh	-3364
▁sugges	-3365
▁contain	-3366
▁technol	-3367
mmmmmmmmmmmmmmmm	-3368
▁vehi	-3369
▁view	-3370
victim	-3371
▁tickets	-3372
hen	-3373
▁tras	-3374
▁refer	-3375
▁returns	-3376
▁section	-3377
▁misusing	-3378
▁responsible	-3379
▁travel	-3380
▁invoice	-3381
hil	-3382
sal	-3383
▁project	-3384
san	-3385
▁meena	-3386
▁inhone	-3387
▁corporation	-3388
▁eligibility	-3389
you	-3390
▁wont	-3391
▁previous	-3392
▁concerned	-3393
▁netbanking	-3394
▁lic	-3395
▁snap	-3396
▁unka	-3397
▁gram	-3398
▁krte	-3399
▁chenn	-3400
▁lekar	-3401
ida	-3402
nse	-3403
▁tm	-3404
eving	-3405
▁bana	-3406
▁pura	-3407
▁saved	-3408
▁staff	-3409
▁minute	-3410
kkkk	-3411
▁ime	-3412
▁thin	-3413
▁updating	-3414
nl	-3415
▁vijay	-3416
▁yours	-3417
▁became	-3418
▁victimn	-3419
▁intention	-3420
oun	-3421
▁ay	-3422
ises	-3423
▁anil	-3424
▁lage	-3425
▁mome	-3426
▁dekha	-3427
▁comments	-3428
▁generated	-3429
▁supporting	-3430
asing	-3431
▁aaye	-3432
▁whom	-3433
▁become	-3434
▁single	-3435
▁verified	-3436
nam	-3437
atel	-3438
▁lea	-3439
ature	-3440
story	-3441
▁batya	-3442
▁chesi	-3443
▁borrow	-3444
▁deactivated	-3445
cl	-3446
▁ir	-3447
wari	-3448
▁kuchh	-3449
▁trouble	-3450
lling	-3451
▁misused	-3452
▁tomorrow	-3453
▁currently	-3454
hip	-3455
▁thru	-3456
▁xxxx	-3457
▁prize	-3458
▁speak	-3459
▁vijaya	-3460
▁mailing	-3461
▁age	-3462
▁der	-3463
▁ending	-3464
▁answering	-3465
mary	-3466
wali	-3467
▁dup	-3468
▁apni	-3469
▁bare	-3470
▁worried	-3471
▁sanction	-3472
▁starting	-3473
bk	-3474
hash	-3475
ream	-3476
▁draw	-3477
▁manga	-3478
quently	-3479
▁important	-3480
jo	-3481
lp	-3482
▁usa	-3483
▁disa	-3484
aching	-3485
▁declined	-3486
▁collected	-3487
vo	-3488
▁cal	-3489
▁spoil	-3490
▁towards	-3491
▁repeatedly	-3492
cs	-3493
sim	-3494
was	-3495
▁jag	-3496
▁utt	-3497
▁chennai	-3498
▁thinking	-3499
▁urgently	-3500
hdfc	-3501
▁phis	-3502
▁housing	-3503
▁respect	-3504
aun	-3505
uri	-3506
▁guid	-3507
▁plus	-3508
▁activate	-3509
▁purchasing	-3510
▁dp	-3511
less	-3512
ness	-3513
▁coin	-3514
▁deta	-3515
▁instant	-3516
▁procedure	-3517
aka	-3518
ken	-3519
ora	-3520
mers	-3521
▁nar	-3522
cured	-3523
▁nahin	-3524
▁exchange	-3525
▁suspected	-3526
▁respective	-3527
hary	-3528
▁chepp	-3529
▁understood	-3530
▁certificate	-3531
oot	-3532
uru	-3533
utr	-3534
imum	-3535
▁hue	-3536
▁kia	-3537
▁ghar	-3538
▁pune	-3539
▁deepak	-3540
▁mining	-3541
▁sanjay	-3542
▁entering	-3543
▁refunding	-3544
gs	-3545
qq	-3546
bly	-3547
pri	-3548
bled	-3549
▁paas	-3550
▁lucky	-3551
▁mails	-3552
▁phones	-3553
▁vehicle	-3554
▁ts	-3555
▁tv	-3556
want	-3557
▁dost	-3558
▁badly	-3559
▁digit	-3560
▁itself	-3561
▁history	-3562
jf	-3563
▁oc	-3564
gaon	-3565
▁mahe	-3566
▁verma	-3567
▁followers	-3568
bh	-3569
▁gre	-3570
▁txn	-3571
▁usse	-3572
derabad	-3573
▁filing	-3574
▁seconds	-3575
▁bir	-3576
▁dalne	-3577
▁discount	-3578
▁condition	-3579
ased	-3580
onym	-3581
▁sri	-3582
ising	-3583
pping	-3584
▁krna	-3585
▁lead	-3586
▁stay	-3587
▁chahi	-3588
▁donot	-3589
mar	-3590
date	-3591
▁mne	-3592
▁tara	-3593
▁pehle	-3594
▁sexually	-3595
▁aayi	-3596
▁room	-3597
▁flight	-3598
▁bitcoin	-3599
mu	-3600
▁ky	-3601
▁han	-3602
▁imei	-3603
▁mean	-3604
▁vall	-3605
▁chuka	-3606
▁faith	-3607
deep	-3608
▁oct	-3609
▁pak	-3610
▁raz	-3611
▁sang	-3612
▁trad	-3613
▁authe	-3614
▁jaldi	-3615
▁rupye	-3616
▁camera	-3617
▁moment	-3618
▁forcing	-3619
▁package	-3620
fa	-3621
▁error	-3622
▁either	-3623
▁server	-3624
▁clearly	-3625
▁defaming	-3626
▁convinced	-3627
▁attachment	-3628
do	-3629
▁payu	-3630
▁plzz	-3631
▁byphone	-3632
▁earning	-3633
▁pes	-3634
▁gold	-3635
▁inqu	-3636
▁test	-3637
▁control	-3638
▁digital	-3639
▁transation	-3640
▁truecaller	-3641
kesh	-3642
tern	-3643
▁ste	-3644
▁pati	-3645
▁yah	-3646
▁aler	-3647
▁comes	-3648
▁namely	-3649
▁remote	-3650
▁whatapp	-3651
▁students	-3652
▁ju	-3653
cket	-3654
hish	-3655
▁tasks	-3656
▁anonym	-3657
▁authent	-3658
▁hyderabad	-3659
aki	-3660
whi	-3661
▁kir	-3662
acket	-3663
▁exam	-3664
▁payed	-3665
▁issued	-3666
indly	-3667
▁aisa	-3668
▁safe	-3669
▁sche	-3670
▁tort	-3671
▁jisse	-3672
▁hamare	-3673
▁require	-3674
get	-3675
▁box	-3676
ations	-3677
▁subsc	-3678
▁arrange	-3679
▁country	-3680
▁property	-3681
▁whatsaap	-3682
ii	-3683
sbin	-3684
▁mak	-3685
▁max	-3686
▁nai	-3687
▁expe	-3688
asthan	-3689
▁hotel	-3690
▁attend	-3691
▁belongs	-3692
▁certain	-3693
▁electric	-3694
▁land	-3695
▁wise	-3696
▁comment	-3697
▁editing	-3698
▁torturing	-3699
▁sabhi	-3700
▁fathers	-3701
▁maharash	-3702
▁easy	-3703
▁frau	-3704
▁jama	-3705
▁plot	-3706
▁level	-3707
▁saath	-3708
▁users	-3709
▁mailed	-3710
▁intrest	-3711
▁spreading	-3712
rav	-3713
ancy	-3714
atha	-3715
▁waiting	-3716
▁everyday	-3717
enge	-3718
▁madh	-3719
▁jaise	-3720
ster	-3721
▁kit	-3722
▁iska	-3723
▁mony	-3724
▁ashok	-3725
▁inapp	-3726
▁sl	-3727
uchna	-3728
▁dekh	-3729
▁mana	-3730
▁bought	-3731
unt	-3732
▁alt	-3733
▁patel	-3734
▁shall	-3735
▁isliye	-3736
▁colleag	-3737
▁current	-3738
▁authorities	-3739
▁lga	-3740
▁aise	-3741
▁bhai	-3742
▁turn	-3743
▁usdt	-3744
▁apple	-3745
▁looks	-3746
▁agency	-3747
▁maharashtra	-3748
oups	-3749
▁network	-3750
▁fraudsim	-3751
▁nov	-3752
▁org	-3753
state	-3754
▁mind	-3755
▁brand	-3756
▁kumari	-3757
▁properly	-3758
▁whatever	-3759
▁suggested	-3760
ton	-3761
▁daal	-3762
▁expl	-3763
▁karan	-3764
▁compani	-3765
▁whether	-3766
aged	-3767
icit	-3768
jeet	-3769
▁dev	-3770
▁trx	-3771
▁bsnl	-3772
▁fall	-3773
▁thankyou	-3774
▁authority	-3775
yal	-3776
▁pand	-3777
▁noida	-3778
▁doesnt	-3779
▁sended	-3780
▁waited	-3781
▁filling	-3782
▁scammers	-3783
▁photograph	-3784
▁acknowledge	-3785
▁pi	-3786
loan	-3787
▁looted	-3788
▁complaining	-3789
nat	-3790
▁lose	-3791
▁sett	-3792
▁tube	-3793
▁exist	-3794
▁karva	-3795
▁emailid	-3796
▁insisted	-3797
▁applicant	-3798
▁yo	-3799
▁das	-3800
▁jodh	-3801
vember	-3802
▁court	-3803
▁bengal	-3804
▁follows	-3805
▁supposed	-3806
▁rajasthan	-3807
eral	-3808
▁ant	-3809
▁ple	-3810
▁sid	-3811
▁wala	-3812
jected	-3813
▁dusre	-3814
▁prote	-3815
▁stuck	-3816
▁om	-3817
▁py	-3818
aram	-3819
▁harm	-3820
▁redi	-3821
ortion	-3822
▁duped	-3823
▁subject	-3824
▁november	-3825
▁debitcredit	-3826
▁successfully	-3827
▁va	-3828
aner	-3829
▁anj	-3830
▁answ	-3831
▁mare	-3832
▁stud	-3833
▁buyer	-3834
▁touch	-3835
jection	-3836
▁behala	-3837
▁mishra	-3838
indi	-3839
ained	-3840
▁coup	-3841
▁thus	-3842
▁final	-3843
▁uttar	-3844
▁jodhpur	-3845
▁joining	-3846
▁profits	-3847
▁phishing	-3848
▁threatning	-3849
▁throughupi	-3850
osh	-3851
▁ank	-3852
lines	-3853
▁unse	-3854
▁contect	-3855
hic	-3856
eeee	-3857
gram	-3858
▁gau	-3859
tsapp	-3860
▁best	-3861
▁cred	-3862
▁event	-3863
ression	-3864
▁chahiye	-3865
▁currency	-3866
iant	-3867
▁poo	-3868
ashion	-3869
▁somehow	-3870
▁amountrs	-3871
▁culprits	-3872
▁disconne	-3873
set	-3874
hara	-3875
sure	-3876
▁ali	-3877
▁beg	-3878
▁posi	-3879
▁prin	-3880
▁penal	-3881
▁score	-3882
▁caught	-3883
▁suspended	-3884
mal	-3885
apis	-3886
▁hog	-3887
▁tem	-3888
acher	-3889
▁kard	-3890
▁ravi	-3891
▁rich	-3892
▁sara	-3893
▁bihar	-3894
▁shine	-3895
dhdhdhdh	-3896
▁gateway	-3897
▁enclosed	-3898
▁ifscsbin	-3899
▁informing	-3900
▁inappropriate	-3901
oud	-3902
▁cc	-3903
aini	-3904
fraud	-3905
inder	-3906
▁read	-3907
▁value	-3908
install	-3909
▁companies	-3910
▁mentioning	-3911
arh	-3912
ume	-3913
▁jb	-3914
▁uk	-3915
▁dom	-3916
▁consult	-3917
ran	-3918
utt	-3919
▁sai	-3920
otion	-3921
▁appo	-3922
▁news	-3923
▁scoot	-3924
▁electr	-3925
▁httpsc	-3926
▁enquired	-3927
▁bankstate	-3928
sad	-3929
van	-3930
hant	-3931
pted	-3932
vers	-3933
▁chr	-3934
arest	-3935
▁cous	-3936
▁isme	-3937
▁exact	-3938
▁tamil	-3939
▁spread	-3940
hare	-3941
▁lar	-3942
▁ola	-3943
▁bina	-3944
online	-3945
▁vihar	-3946
▁groups	-3947
▁advised	-3948
▁committed	-3949
dra	-3950
▁mart	-3951
▁ward	-3952
▁instantly	-3953
jdjd	-3954
yana	-3955
▁six	-3956
▁chor	-3957
▁kripa	-3958
▁hereby	-3959
▁repaid	-3960
▁warning	-3961
▁profession	-3962
odh	-3963
opal	-3964
▁asso	-3965
▁chain	-3966
▁marri	-3967
▁razor	-3968
▁comput	-3969
▁depressed	-3970
jr	-3971
money	-3972
▁lene	-3973
▁gives	-3974
▁magic	-3975
▁coupon	-3976
▁cousin	-3977
▁platforms	-3978
list	-3979
▁hur	-3980
▁ran	-3981
▁stal	-3982
▁uski	-3983
▁utha	-3984
▁massages	-3985
▁connection	-3986
pun	-3987
▁bri	-3988
▁fau	-3989
▁mus	-3990
▁notime	-3991
▁rajesh	-3992
▁nearest	-3993
▁anonymous	-3994
▁initiated	-3995
harm	-3996
veen	-3997
opter	-3998
▁gall	-3999
▁amout	-4000
▁cheque	-4001
▁refuse	-4002
con	-4003
hek	-4004
ung	-4005
atap	-4006
over	-4007
▁red	-4008
nored	-4009
▁ajay	-4010
▁chou	-4011
▁maha	-4012
suchna	-4013
▁centre	-4014
fir	-4015
▁bn	-4016
▁cis	-4017
▁top	-4018
▁ybl	-4019
ntial	-4020
▁icic	-4021
▁khate	-4022
▁partic	-4023
▁bullying	-4024
▁forwarded	-4025
yes	-4026
▁je	-4027
ycle	-4028
▁ane	-4029
▁ded	-4030
nagar	-4031
▁brow	-4032
andeep	-4033
▁prakash	-4034
vol	-4035
▁ge	-4036
▁uco	-4037
▁busy	-4038
▁dala	-4039
▁hogi	-4040
▁wats	-4041
▁adding	-4042
▁associ	-4043
▁handle	-4044
▁indivi	-4045
▁posing	-4046
▁ignored	-4047
▁teacher	-4048
bile	-4049
hila	-4050
▁den	-4051
▁asks	-4052
▁dekar	-4053
▁mange	-4054
▁manoj	-4055
▁manner	-4056
▁scheme	-4057
▁frauded	-4058
▁initial	-4059
▁occurred	-4060
▁beneficiary	-4061
icks	-4062
▁mei	-4063
▁una	-4064
▁load	-4065
▁adress	-4066
▁summary	-4067
▁employees	-4068
▁regularly	-4069
▁frud	-4070
▁krish	-4071
▁pucha	-4072
▁torture	-4073
▁individu	-4074
sel	-4075
sil	-4076
▁gan	-4077
▁vend	-4078
▁expired	-4079
▁karwaya	-4080
▁minimum	-4081
▁promise	-4082
▁dut	-4083
▁esc	-4084
▁gam	-4085
▁cisf	-4086
atched	-4087
▁plese	-4088
▁nearly	-4089
▁redeem	-4090
▁happens	-4091
▁release	-4092
▁accordingly	-4093
ren	-4094
bhai	-4095
▁hame	-4096
▁sold	-4097
▁front	-4098
▁write	-4099
dy	-4100
anu	-4101
ogy	-4102
unn	-4103
prof	-4104
▁swi	-4105
▁tru	-4106
ption	-4107
▁gets	-4108
wanted	-4109
▁steal	-4110
▁disturbing	-4111
blo	-4112
put	-4113
ual	-4114
char	-4115
▁leak	-4116
▁pers	-4117
▁stock	-4118
▁federal	-4119
▁requests	-4120
▁training	-4121
nds	-4122
ues	-4123
▁lie	-4124
▁hota	-4125
▁sunil	-4126
▁playing	-4127
▁accepting	-4128
▁compliant	-4129
▁rupeeking	-4130
iton	-4131
▁bed	-4132
bling	-4133
▁dest	-4134
▁gramin	-4135
▁occured	-4136
▁computer	-4137
▁unwanted	-4138
▁recordings	-4139
▁relationship	-4140
tit	-4141
jjjj	-4142
▁ads	-4143
▁uss	-4144
▁lacs	-4145
▁ended	-4146
▁porno	-4147
▁premi	-4148
▁retri	-4149
▁listed	-4150
hhhhhhhh	-4151
▁missing	-4152
▁mistaken	-4153
▁question	-4154
ili	-4155
jeje	-4156
▁bna	-4157
▁sen	-4158
▁sor	-4159
▁cross	-4160
▁humbly	-4161
▁organi	-4162
▁recive	-4163
▁sincere	-4164
▁approxim	-4165
ht	-4166
kd	-4167
rim	-4168
▁ist	-4169
▁pop	-4170
▁dial	-4171
▁sari	-4172
▁paper	-4173
▁agents	-4174
▁explicit	-4175
▁uninstall	-4176
ogi	-4177
▁lg	-4178
pect	-4179
▁edu	-4180
▁lice	-4181
▁course	-4182
▁enquiry	-4183
▁herewith	-4184
▁processed	-4185
this	-4186
uted	-4187
vant	-4188
zzzz	-4189
▁glo	-4190
▁req	-4191
▁sends	-4192
instagram	-4193
▁activation	-4194
aly	-4195
ina	-4196
ship	-4197
▁fun	-4198
ggest	-4199
▁rans	-4200
▁helic	-4201
▁sales	-4202
▁highly	-4203
▁prevent	-4204
▁answered	-4205
tis	-4206
▁pad	-4207
▁wee	-4208
▁fine	-4209
▁ship	-4210
▁walo	-4211
▁chrome	-4212
▁resume	-4213
▁transf	-4214
▁collection	-4215
▁cro	-4216
▁gai	-4217
▁imm	-4218
▁krw	-4219
▁mom	-4220
▁kill	-4221
▁alwar	-4222
▁jiski	-4223
▁posts	-4224
▁takes	-4225
▁losted	-4226
▁offers	-4227
she	-4228
link	-4229
▁men	-4230
▁kaam	-4231
▁meth	-4232
kindly	-4233
▁nived	-4234
▁suggest	-4235
▁consumer	-4236
▁marriage	-4237
▁provider	-4238
▁rejected	-4239
hne	-4240
anta	-4241
ayan	-4242
▁kap	-4243
▁kon	-4244
▁tur	-4245
▁auto	-4246
▁moha	-4247
▁phle	-4248
▁phys	-4249
▁abhis	-4250
▁reset	-4251
▁rohit	-4252
▁confide	-4253
▁directed	-4254
▁deactivate	-4255
ku	-4256
dle	-4257
ret	-4258
tam	-4259
xis	-4260
▁od	-4261
▁maj	-4262
▁clip	-4263
▁muze	-4264
ensive	-4265
sciton	-4266
▁adult	-4267
▁lured	-4268
▁method	-4269
▁putting	-4270
▁thankful	-4271
▁ca	-4272
▁shah	-4273
▁trip	-4274
▁gande	-4275
▁great	-4276
▁gujar	-4277
▁humne	-4278
▁vaish	-4279
▁banksbi	-4280
▁particular	-4281
▁trainsciton	-4282
dal	-4283
▁som	-4284
▁dues	-4285
▁query	-4286
▁claims	-4287
▁agarwal	-4288
▁realize	-4289
▁wrongly	-4290
▁aai	-4291
▁pet	-4292
singh	-4293
▁krwa	-4294
▁sund	-4295
▁terms	-4296
▁works	-4297
▁damage	-4298
▁guided	-4299
▁joined	-4300
▁rakesh	-4301
▁gurgaon	-4302
▁helicopter	-4303
shop	-4304
▁dur	-4305
▁chey	-4306
▁coll	-4307
▁khar	-4308
ishing	-4309
▁nudes	-4310
▁actual	-4311
▁premium	-4312
▁sandeep	-4313
▁eligible	-4314
▁notimepm	-4315
▁fav	-4316
▁jit	-4317
▁tidt	-4318
▁pages	-4319
▁spent	-4320
▁galiya	-4321
▁kripya	-4322
▁reside	-4323
▁nivedan	-4324
▁reasons	-4325
▁disturbed	-4326
▁explained	-4327
amp	-4328
iter	-4329
▁mur	-4330
icked	-4331
▁lock	-4332
▁files	-4333
▁maang	-4334
▁token	-4335
▁reviews	-4336
▁housingcom	-4337
▁cancellation	-4338
▁respectively	-4339
▁likh	-4340
▁sant	-4341
▁rupess	-4342
▁tranfer	-4343
▁stalking	-4344
▁vouchers	-4345
jhe	-4346
uttly	-4347
▁treat	-4348
▁unaware	-4349
▁distjaipur	-4350
▁everywhere	-4351
▁mistakenly	-4352
aha	-4353
▁csp	-4354
▁kri	-4355
▁sig	-4356
▁und	-4357
atory	-4358
ories	-4359
ually	-4360
▁jila	-4361
▁male	-4362
▁nare	-4363
▁sand	-4364
▁madad	-4365
▁activated	-4366
nr	-4367
hun	-4368
mad	-4369
enty	-4370
▁exc	-4371
tured	-4372
▁bell	-4373
▁king	-4374
▁papa	-4375
▁sake	-4376
▁shots	-4377
▁settle	-4378
bab	-4379
hay	-4380
ply	-4381
▁mrs	-4382
▁bheje	-4383
▁tower	-4384
▁uncle	-4385
▁result	-4386
▁vendor	-4387
▁feeling	-4388
▁scanning	-4389
wn	-4390
had	-4391
ify	-4392
php	-4393
▁equ	-4394
count	-4395
riend	-4396
▁deti	-4397
▁sofa	-4398
▁voda	-4399
▁cause	-4400
▁hindi	-4401
▁subse	-4402
▁banned	-4403
▁driver	-4404
▁ruppes	-4405
▁appoint	-4406
▁abhishek	-4407
▁accessed	-4408
▁tb	-4409
▁bon	-4410
▁dia	-4411
▁wish	-4412
▁twenty	-4413
▁haryana	-4414
▁penalty	-4415
▁dispatch	-4416
▁punished	-4417
▁continues	-4418
▁completing	-4419
ade	-4420
des	-4421
ling	-4422
rade	-4423
▁blue	-4424
▁boli	-4425
▁duty	-4426
▁obli	-4427
▁tata	-4428
keting	-4429
▁birth	-4430
▁mobil	-4431
▁capital	-4432
▁scanner	-4433
▁acknowledgement	-4434
xy	-4435
een	-4436
▁dt	-4437
cure	-4438
mane	-4439
▁hig	-4440
▁hme	-4441
▁mara	-4442
▁aapki	-4443
▁masse	-4444
▁weeks	-4445
▁distri	-4446
▁middle	-4447
▁applying	-4448
▁razorpay	-4449
▁disbursed	-4450
▁electronic	-4451
kot	-4452
ten	-4453
omer	-4454
▁huaa	-4455
wallet	-4456
▁bolta	-4457
▁illeg	-4458
▁believing	-4459
cop	-4460
fone	-4461
when	-4462
▁coo	-4463
▁fas	-4464
volook	-4465
▁alert	-4466
▁seven	-4467
▁sikar	-4468
▁super	-4469
▁vapas	-4470
▁milega	-4471
▁rapist	-4472
▁binance	-4473
▁officials	-4474
odi	-4475
pite	-4476
▁inka	-4477
▁eight	-4478
▁disapp	-4479
▁living	-4480
ikr	-4481
vas	-4482
acom	-4483
ocate	-4484
rupay	-4485
▁raje	-4486
▁freed	-4487
▁shoes	-4488
▁naukri	-4489
▁express	-4490
▁passbook	-4491
▁instruction	-4492
kti	-4493
yed	-4494
▁noc	-4495
oring	-4496
▁galti	-4497
▁pooja	-4498
achable	-4499
phonepe	-4500
profile	-4501
▁gaming	-4502
▁manish	-4503
▁pretended	-4504
reg	-4505
▁au	-4506
care	-4507
▁dad	-4508
▁dob	-4509
▁nun	-4510
▁oka	-4511
▁pac	-4512
icycle	-4513
▁fully	-4514
▁gallery	-4515
▁illegally	-4516
▁discussion	-4517
instagramcom	-4518
jan	-4519
kan	-4520
▁jy	-4521
hani	-4522
yyyy	-4523
acter	-4524
▁arri	-4525
▁goes	-4526
▁tour	-4527
▁confu	-4528
▁model	-4529
▁texts	-4530
▁pratap	-4531
▁karenge	-4532
gb	-4533
ami	-4534
▁kk	-4535
anti	-4536
▁nit	-4537
▁rape	-4538
ically	-4539
▁facil	-4540
▁missed	-4541
▁freezed	-4542
▁kotwali	-4543
▁scamming	-4544
▁depression	-4545
ingly	-4546
▁gayi	-4547
▁reve	-4548
▁upto	-4549
▁couple	-4550
▁matrim	-4551
▁prasad	-4552
▁ransom	-4553
▁lucknow	-4554
▁pressure	-4555
▁sincerely	-4556
gni	-4557
▁mp	-4558
ober	-4559
india	-4560
▁idbi	-4561
▁unhe	-4562
▁chair	-4563
▁dealer	-4564
▁advocate	-4565
▁contains	-4566
▁vodafone	-4567
▁appointment	-4568
fb	-4569
aar	-4570
asi	-4571
paid	-4572
▁vah	-4573
itary	-4574
▁lagi	-4575
▁neft	-4576
▁worked	-4577
▁meeting	-4578
▁character	-4579
▁disconnect	-4580
▁sanctioned	-4581
jah	-4582
▁ef	-4583
ante	-4584
jhun	-4585
▁aff	-4586
▁ris	-4587
▁usi	-4588
while	-4589
▁thay	-4590
▁trid	-4591
▁large	-4592
▁resol	-4593
▁saini	-4594
▁woman	-4595
▁pocket	-4596
▁october	-4597
▁permane	-4598
▁attended	-4599
▁citibank	-4600
▁priority	-4601
▁seriously	-4602
▁sharehash	-4603
▁transtion	-4604
kaj	-4605
veer	-4606
▁kum	-4607
▁saf	-4608
▁rath	-4609
▁knows	-4610
▁cheppi	-4611
▁sender	-4612
▁tiwari	-4613
▁dollars	-4614
ae	-4615
ju	-4616
eps	-4617
ini	-4618
pee	-4619
▁uc	-4620
ails	-4621
▁mut	-4622
▁rat	-4623
▁woh	-4624
▁sach	-4625
zation	-4626
▁rupya	-4627
▁changing	-4628
▁residing	-4629
aul	-4630
fin	-4631
▁tk	-4632
▁dono	-4633
▁jari	-4634
▁board	-4635
▁sorry	-4636
▁hackers	-4637
▁passport	-4638
▁technology	-4639
hd	-4640
pat	-4641
▁aye	-4642
▁isi	-4643
karta	-4644
▁gain	-4645
▁pade	-4646
▁puri	-4647
anagar	-4648
▁bolte	-4649
▁renew	-4650
▁button	-4651
▁manage	-4652
▁gujarat	-4653
▁signature	-4654
▁httpscuttly	-4655
gav	-4656
▁vip	-4657
curre	-4658
▁kash	-4659
coming	-4660
▁incor	-4661
▁types	-4662
▁doctor	-4663
▁approve	-4664
▁helping	-4665
▁visible	-4666
▁charging	-4667
▁reaching	-4668
▁continued	-4669
▁faithfully	-4670
cb	-4671
hak	-4672
▁md	-4673
▁nb	-4674
otal	-4675
that	-4676
▁tel	-4677
▁uti	-4678
▁firm	-4679
▁exper	-4680
▁tenure	-4681
▁disabled	-4682
▁marketing	-4683
▁approximately	-4684
gggggggggggggggg	-4685
uf	-4686
anc	-4687
ltd	-4688
son	-4689
land	-4690
▁god	-4691
▁aapse	-4692
▁vikas	-4693
▁destro	-4694
▁higher	-4695
▁mahesh	-4696
▁bearing	-4697
▁looting	-4698
▁bul	-4699
▁vas	-4700
stand	-4701
▁sort	-4702
prises	-4703
selves	-4704
▁bheji	-4705
▁monday	-4706
▁continously	-4707
ib	-4708
hav	-4709
pos	-4710
thy	-4711
wad	-4712
anga	-4713
copy	-4714
raud	-4715
▁gra	-4716
▁lat	-4717
▁mot	-4718
▁pow	-4719
▁sep	-4720
ogies	-4721
▁waha	-4722
▁choud	-4723
▁makes	-4724
▁mujse	-4725
▁publish	-4726
aps	-4727
▁bik	-4728
▁inb	-4729
▁kos	-4730
▁led	-4731
▁jaan	-4732
▁pesa	-4733
▁ajmer	-4734
▁bonus	-4735
▁faced	-4736
▁handy	-4737
▁willing	-4738
▁director	-4739
▁community	-4740
iye	-4741
itya	-4742
iring	-4743
▁arun	-4744
▁lack	-4745
▁punb	-4746
▁rail	-4747
anjali	-4748
though	-4749
▁akash	-4750
▁losses	-4751
▁thousands	-4752
▁withdrawl	-4753
▁gh	-4754
▁jin	-4755
▁chin	-4756
▁sams	-4757
▁sext	-4758
ription	-4759
▁nunchi	-4760
▁select	-4761
llllllll	-4762
▁affected	-4763
▁individual	-4764
ero	-4765
ura	-4766
▁aug	-4767
▁nom	-4768
▁shr	-4769
▁aane	-4770
▁club	-4771
▁jhan	-4772
▁mala	-4773
▁quikr	-4774
▁sadar	-4775
▁sakte	-4776
▁karnat	-4777
▁herself	-4778
dev	-4779
pan	-4780
free	-4781
roid	-4782
tics	-4783
trac	-4784
▁obt	-4785
andey	-4786
▁apki	-4787
▁apse	-4788
icated	-4789
▁cycle	-4790
▁fradur	-4791
▁lossed	-4792
▁nudity	-4793
▁reveal	-4794
▁suppli	-4795
▁turant	-4796
▁turned	-4797
▁defraud	-4798
▁shipping	-4799
▁redirected	-4800
▁unknowingly	-4801
thi	-4802
chat	-4803
eraj	-4804
nsns	-4805
▁jar	-4806
▁key	-4807
▁aata	-4808
▁isko	-4809
▁jail	-4810
▁kota	-4811
▁lena	-4812
▁medi	-4813
▁puch	-4814
titute	-4815
▁khila	-4816
▁likha	-4817
▁stuff	-4818
▁danger	-4819
▁krishna	-4820
▁vaishno	-4821
▁initiate	-4822
▁incidents	-4823
▁travolook	-4824
▁transition	-4825
▁installment	-4826
uu	-4827
nnnn	-4828
▁pss	-4829
▁fire	-4830
▁kahi	-4831
ternate	-4832
▁dinesh	-4833
▁happend	-4834
▁torcher	-4835
▁generate	-4836
▁distribut	-4837
▁afterwards	-4838
▁increasing	-4839
▁installing	-4840
▁cryptocurre	-4841
vy	-4842
ikh	-4843
atly	-4844
kari	-4845
mmad	-4846
uses	-4847
▁gad	-4848
acial	-4849
▁ankit	-4850
▁coust	-4851
▁grate	-4852
▁priya	-4853
▁karane	-4854
▁princi	-4855
▁records	-4856
▁rewards	-4857
▁resolved	-4858
▁amounting	-4859
▁clearance	-4860
▁personnel	-4861
▁instructed	-4862
▁registering	-4863
due	-4864
law	-4865
lla	-4866
mir	-4867
plz	-4868
vil	-4869
fect	-4870
hand	-4871
▁gri	-4872
▁aeps	-4873
▁barb	-4874
▁btya	-4875
▁mali	-4876
▁uses	-4877
overed	-4878
▁married	-4879
▁raising	-4880
▁expecting	-4881
▁colleagues	-4882
htt	-4883
ola	-4884
than	-4885
vide	-4886
▁dun	-4887
▁tag	-4888
ricom	-4889
▁beja	-4890
▁camp	-4891
▁mudra	-4892
▁recru	-4893
▁sched	-4894
▁wrote	-4895
▁bolkar	-4896
▁global	-4897
▁sunday	-4898
▁freedom	-4899
▁alternate	-4900
▁themselves	-4901
▁tranjection	-4902
▁installation	-4903
kf	-4904
wd	-4905
var	-4906
icom	-4907
▁gay	-4908
▁ise	-4909
▁pha	-4910
▁sou	-4911
grade	-4912
▁soni	-4913
▁suit	-4914
▁gaali	-4915
▁manip	-4916
▁tarah	-4917
▁cooper	-4918
▁disclo	-4919
▁strong	-4920
▁canteen	-4921
▁couldnt	-4922
▁fashion	-4923
▁although	-4924
▁borrowed	-4925
▁grateful	-4926
▁identify	-4927
▁offensive	-4928
kat	-4929
sbi	-4930
adit	-4931
rent	-4932
titu	-4933
▁blu	-4934
▁kul	-4935
▁mah	-4936
▁cand	-4937
▁dupl	-4938
▁forg	-4939
▁hang	-4940
▁forms	-4941
▁thier	-4942
▁engine	-4943
▁karnataka	-4944
▁languages	-4945
▁suchnkarta	-4946
▁enterprises	-4947
▁notimepmamount	-4948
idi	-4949
ule	-4950
anan	-4951
ganj	-4952
▁ayy	-4953
bitly	-4954
▁dream	-4955
▁mukesh	-4956
▁realise	-4957
▁continuous	-4958
▁professional	-4959
▁subsequently	-4960
ube	-4961
ices	-4962
iles	-4963
lled	-4964
▁lau	-4965
phpid	-4966
prise	-4967
▁alle	-4968
▁sirf	-4969
▁bazar	-4970
▁unblo	-4971
▁broker	-4972
▁pankaj	-4973
▁passed	-4974
▁ramesh	-4975
▁teleph	-4976
kkkkkkkk	-4977
▁manipul	-4978
▁paresan	-4979
▁udaipur	-4980
▁retrieve	-4981
▁meanwhile	-4982
▁technologies	-4983
ky	-4984
box	-4985
raz	-4986
fter	-4987
ings	-4988
▁hop	-4989
▁tan	-4990
ances	-4991
▁lend	-4992
▁unlo	-4993
▁hanum	-4994
ination	-4995
▁master	-4996
▁chandra	-4997
▁wherein	-4998
profilephpid	-4999
▁downloading	-5000
▁subscription	-5001
lli	-5002
oin	-5003
rit	-5004
ants	-5005
wani	-5006
▁rid	-5007
never	-5008
▁jite	-5009
▁mans	-5010
▁synd	-5011
▁unne	-5012
▁jisne	-5013
versity	-5014
▁dollar	-5015
▁pandey	-5016
▁selfie	-5017
▁cheater	-5018
▁perform	-5019
▁children	-5020
▁costumer	-5021
hy	-5022
hoo	-5023
yer	-5024
bhar	-5025
down	-5026
from	-5027
▁agr	-5028
▁alg	-5029
▁khe	-5030
velop	-5031
▁feed	-5032
▁nine	-5033
▁fault	-5034
▁vallu	-5035
account	-5036
▁circle	-5037
▁operating	-5038
▁reachable	-5039
▁frequently	-5040
▁previously	-5041
▁university	-5042
pet	-5043
hane	-5044
mand	-5045
oooo	-5046
outh	-5047
resh	-5048
vere	-5049
▁gha	-5050
▁kor	-5051
ishan	-5052
▁bhim	-5053
▁karu	-5054
▁lear	-5055
▁nbfc	-5056
▁tari	-5057
ahabad	-5058
oliday	-5059
unnaru	-5060
▁defam	-5061
▁farud	-5062
▁starts	-5063
▁linkage	-5064
▁partner	-5065
▁positive	-5066
▁allahabad	-5067
▁criminals	-5068
▁questions	-5069
▁collecting	-5070
▁punishment	-5071
bed	-5072
igh	-5073
▁bc	-5074
▁xx	-5075
▁bhag	-5076
▁acres	-5077
▁saree	-5078
▁common	-5079
▁fooled	-5080
▁foreign	-5081
▁messege	-5082
▁quickly	-5083
▁military	-5084
▁fradulent	-5085
▁promotion	-5086
▁personally	-5087
▁telephonic	-5088
▁choo	-5089
▁neha	-5090
▁redd	-5091
▁ruin	-5092
▁round	-5093
▁retail	-5094
▁vikram	-5095
▁replace	-5096
▁deceived	-5097
▁whenever	-5098
▁duplicate	-5099
▁recharged	-5100
▁sextortion	-5101
bro	-5102
fli	-5103
▁dtd	-5104
▁ele	-5105
▁est	-5106
▁lia	-5107
▁aadmi	-5108
▁disti	-5109
▁karen	-5110
▁mohan	-5111
▁resul	-5112
▁ruppe	-5113
▁scold	-5114
▁shree	-5115
yesbank	-5116
▁finser	-5117
▁pretext	-5118
▁tumhare	-5119
▁naukricom	-5120
▁cryptocurrency	-5121
lal	-5122
top	-5123
und	-5124
upp	-5125
arch	-5126
beha	-5127
▁sky	-5128
ality	-5129
▁iski	-5130
▁mant	-5131
▁thro	-5132
graphy	-5133
▁swipe	-5134
▁secure	-5135
▁android	-5136
▁upgrade	-5137
▁choudhary	-5138
▁syndicate	-5139
▁attachments	-5140
▁transportation	-5141
rol	-5142
come	-5143
inde	-5144
▁bhu	-5145
▁esa	-5146
▁kyu	-5147
▁lax	-5148
times	-5149
▁chow	-5150
▁inse	-5151
▁shan	-5152
▁ther	-5153
▁leave	-5154
▁world	-5155
▁suresh	-5156
▁trader	-5157
▁ewallet	-5158
▁ammountrs	-5159
▁uninstalled	-5160
utm	-5161
▁jaa	-5162
▁kah	-5163
▁leg	-5164
order	-5165
▁east	-5166
▁enke	-5167
medium	-5168
▁match	-5169
▁ashish	-5170
▁misbeha	-5171
▁samsung	-5172
▁profiles	-5173
▁standard	-5174
fes	-5175
jee	-5176
lls	-5177
pls	-5178
aint	-5179
qqqq	-5180
▁ayi	-5181
▁van	-5182
▁port	-5183
▁pure	-5184
▁taki	-5185
▁loose	-5186
▁speci	-5187
▁denying	-5188
▁develop	-5189
▁excuses	-5190
▁opportun	-5191
▁relevant	-5192
jal	-5193
nag	-5194
oor	-5195
lish	-5196
▁tir	-5197
chand	-5198
▁bhot	-5199
▁doub	-5200
▁food	-5201
▁amoun	-5202
▁peace	-5203
▁sagar	-5204
▁sakta	-5205
▁candid	-5206
▁convert	-5207
▁attempts	-5208
▁patanjali	-5209
▁guidelines	-5210
zi	-5211
sap	-5212
▁aw	-5213
help	-5214
tual	-5215
▁bac	-5216
▁jun	-5217
▁mir	-5218
▁kate	-5219
▁rude	-5220
▁cases	-5221
▁dalwa	-5222
▁patna	-5223
▁power	-5224
▁signed	-5225
▁allowed	-5226
▁located	-5227
▁options	-5228
▁protect	-5229
▁facility	-5230
▁needfull	-5231
▁displayed	-5232
▁withdrawals	-5233
far	-5234
nal	-5235
ona	-5236
oss	-5237
ergy	-5238
ingh	-5239
load	-5240
ries	-5241
ummy	-5242
▁lab	-5243
▁nir	-5244
rajap	-5245
table	-5246
▁dhar	-5247
▁isse	-5248
▁raat	-5249
▁cloth	-5250
▁cover	-5251
▁happy	-5252
▁anjali	-5253
▁gaurav	-5254
▁rental	-5255
▁ignoring	-5256
▁published	-5257
▁authorised	-5258
▁impersonated	-5259
pppp	-5260
▁gala	-5261
▁guar	-5262
▁khud	-5263
▁kids	-5264
▁unki	-5265
angarh	-5266
ership	-5267
▁appre	-5268
▁conse	-5269
▁froad	-5270
▁kabhi	-5271
▁meine	-5272
▁missu	-5273
▁aditya	-5274
▁ensure	-5275
▁favour	-5276
▁scooty	-5277
▁typing	-5278
▁solutions	-5279
▁authentication	-5280
▁ll	-5281
here	-5282
▁ifs	-5283
▁mic	-5284
▁ras	-5285
▁conv	-5286
▁jata	-5287
▁laun	-5288
▁tere	-5289
▁vacc	-5290
odhpur	-5291
▁samay	-5292
▁sumit	-5293
▁upset	-5294
▁bharti	-5295
▁khilaf	-5296
▁transa	-5297
▁vishal	-5298
standing	-5299
▁alleged	-5300
▁exactly	-5301
▁railway	-5302
▁tricked	-5303
▁increased	-5304
▁treatment	-5305
wi	-5306
gesh	-5307
reme	-5308
▁fish	-5309
▁cheya	-5310
▁chahta	-5311
▁ganesh	-5312
▁pakist	-5313
▁appeared	-5314
▁confused	-5315
▁debiting	-5316
▁blackmailer	-5317
aro	-5318
khi	-5319
len	-5320
ller	-5321
oshi	-5322
tish	-5323
wada	-5324
▁mit	-5325
▁vid	-5326
▁jise	-5327
▁chalu	-5328
▁lives	-5329
▁expiry	-5330
▁minist	-5331
▁severe	-5332
▁barcode	-5333
▁holiday	-5334
▁onwards	-5335
▁bankbank	-5336
▁identified	-5337
ob	-5338
din	-5339
sol	-5340
sor	-5341
hele	-5342
kant	-5343
liya	-5344
▁baje	-5345
▁exte	-5346
▁kaat	-5347
ension	-5348
▁alter	-5349
▁jisko	-5350
▁ladka	-5351
▁numer	-5352
▁bhejne	-5353
▁gandhi	-5354
▁kariye	-5355
▁phonpe	-5356
▁sachin	-5357
▁disappe	-5358
▁froders	-5359
▁overdue	-5360
▁convince	-5361
▁exchanged	-5362
aga	-5363
det	-5364
ega	-5365
rew	-5366
sar	-5367
tim	-5368
▁phn	-5369
aging	-5370
▁alot	-5371
▁hume	-5372
▁kkbk	-5373
▁riya	-5374
▁size	-5375
▁town	-5376
ducted	-5377
▁kaise	-5378
▁suraj	-5379
▁bellon	-5380
▁career	-5381
▁safety	-5382
▁delayed	-5383
▁karvaye	-5384
▁license	-5385
▁sisters	-5386
▁submitting	-5387
num	-5388
chna	-5389
flix	-5390
▁agg	-5391
▁keh	-5392
▁sce	-5393
▁unt	-5394
ience	-5395
tical	-5396
▁dire	-5397
▁ladi	-5398
▁leke	-5399
▁wine	-5400
▁surpr	-5401
▁tells	-5402
▁tranj	-5403
▁lijiye	-5404
▁simply	-5405
▁demands	-5406
▁missuse	-5407
▁promising	-5408
▁associated	-5409
▁trasaction	-5410
ym	-5411
hai	-5412
kam	-5413
sir	-5414
suk	-5415
andi	-5416
deal	-5417
wadi	-5418
▁jane	-5419
▁quot	-5420
▁artic	-5421
▁jyada	-5422
▁keeps	-5423
▁commis	-5424
▁httpst	-5425
▁jacket	-5426
▁cleared	-5427
▁despite	-5428
▁obliged	-5429
▁vachind	-5430
▁bharatpe	-5431
▁contents	-5432
▁deposite	-5433
▁confirming	-5434
▁settlement	-5435
▁description	-5436
drl	-5437
▁ul	-5438
vice	-5439
▁avi	-5440
▁bej	-5441
▁wan	-5442
ences	-5443
▁amar	-5444
▁inde	-5445
▁liqu	-5446
▁pytm	-5447
▁ranj	-5448
▁shir	-5449
▁karya	-5450
▁posed	-5451
▁targe	-5452
▁addgav	-5453
▁bricks	-5454
▁choose	-5455
▁freind	-5456
copylink	-5457
▁classes	-5458
▁enquire	-5459
▁inquiry	-5460
▁engineer	-5461
▁physical	-5462
▁requirement	-5463
mediumcopylink	-5464
eta	-5465
gur	-5466
ika	-5467
kal	-5468
▁kur	-5469
▁lif	-5470
▁ton	-5471
▁thor	-5472
friend	-5473
▁noise	-5474
▁obser	-5475
▁ground	-5476
▁stress	-5477
▁viewer	-5478
▁monthly	-5479
▁recogni	-5480
▁linkedin	-5481
▁ordering	-5482
▁fraudphone	-5483
▁resolution	-5484
aku	-5485
ive	-5486
mai	-5487
▁ny	-5488
ches	-5489
iram	-5490
▁dub	-5491
▁gas	-5492
▁ven	-5493
orted	-5494
▁baki	-5495
▁coad	-5496
▁inko	-5497
▁hamne	-5498
▁rakha	-5499
▁thodi	-5500
▁badnam	-5501
▁causing	-5502
▁desktop	-5503
▁karunga	-5504
▁whereas	-5505
▁finacial	-5506
▁shinecom	-5507
▁eventually	-5508
pg	-5509
ech	-5510
ler	-5511
nrb	-5512
rah	-5513
ula	-5514
ayat	-5515
ighb	-5516
▁dip	-5517
▁ese	-5518
▁rad	-5519
▁roj	-5520
jhunu	-5521
▁move	-5522
▁none	-5523
▁thik	-5524
▁prove	-5525
▁samaj	-5526
▁trave	-5527
▁wapis	-5528
▁behavi	-5529
▁ladies	-5530
▁unkown	-5531
▁subscri	-5532
▁tidtutr	-5533
▁discussed	-5534
▁investors	-5535
vertisement	-5536
▁authorized	-5537
▁membership	-5538
▁installments	-5539
lam	-5540
dddd	-5541
mant	-5542
▁abi	-5543
▁diff	-5544
▁goog	-5545
▁held	-5546
▁itna	-5547
▁recd	-5548
▁inval	-5549
▁losed	-5550
▁musli	-5551
▁south	-5552
▁thane	-5553
jodhpur	-5554
▁jariye	-5555
▁karaya	-5556
▁arrived	-5557
▁lodging	-5558
▁captured	-5559
▁attending	-5560
▁incorrect	-5561
▁institute	-5562
▁opportunity	-5563
vr	-5564
mas	-5565
org	-5566
ybl	-5567
aine	-5568
awat	-5569
▁att	-5570
▁div	-5571
▁kid	-5572
▁opt	-5573
▁wha	-5574
aries	-5575
least	-5576
sthey	-5577
▁anur	-5578
▁bhat	-5579
▁dhok	-5580
▁math	-5581
▁hindu	-5582
▁quite	-5583
▁wifes	-5584
▁escort	-5585
▁frozen	-5586
▁neighb	-5587
▁tehsil	-5588
jsjsjsjs	-5589
▁customs	-5590
▁netflix	-5591
▁quality	-5592
▁stories	-5593
▁detailed	-5594
▁completion	-5595
nan	-5596
▁ss	-5597
ueue	-5598
▁dha	-5599
▁nat	-5600
▁tat	-5601
lwara	-5602
urday	-5603
▁dint	-5604
▁khari	-5605
▁nundi	-5606
▁reddy	-5607
▁saman	-5608
▁dilane	-5609
▁mandir	-5610
eeeeeeee	-5611
hdfcbank	-5612
▁freelan	-5613
▁invalid	-5614
▁preshan	-5615
▁anywhere	-5616
▁intimate	-5617
▁officers	-5618
▁randomly	-5619
▁removing	-5620
▁authentic	-5621
▁sometimes	-5622
gir	-5623
mesh	-5624
shed	-5625
▁abd	-5626
▁jat	-5627
▁vya	-5628
▁adhi	-5629
▁boss	-5630
▁huye	-5631
▁mill	-5632
▁dusra	-5633
▁rupes	-5634
lecting	-5635
▁froude	-5636
▁nikala	-5637
▁pickup	-5638
▁mobiles	-5639
▁seeking	-5640
▁whatsap	-5641
▁management	-5642
py	-5643
enu	-5644
nar	-5645
ney	-5646
ump	-5647
▁cv	-5648
cide	-5649
puri	-5650
▁bot	-5651
▁sik	-5652
chain	-5653
first	-5654
▁dept	-5655
▁laon	-5656
▁pros	-5657
branch	-5658
listed	-5659
punjab	-5660
▁among	-5661
▁karni	-5662
▁nosbi	-5663
▁prior	-5664
▁throw	-5665
payment	-5666
▁domain	-5667
▁indust	-5668
▁instal	-5669
▁repeat	-5670
▁stoped	-5671
▁tamiln	-5672
▁warned	-5673
▁atleast	-5674
▁finserv	-5675
▁managed	-5676
▁brothers	-5677
▁stranger	-5678
▁watching	-5679
▁colleague	-5680
▁incidence	-5681
▁zestmoney	-5682
▁recovering	-5683
fo	-5684
bat	-5685
eet	-5686
▁rag	-5687
alwar	-5688
later	-5689
▁bala	-5690
▁educ	-5691
▁hear	-5692
▁modi	-5693
▁pubg	-5694
▁rani	-5695
▁ubin	-5696
charge	-5697
dences	-5698
▁sabko	-5699
verseas	-5700
▁helped	-5701
▁principal	-5702
▁financially	-5703
▁pornography	-5704
jun	-5705
wahi	-5706
▁aks	-5707
▁cbi	-5708
▁deb	-5709
bably	-5710
▁boys	-5711
▁farod	-5712
▁harsh	-5713
▁medic	-5714
▁nisha	-5715
▁arrang	-5716
▁priyan	-5717
▁target	-5718
▁bicycle	-5719
▁disputed	-5720
▁fraudsad	-5721
▁morphing	-5722
▁overseas	-5723
▁promises	-5724
▁receiver	-5725
▁saturday	-5726
▁assistant	-5727
▁httpsbitly	-5728
▁outstanding	-5729
▁photographs	-5730
dhdhdhdhdhdhdhdh	-5731
hs	-5732
lad	-5733
▁gb	-5734
▁ld	-5735
nahi	-5736
▁haz	-5737
▁nil	-5738
onial	-5739
▁hoon	-5740
▁kafi	-5741
▁love	-5742
▁mone	-5743
▁thar	-5744
▁fixed	-5745
▁karti	-5746
▁logis	-5747
▁misle	-5748
▁surat	-5749
▁vinod	-5750
▁breach	-5751
▁govind	-5752
▁leaked	-5753
▁nearby	-5754
▁browser	-5755
▁carried	-5756
▁destroy	-5757
▁packing	-5758
▁patient	-5759
▁winning	-5760
▁approach	-5761
▁refusing	-5762
▁conducted	-5763
▁recovered	-5764
▁unnecessary	-5765
▁confidential	-5766
wo	-5767
fty	-5768
jit	-5769
chit	-5770
opur	-5771
what	-5772
▁ena	-5773
igarh	-5774
shine	-5775
▁lime	-5776
▁nand	-5777
▁ping	-5778
▁sham	-5779
▁hogya	-5780
▁misgu	-5781
▁slang	-5782
▁conform	-5783
▁distric	-5784
▁phonpay	-5785
▁upiphone	-5786
▁visiting	-5787
▁somewhere	-5788
▁videocall	-5789
▁circulating	-5790
hn	-5791
ian	-5792
tan	-5793
yas	-5794
fing	-5795
▁ata	-5796
▁kuc	-5797
khand	-5798
osing	-5799
yment	-5800
▁fack	-5801
▁huwa	-5802
▁july	-5803
▁kary	-5804
uspect	-5805
▁chuke	-5806
▁insul	-5807
▁khata	-5808
▁ladke	-5809
▁light	-5810
▁relig	-5811
▁taraf	-5812
▁truck	-5813
▁wajah	-5814
▁nobody	-5815
▁prajap	-5816
▁racket	-5817
▁extreme	-5818
▁rsrupay	-5819
▁thereby	-5820
▁probably	-5821
▁supplier	-5822
▁residence	-5823
▁transacted	-5824
▁electricity	-5825
pi	-5826
bey	-5827
key	-5828
▁pc	-5829
azaar	-5830
night	-5831
▁clon	-5832
▁fino	-5833
▁frnd	-5834
▁paye	-5835
▁ring	-5836
▁sahi	-5837
▁slip	-5838
ifycom	-5839
tition	-5840
▁dubai	-5841
▁gopal	-5842
▁mandi	-5843
▁plzzz	-5844
▁rules	-5845
▁scams	-5846
graphic	-5847
▁enough	-5848
▁chating	-5849
▁conduct	-5850
▁devices	-5851
▁reputed	-5852
▁staying	-5853
▁virtual	-5854
▁conditions	-5855
▁permanently	-5856
▁tranjaction	-5857
bas	-5858
bay	-5859
het	-5860
jha	-5861
uti	-5862
arsh	-5863
fund	-5864
idge	-5865
oses	-5866
▁bye	-5867
▁gaw	-5868
▁kud	-5869
▁sin	-5870
▁tam	-5871
ioned	-5872
reser	-5873
▁jese	-5874
▁prac	-5875
mobile	-5876
▁accur	-5877
▁honey	-5878
▁payme	-5879
▁digits	-5880
▁hoping	-5881
▁httpss	-5882
▁kishan	-5883
▁amounit	-5884
▁mothers	-5885
▁succhna	-5886
▁jitendra	-5887
▁extortion	-5888
▁tamilnadu	-5889
ays	-5890
dar	-5891
lex	-5892
vir	-5893
ield	-5894
nath	-5895
▁bht	-5896
▁lon	-5897
▁mna	-5898
▁sau	-5899
adhar	-5900
board	-5901
vasta	-5902
▁host	-5903
▁mini	-5904
▁pase	-5905
▁civil	-5906
▁dates	-5907
▁detal	-5908
▁produ	-5909
▁separ	-5910
▁filthy	-5911
▁states	-5912
▁english	-5913
▁holding	-5914
▁keeping	-5915
▁scooter	-5916
▁included	-5917
▁holdreser	-5918
▁circulated	-5919
▁containing	-5920
▁delivering	-5921
▁depositing	-5922
▁consultancy	-5923
▁detailssuchna	-5924
cal	-5925
gop	-5926
nda	-5927
ifsc	-5928
▁ann	-5929
▁fri	-5930
▁ful	-5931
▁hoo	-5932
▁wah	-5933
omart	-5934
osite	-5935
▁base	-5936
▁dino	-5937
▁marg	-5938
▁rist	-5939
▁srin	-5940
▁term	-5941
▁trau	-5942
regist	-5943
viewer	-5944
▁victi	-5945
▁worry	-5946
ficient	-5947
▁august	-5948
▁copied	-5949
▁energy	-5950
▁format	-5951
▁padega	-5952
▁promot	-5953
▁street	-5954
complain	-5955
▁madhyam	-5956
▁ahmedabad	-5957
▁continuos	-5958
▁deducting	-5959
▁assistance	-5960
▁bankpunjab	-5961
▁dispatched	-5962
▁intimation	-5963
▁organisation	-5964
ndr	-5965
cccc	-5966
▁aar	-5967
▁dhm	-5968
▁hor	-5969
▁roy	-5970
▁baby	-5971
▁bich	-5972
▁chah	-5973
▁hate	-5974
▁hung	-5975
▁pain	-5976
▁rana	-5977
ailash	-5978
cement	-5979
itment	-5980
▁afore	-5981
▁bacha	-5982
▁chaud	-5983
▁demat	-5984
▁hajar	-5985
▁janta	-5986
▁plans	-5987
▁possi	-5988
▁rates	-5989
▁shoot	-5990
▁vinay	-5991
▁googal	-5992
▁played	-5993
▁remain	-5994
▁sucide	-5995
▁advertise	-5996
▁documentation	-5997
kg	-5998
khe	-5999
pre	-6000
won	-6001
▁cho	-6002
▁dhi	-6003
▁hat	-6004
▁soo	-6005
▁wil	-6006
ament	-6007
rawal	-6008
▁impo	-6009
▁paym	-6010
▁pray	-6011
▁reti	-6012
▁vive	-6013
▁heard	-6014
▁shyam	-6015
▁sound	-6016
▁caused	-6017
▁diffic	-6018
▁expire	-6019
▁galaxy	-6020
▁kharab	-6021
▁krwaya	-6022
▁latter	-6023
▁prices	-6024
▁unfree	-6025
▁driving	-6026
▁massege	-6027
▁surprise	-6028
▁withdrew	-6029
▁circulate	-6030
▁conversations	-6031
avy	-6032
kri	-6033
rad	-6034
bers	-6035
comp	-6036
▁aay	-6037
▁gor	-6038
▁jld	-6039
▁une	-6040
▁wed	-6041
▁huyi	-6042
▁nehi	-6043
▁risk	-6044
▁aapne	-6045
▁dungi	-6046
▁irrit	-6047
▁nobro	-6048
▁parti	-6049
▁septe	-6050
▁talks	-6051
▁fridge	-6052
▁indore	-6053
▁karwai	-6054
▁supply	-6055
▁throgh	-6056
▁trauma	-6057
▁appears	-6058
▁clients	-6059
▁mobiwik	-6060
▁pradeep	-6061
▁reading	-6062
▁unblock	-6063
▁midnight	-6064
▁enquiring	-6065
▁everytime	-6066
▁evidences	-6067
▁insisting	-6068
▁introduce	-6069
▁listening	-6070
▁reflected	-6071
▁teamviewer	-6072
▁matrimonial	-6073
asa	-6074
bir	-6075
oad	-6076
una	-6077
tech	-6078
▁cow	-6079
anshu	-6080
govin	-6081
▁capt	-6082
▁jhun	-6083
▁mahi	-6084
▁mata	-6085
▁shut	-6086
▁thri	-6087
▁utib	-6088
▁bande	-6089
▁clari	-6090
▁distt	-6091
▁honge	-6092
▁least	-6093
▁attack	-6094
▁better	-6095
▁satish	-6096
▁downlod	-6097
▁jayenge	-6098
▁jiomart	-6099
▁narayan	-6100
▁arrested	-6101
▁mohammad	-6102
▁september	-6103
rn	-6104
bhu	-6105
igo	-6106
lin	-6107
ude	-6108
▁bd	-6109
▁bak	-6110
▁cur	-6111
▁dot	-6112
▁fer	-6113
▁hey	-6114
▁iyy	-6115
hroom	-6116
indus	-6117
tract	-6118
urved	-6119
▁dega	-6120
▁dtdc	-6121
▁duga	-6122
▁foot	-6123
▁mark	-6124
▁raju	-6125
▁thir	-6126
▁ways	-6127
▁break	-6128
▁chowk	-6129
▁heavy	-6130
▁inspe	-6131
▁jabki	-6132
▁penis	-6133
▁jayegi	-6134
▁muslim	-6135
▁rather	-6136
▁terror	-6137
▁vyakti	-6138
▁general	-6139
▁shankar	-6140
ansaction	-6141
mentioned	-6142
shopifycom	-6143
▁friendship	-6144
eb	-6145
cre	-6146
▁fd	-6147
akes	-6148
dear	-6149
hehe	-6150
uhan	-6151
▁mod	-6152
▁nan	-6153
▁nay	-6154
amart	-6155
arthi	-6156
asure	-6157
icial	-6158
▁bhan	-6159
▁elza	-6160
▁mari	-6161
▁phno	-6162
▁books	-6163
▁games	-6164
▁mangi	-6165
▁namer	-6166
▁pawan	-6167
▁prime	-6168
amilcom	-6169
▁attrac	-6170
▁compen	-6171
▁dubara	-6172
▁forgot	-6173
▁iyyaru	-6174
▁karaye	-6175
▁watsup	-6176
titution	-6177
▁finding	-6178
▁praveen	-6179
▁renting	-6180
▁victime	-6181
▁commision	-6182
has	-6183
yar	-6184
▁rc	-6185
also	-6186
meen	-6187
ushi	-6188
wane	-6189
▁cab	-6190
▁dro	-6191
▁psk	-6192
▁acct	-6193
▁dart	-6194
▁deny	-6195
▁hmne	-6196
▁pali	-6197
▁seek	-6198
▁sind	-6199
▁suru	-6200
▁fishy	-6201
▁griev	-6202
▁vapis	-6203
▁advice	-6204
▁famili	-6205
▁hamara	-6206
▁timing	-6207
▁worker	-6208
▁bikaner	-6209
▁tumhara	-6210
▁citizens	-6211
▁incoming	-6212
▁prashant	-6213
▁priyanka	-6214
▁suspects	-6215
▁intentions	-6216
▁beneficiaries	-6217
oom	-6218
xxx	-6219
khar	-6220
some	-6221
▁bil	-6222
▁bor	-6223
▁cat	-6224
▁mno	-6225
▁tes	-6226
▁yoj	-6227
imbur	-6228
which	-6229
▁admi	-6230
▁dale	-6231
▁fdrl	-6232
▁kadi	-6233
▁mast	-6234
▁quit	-6235
▁assam	-6236
▁influ	-6237
▁joshi	-6238
▁study	-6239
▁hamari	-6240
zzzzzzzz	-6241
▁chatted	-6242
▁special	-6243
▁clothing	-6244
▁nobroker	-6245
▁opposite	-6246
▁pakistan	-6247
▁responce	-6248
▁dangerous	-6249
▁messanger	-6250
▁freelancer	-6251
▁disappeared	-6252
▁pornographic	-6253
jg	-6254
sr	-6255
esa	-6256
ron	-6257
tml	-6258
▁rm	-6259
aded	-6260
hold	-6261
mate	-6262
punb	-6263
rabh	-6264
▁dow	-6265
▁frm	-6266
▁gro	-6267
▁kun	-6268
itely	-6269
▁apro	-6270
▁bang	-6271
▁infr	-6272
▁mohd	-6273
▁movi	-6274
▁navi	-6275
▁okay	-6276
▁paya	-6277
▁wali	-6278
▁abdul	-6279
▁begin	-6280
▁coins	-6281
▁delet	-6282
▁jhasa	-6283
▁nitin	-6284
▁panic	-6285
▁satis	-6286
prakash	-6287
▁bhopal	-6288
▁cheyam	-6289
▁secret	-6290
▁sunita	-6291
▁callers	-6292
▁damaged	-6293
▁guarant	-6294
▁reimbur	-6295
▁samband	-6296
▁updates	-6297
▁whtsapp	-6298
▁detected	-6299
▁provides	-6300
▁purposes	-6301
▁shipment	-6302
▁suffered	-6303
▁recieving	-6304
▁tranction	-6305
md	-6306
cil	-6307
kum	-6308
oop	-6309
cies	-6310
jeev	-6311
pend	-6312
scom	-6313
ured	-6314
▁amd	-6315
▁kom	-6316
▁nin	-6317
▁aage	-6318
▁argu	-6319
▁batt	-6320
▁cart	-6321
▁poss	-6322
▁prem	-6323
▁shoe	-6324
▁upgr	-6325
▁alleg	-6326
▁basic	-6327
▁expen	-6328
▁forex	-6329
▁hurry	-6330
▁jitne	-6331
▁patil	-6332
▁addhar	-6333
▁cement	-6334
▁nagpur	-6335
▁series	-6336
▁yogesh	-6337
▁kailash	-6338
▁setting	-6339
▁canceled	-6340
▁research	-6341
▁defrauded	-6342
▁reflecting	-6343
bob	-6344
ios	-6345
lak	-6346
arth	-6347
riya	-6348
shsh	-6349
wana	-6350
yoti	-6351
▁beh	-6352
▁csc	-6353
▁hot	-6354
gopro	-6355
▁airp	-6356
▁galt	-6357
▁frnds	-6358
▁ganda	-6359
▁gifts	-6360
▁jaaye	-6361
▁khand	-6362
▁effect	-6363
▁article	-6364
▁chinese	-6365
▁lending	-6366
▁washing	-6367
▁function	-6368
▁lockdown	-6369
▁moreover	-6370
▁reversal	-6371
▁education	-6372
▁advertised	-6373
▁confidence	-6374
▁manipulated	-6375
fl	-6376
rel	-6377
▁ep	-6378
▁os	-6379
▁kav	-6380
▁naa	-6381
▁rit	-6382
arily	-6383
https	-6384
pient	-6385
▁acts	-6386
▁cake	-6387
▁jhar	-6388
▁kata	-6389
▁pram	-6390
▁shuk	-6391
▁sonu	-6392
▁teen	-6393
number	-6394
▁chesa	-6395
▁enhan	-6396
fashion	-6397
▁abuses	-6398
▁afford	-6399
▁mutual	-6400
▁kashmir	-6401
kgmailcom	-6402
▁accounti	-6403
▁browsing	-6404
▁machines	-6405
▁indiamart	-6406
▁consultant	-6407
▁continuosly	-6408
ama	-6409
bik	-6410
bus	-6411
gel	-6412
jai	-6413
jay	-6414
ley	-6415
oki	-6416
tha	-6417
araj	-6418
barb	-6419
hesh	-6420
icic	-6421
ized	-6422
lesh	-6423
road	-6424
teen	-6425
wala	-6426
▁anu	-6427
▁bio	-6428
▁doc	-6429
▁dru	-6430
▁ish	-6431
▁maa	-6432
▁nav	-6433
acted	-6434
house	-6435
iving	-6436
▁mump	-6437
▁onst	-6438
▁scro	-6439
▁wind	-6440
ground	-6441
▁kamal	-6442
▁saare	-6443
▁tabhi	-6444
▁accout	-6445
▁barmer	-6446
▁chesuk	-6447
▁custmer	-6448
▁emailed	-6449
▁emotion	-6450
▁fooling	-6451
▁rathore	-6452
▁harrased	-6453
▁obtained	-6454
▁specific	-6455
▁youtuber	-6456
▁surprised	-6457
kl	-6458
rat	-6459
uni	-6460
chal	-6461
hera	-6462
urat	-6463
▁bai	-6464
▁die	-6465
▁ipc	-6466
▁rao	-6467
▁vol	-6468
hotra	-6469
iabad	-6470
otech	-6471
▁aman	-6472
▁cnrb	-6473
▁dila	-6474
▁shub	-6475
▁upar	-6476
mitted	-6477
▁franc	-6478
▁guess	-6479
▁rawat	-6480
icating	-6481
▁liquor	-6482
▁intimid	-6483
▁sexting	-6484
▁schedule	-6485
▁boyfriend	-6486
▁crediting	-6487
▁percentage	-6488
▁recruitment	-6489
▁transecation	-6490
fs	-6491
mat	-6492
mry	-6493
hata	-6494
ivas	-6495
mart	-6496
pati	-6497
▁dab	-6498
▁gol	-6499
▁kau	-6500
▁mee	-6501
▁tah	-6502
apore	-6503
total	-6504
▁grab	-6505
▁swip	-6506
▁wall	-6507
angana	-6508
▁clock	-6509
▁comis	-6510
▁conve	-6511
▁gurug	-6512
▁hmare	-6513
▁humko	-6514
▁lakin	-6515
▁mohit	-6516
▁thagi	-6517
▁jhansa	-6518
▁petrol	-6519
▁recent	-6520
▁tarike	-6521
▁engaged	-6522
▁tension	-6523
▁whatspp	-6524
▁existing	-6525
▁inquired	-6526
▁stealing	-6527
okhdfcbank	-6528
▁travelling	-6529
▁holdreserse	-6530
dl	-6531
vd	-6532
ghe	-6533
ray	-6534
▁pg	-6535
▁um	-6536
bhag	-6537
cell	-6538
dhar	-6539
tact	-6540
▁ast	-6541
▁hii	-6542
▁liy	-6543
▁yog	-6544
▁ford	-6545
▁gadi	-6546
▁grap	-6547
▁kese	-6548
▁path	-6549
▁refr	-6550
▁valu	-6551
▁corre	-6552
▁frued	-6553
▁inbox	-6554
▁jammu	-6555
▁north	-6556
▁sensi	-6557
▁taxes	-6558
▁valla	-6559
▁vivek	-6560
▁immidi	-6561
▁noifsc	-6562
▁sarees	-6563
▁pretend	-6564
▁traders	-6565
▁bankhdfc	-6566
▁diffrent	-6567
▁gurugram	-6568
▁maintain	-6569
▁position	-6570
▁candidate	-6571
▁neighbour	-6572
▁suspecting	-6573
▁organization	-6574
hhhhhhhhhhhhhhhh	-6575
erv	-6576
ism	-6577
uth	-6578
vai	-6579
▁hv	-6580
▁kg	-6581
onda	-6582
▁bur	-6583
▁gul	-6584
▁lge	-6585
▁pie	-6586
there	-6587
▁acqu	-6588
▁amer	-6589
▁craz	-6590
▁hoti	-6591
▁mass	-6592
▁stru	-6593
▁uspe	-6594
▁yash	-6595
gether	-6596
gnment	-6597
▁agony	-6598
▁arora	-6599
▁dausa	-6600
▁dhoka	-6601
▁grand	-6602
▁kirpa	-6603
▁micro	-6604
▁mujha	-6605
▁paiso	-6606
▁pleas	-6607
station	-6608
▁banker	-6609
▁design	-6610
▁moneyi	-6611
▁prompt	-6612
▁propos	-6613
▁karvaya	-6614
▁prarthi	-6615
▁santosh	-6616
▁benefits	-6617
▁complent	-6618
▁chaudhary	-6619
▁grievance	-6620
▁telephone	-6621
▁throughdebit	-6622
dc	-6623
oul	-6624
sin	-6625
▁mb	-6626
bbbb	-6627
ives	-6628
said	-6629
waya	-6630
▁ceo	-6631
obile	-6632
place	-6633
sense	-6634
union	-6635
▁darj	-6636
▁quer	-6637
▁warn	-6638
▁zero	-6639
respon	-6640
▁bahot	-6641
▁dhmki	-6642
▁kosam	-6643
▁uchit	-6644
ndering	-6645
▁losing	-6646
▁risted	-6647
▁solved	-6648
▁companys	-6649
▁critical	-6650
▁mahendra	-6651
▁petition	-6652
▁planning	-6653
▁apartment	-6654
▁assurance	-6655
▁chartered	-6656
▁merchants	-6657
▁transfers	-6658
▁protection	-6659
pc	-6660
zy	-6661
gan	-6662
ier	-6663
ior	-6664
▁dd	-6665
▁ev	-6666
▁tn	-6667
aise	-6668
atar	-6669
ersk	-6670
tery	-6671
▁aas	-6672
▁fcb	-6673
▁ghr	-6674
▁kad	-6675
▁meh	-6676
▁mun	-6677
harma	-6678
index	-6679
▁aate	-6680
▁ghaz	-6681
▁krdi	-6682
▁nath	-6683
▁offe	-6684
▁waps	-6685
▁death	-6686
▁jyoti	-6687
▁katra	-6688
▁kitne	-6689
▁phase	-6690
▁samne	-6691
▁typed	-6692
taining	-6693
▁extort	-6694
▁faroad	-6695
▁gautam	-6696
▁shrine	-6697
▁spoken	-6698
▁termin	-6699
▁thread	-6700
▁thrice	-6701
▁chauhan	-6702
▁offline	-6703
▁pension	-6704
▁placing	-6705
▁retired	-6706
▁snapchat	-6707
▁attempted	-6708
▁inspector	-6709
▁passwords	-6710
▁sensitive	-6711
▁background	-6712
▁statements	-6713
myshopifycom	-6714
▁communicate	-6715
▁shortlisted	-6716
gd	-6717
jw	-6718
ato	-6719
jjd	-6720
ole	-6721
yog	-6722
▁kl	-6723
plus	-6724
▁apk	-6725
▁muz	-6726
▁wit	-6727
ching	-6728
▁arti	-6729
▁bada	-6730
▁drop	-6731
▁mjhe	-6732
▁prey	-6733
▁rang	-6734
▁redu	-6735
▁reme	-6736
▁yahi	-6737
▁analy	-6738
▁banda	-6739
▁bhejo	-6740
▁crore	-6741
▁drive	-6742
▁dusri	-6743
▁jagah	-6744
▁jinke	-6745
▁madat	-6746
▁rashi	-6747
▁subah	-6748
▁young	-6749
resment	-6750
▁advise	-6751
▁kanpur	-6752
▁shares	-6753
▁shivam	-6754
▁tempor	-6755
yyyyyyyy	-6756
▁anybody	-6757
▁appreci	-6758
▁closing	-6759
▁prepaid	-6760
▁primary	-6761
▁shipped	-6762
▁observed	-6763
▁reversed	-6764
▁ghaziabad	-6765
▁jharkhand	-6766
▁executives	-6767
▁forwarding	-6768
▁ganganagar	-6769
gy	-6770
jk	-6771
mp	-6772
can	-6773
cup	-6774
suc	-6775
▁et	-6776
▁jh	-6777
▁mt	-6778
have	-6779
hini	-6780
just	-6781
oles	-6782
room	-6783
▁jew	-6784
hapur	-6785
▁nadu	-6786
akarta	-6787
outube	-6788
▁blood	-6789
▁brief	-6790
▁chale	-6791
▁compe	-6792
▁flash	-6793
▁logon	-6794
▁tweet	-6795
▁bahane	-6796
▁lawyer	-6797
▁naveen	-6798
▁pement	-6799
▁argopro	-6800
▁brought	-6801
▁logging	-6802
▁program	-6803
▁arranged	-6804
▁bhilwara	-6805
▁franchis	-6806
▁onstream	-6807
▁responsi	-6808
▁snapshot	-6809
▁vanished	-6810
yesbankltd	-6811
▁extremely	-6812
▁singapore	-6813
▁notifications	-6814
nau	-6815
sur	-6816
assy	-6817
emed	-6818
esho	-6819
love	-6820
vied	-6821
▁aab	-6822
▁bis	-6823
▁dhe	-6824
▁hid	-6825
feren	-6826
▁aged	-6827
▁asan	-6828
▁dalo	-6829
▁docs	-6830
▁trat	-6831
garwal	-6832
verted	-6833
▁acted	-6834
▁assum	-6835
▁bolke	-6836
▁deati	-6837
▁humse	-6838
▁inser	-6839
▁kosis	-6840
▁provo	-6841
▁stage	-6842
▁thief	-6843
▁aayega	-6844
▁canada	-6845
▁chaiye	-6846
▁cheste	-6847
▁defaul	-6848
▁kerala	-6849
▁kharid	-6850
▁listen	-6851
smishing	-6852
▁banakar	-6853
▁consequ	-6854
▁airlines	-6855
▁expenses	-6856
▁sunshine	-6857
▁transact	-6858
▁logistics	-6859
▁threatens	-6860
▁transafer	-6861
▁disbursement	-6862
jjs	-6863
nhi	-6864
urs	-6865
▁gy	-6866
▁kt	-6867
▁rf	-6868
many	-6869
orts	-6870
shit	-6871
ters	-6872
tune	-6873
vara	-6874
▁dan	-6875
▁goa	-6876
▁hay	-6877
▁nad	-6878
▁tya	-6879
rupee	-6880
sment	-6881
▁ansh	-6882
▁babu	-6883
▁ekyc	-6884
▁excu	-6885
▁idfb	-6886
▁june	-6887
▁mili	-6888
▁nega	-6889
▁nego	-6890
▁tool	-6891
▁banke	-6892
▁komal	-6893
▁subha	-6894
▁idtutr	-6895
▁neeraj	-6896
▁shukla	-6897
▁simple	-6898
▁winner	-6899
▁dropped	-6900
▁misguid	-6901
▁trasfer	-6902
▁whoever	-6903
▁malhotra	-6904
▁redirect	-6905
▁sanganer	-6906
▁bharatpur	-6907
▁comission	-6908
▁extension	-6909
▁harrassed	-6910
▁recipient	-6911
▁telangana	-6912
▁withdrawing	-6913
dom	-6914
iri	-6915
sage	-6916
star	-6917
▁amr	-6918
▁eff	-6919
▁gud	-6920
▁jas	-6921
▁jee	-6922
▁sac	-6923
▁upp	-6924
astra	-6925
round	-6926
world	-6927
▁bolo	-6928
▁cate	-6929
▁debt	-6930
▁nenu	-6931
▁bohot	-6932
▁sahil	-6933
▁trick	-6934
▁akshay	-6935
▁cradit	-6936
▁crimes	-6937
▁crores	-6938
▁naresh	-6939
googlecom	-6940
▁disclose	-6941
▁studying	-6942
▁adharcard	-6943
▁behaviour	-6944
▁fraudlent	-6945
▁operation	-6946
▁presently	-6947
▁chandigarh	-6948
▁dealership	-6949
▁physically	-6950
llllllllllllllll	-6951
lil	-6952
tik	-6953
▁rt	-6954
dist	-6955
waye	-6956
▁ala	-6957
▁ari	-6958
▁pah	-6959
▁sil	-6960
▁assi	-6961
▁bars	-6962
▁demo	-6963
▁empt	-6964
▁huya	-6965
▁jour	-6966
itails	-6967
▁chitt	-6968
▁derog	-6969
▁fifty	-6970
▁nodal	-6971
▁rajiv	-6972
▁varun	-6973
▁assure	-6974
▁bybank	-6975
▁himher	-6976
▁indigo	-6977
▁window	-6978
▁availed	-6979
▁googled	-6980
▁harrash	-6981
▁licence	-6982
▁operate	-6983
▁sources	-6984
▁tumhari	-6985
▁gambling	-6986
▁imposter	-6987
▁rajendra	-6988
▁spoiling	-6989
▁suitable	-6990
▁unfreeze	-6991
▁correctly	-6992
▁daughters	-6993
▁insulting	-6994
▁proceeded	-6995
▁advertising	-6996
▁enhancement	-6997
kumargmailcom	-6998
uv	-6999
akh	-7000
cit	-7001
llo	-7002
nai	-7003
olo	-7004
oof	-7005
▁dl	-7006
bric	-7007
cart	-7008
devi	-7009
jrat	-7010
kiya	-7011
▁btc	-7012
▁hav	-7013
▁kes	-7014
▁tds	-7015
esday	-7016
ukoni	-7017
ulant	-7018
▁ball	-7019
▁chak	-7020
▁flow	-7021
▁mani	-7022
▁siri	-7023
▁tarn	-7024
esting	-7025
phones	-7026
▁ahmad	-7027
▁phele	-7028
lection	-7029
▁advant	-7030
▁detals	-7031
▁forged	-7032
▁lesson	-7033
▁negoti	-7034
▁benefit	-7035
▁accuracy	-7036
▁debitted	-7037
▁sleeping	-7038
▁delhivery	-7039
▁jhunjhunu	-7040
▁vachindhi	-7041
▁derogatory	-7042
▁laundering	-7043
ax	-7044
mt	-7045
ury	-7046
erve	-7047
jfjf	-7048
jobs	-7049
mend	-7050
mere	-7051
rant	-7052
rist	-7053
▁dog	-7054
▁fab	-7055
▁gon	-7056
▁tap	-7057
alent	-7058
avail	-7059
bulls	-7060
estic	-7061
indhi	-7062
▁bach	-7063
▁pari	-7064
▁plss	-7065
▁scre	-7066
▁seem	-7067
▁slot	-7068
▁teli	-7069
▁vivo	-7070
hammed	-7071
upport	-7072
▁categ	-7073
▁dubey	-7074
▁grant	-7075
▁katne	-7076
▁laksh	-7077
▁major	-7078
▁friday	-7079
▁gujrat	-7080
▁labour	-7081
▁longer	-7082
▁meesho	-7083
▁odisha	-7084
▁requst	-7085
▁disable	-7086
▁include	-7087
▁masturb	-7088
▁pradhan	-7089
▁aggarwal	-7090
▁feedback	-7091
▁includes	-7092
▁normally	-7093
▁together	-7094
▁matrimony	-7095
▁whattsapp	-7096
▁complainted	-7097
▁intentionally	-7098
iku	-7099
jas	-7100
lig	-7101
nay	-7102
tar	-7103
tas	-7104
tup	-7105
▁jk	-7106
axis	-7107
khan	-7108
kota	-7109
rate	-7110
▁ais	-7111
▁lik	-7112
▁yrs	-7113
▁bair	-7114
▁chla	-7115
▁kish	-7116
orgarh	-7117
▁accom	-7118
▁bataa	-7119
▁chose	-7120
▁empty	-7121
▁fourd	-7122
▁garib	-7123
▁liked	-7124
▁print	-7125
▁spend	-7126
▁suman	-7127
▁thret	-7128
▁usane	-7129
▁warna	-7130
mailing	-7131
▁dobara	-7132
▁fiance	-7133
▁fraude	-7134
▁hidden	-7135
▁rajput	-7136
nnnnnnnn	-7137
▁harrase	-7138
▁kumawat	-7139
▁maximum	-7140
▁allowing	-7141
▁investor	-7142
▁ministry	-7143
▁refrance	-7144
▁released	-7145
▁sambandh	-7146
▁advantage	-7147
▁aforesaid	-7148
▁basically	-7149
▁converted	-7150
▁magicbric	-7151
▁connecting	-7152
▁financials	-7153
▁harrassment	-7154
rt	-7155
coz	-7156
oto	-7157
pol	-7158
sti	-7159
▁oh	-7160
aksh	-7161
ions	-7162
ksha	-7163
msvo	-7164
saan	-7165
▁ang	-7166
▁emb	-7167
▁hit	-7168
▁kus	-7169
▁muk	-7170
▁sas	-7171
oount	-7172
▁door	-7173
▁fing	-7174
▁rule	-7175
▁tune	-7176
eshwar	-7177
msvoip	-7178
▁instr	-7179
▁invol	-7180
▁liter	-7181
▁payee	-7182
▁rummy	-7183
▁socha	-7184
youtube	-7185
▁accont	-7186
▁finish	-7187
▁lalach	-7188
▁lostrs	-7189
▁sample	-7190
▁suchan	-7191
▁unkwon	-7192
▁changes	-7193
▁doubted	-7194
▁manjeet	-7195
▁offence	-7196
▁vacancy	-7197
▁duration	-7198
▁meplease	-7199
▁narendra	-7200
▁negative	-7201
▁xxxxxxxx	-7202
▁accessing	-7203
▁purchases	-7204
▁phonesmsvoip	-7205
amy	-7206
ira	-7207
log	-7208
met	-7209
try	-7210
udi	-7211
fill	-7212
ners	-7213
raft	-7214
waha	-7215
wayi	-7216
▁axa	-7217
▁lay	-7218
▁mem	-7219
▁mol	-7220
▁phr	-7221
▁sah	-7222
▁vad	-7223
gency	-7224
▁bear	-7225
▁crad	-7226
▁deke	-7227
▁deve	-7228
▁fold	-7229
▁hake	-7230
▁kist	-7231
▁maam	-7232
▁saja	-7233
▁unit	-7234
▁vast	-7235
bharat	-7236
vision	-7237
▁badna	-7238
▁clone	-7239
▁leads	-7240
▁metro	-7241
▁popup	-7242
itation	-7243
▁bharne	-7244
▁colour	-7245
▁maersk	-7246
▁mischi	-7247
▁nature	-7248
▁replay	-7249
ferences	-7250
whatsapp	-7251
▁decline	-7252
▁hangout	-7253
▁delaying	-7254
▁messeges	-7255
▁proposal	-7256
▁referred	-7257
▁acknowled	-7258
▁beginning	-7259
▁enclosing	-7260
▁hanumangarh	-7261
▁investments	-7262
▁communicated	-7263
▁informaction	-7264
▁vishingsmishing	-7265
kt	-7266
ene	-7267
hel	-7268
pnb	-7269
yat	-7270
▁bk	-7271
aker	-7272
athe	-7273
heri	-7274
itas	-7275
lore	-7276
post	-7277
uthu	-7278
▁fai	-7279
▁fit	-7280
▁krr	-7281
▁pus	-7282
▁rrn	-7283
▁thy	-7284
ademy	-7285
arpur	-7286
ators	-7287
eswar	-7288
itels	-7289
rying	-7290
thank	-7291
▁fair	-7292
▁foul	-7293
▁kaur	-7294
▁lete	-7295
▁lond	-7296
▁maga	-7297
▁muja	-7298
▁pamp	-7299
▁pann	-7300
▁prop	-7301
▁raja	-7302
▁saal	-7303
▁yaha	-7304
▁churu	-7305
▁dabit	-7306
▁deals	-7307
▁input	-7308
▁kriye	-7309
▁mughe	-7310
▁perpe	-7311
▁pskot	-7312
▁throu	-7313
▁tumhe	-7314
ressing	-7315
▁balaji	-7316
▁compal	-7317
▁debite	-7318
▁hisher	-7319
▁krenge	-7320
▁orange	-7321
▁presan	-7322
▁thirty	-7323
▁closure	-7324
▁complex	-7325
▁factory	-7326
▁hearing	-7327
▁kuldeep	-7328
▁loosing	-7329
▁queries	-7330
▁renewal	-7331
▁shubham	-7332
▁disburse	-7333
▁domestic	-7334
▁extorted	-7335
▁separate	-7336
▁tortured	-7337
▁intrested	-7338
▁permanent	-7339
▁scrolling	-7340
▁verifying	-7341
▁maharastra	-7342
▁misleading	-7343
▁submission	-7344
▁magicbricks	-7345
▁suchnakarta	-7346
kkkkkkkkkkkkkkkk	-7347
eep	-7348
ril	-7349
wai	-7350
anda	-7351
bbed	-7352
bles	-7353
dish	-7354
dwar	-7355
ghar	-7356
html	-7357
onam	-7358
page	-7359
vahi	-7360
▁ati	-7361
▁dry	-7362
▁kiy	-7363
▁pee	-7364
▁tit	-7365
preet	-7366
shali	-7367
vadam	-7368
▁dege	-7369
▁dwar	-7370
▁kart	-7371
▁keya	-7372
▁oder	-7373
▁pich	-7374
▁push	-7375
▁shes	-7376
▁teri	-7377
▁unna	-7378
▁whos	-7379
iction	-7380
▁green	-7381
▁laxmi	-7382
▁remar	-7383
▁shock	-7384
▁arvind	-7385
▁gained	-7386
▁naming	-7387
igration	-7388
jjjjjjjj	-7389
qqqqqqqq	-7390
▁analyst	-7391
▁bhejkar	-7392
▁confron	-7393
▁planned	-7394
▁transid	-7395
▁unavail	-7396
▁fraudent	-7397
▁medicine	-7398
▁numerous	-7399
▁offender	-7400
▁recorder	-7401
▁remember	-7402
▁trusting	-7403
▁bankunion	-7404
▁franchise	-7405
▁objection	-7406
▁upigoogle	-7407
▁continuing	-7408
▁replacement	-7409
▁consequences	-7410
▁consideration	-7411
dit	-7412
gam	-7413
▁az	-7414
▁pp	-7415
citm	-7416
dial	-7417
gned	-7418
maam	-7419
sthe	-7420
▁bay	-7421
▁jad	-7422
▁luc	-7423
▁sap	-7424
▁tin	-7425
hical	-7426
▁agra	-7427
▁asha	-7428
▁bcoz	-7429
▁ldki	-7430
▁meer	-7431
▁mynt	-7432
▁shif	-7433
icious	-7434
rative	-7435
▁amont	-7436
▁baare	-7437
▁blank	-7438
▁cloud	-7439
▁defin	-7440
▁kyuki	-7441
▁lists	-7442
▁remit	-7443
▁speed	-7444
▁surya	-7445
▁thoda	-7446
▁vidio	-7447
▁bazaar	-7448
▁dimand	-7449
▁madhya	-7450
▁materi	-7451
oooooooo	-7452
▁capture	-7453
▁falsely	-7454
▁lifting	-7455
▁saurabh	-7456
▁schedul	-7457
▁category	-7458
▁handling	-7459
▁mohammed	-7460
▁operated	-7461
▁repaying	-7462
▁snapdeal	-7463
▁srivasta	-7464
▁transpor	-7465
▁coustomer	-7466
▁immediatly	-7467
▁consignment	-7468
▁responsibility	-7469
oz	-7470
del	-7471
lnd	-7472
mix	-7473
ons	-7474
▁ii	-7475
emic	-7476
lant	-7477
lder	-7478
ndar	-7479
sain	-7480
stri	-7481
▁apl	-7482
▁glt	-7483
▁jao	-7484
▁tau	-7485
anced	-7486
anpur	-7487
puram	-7488
▁buss	-7489
▁dali	-7490
▁mint	-7491
▁pote	-7492
▁wifi	-7493
akumar	-7494
sident	-7495
▁bolne	-7496
▁equip	-7497
▁field	-7498
▁insuf	-7499
▁kardo	-7500
▁lying	-7501
▁royal	-7502
▁sayta	-7503
▁sells	-7504
▁abroad	-7505
▁appare	-7506
▁bairwa	-7507
▁conven	-7508
▁finali	-7509
▁forget	-7510
▁kalyan	-7511
▁kredit	-7512
▁mahine	-7513
▁notify	-7514
▁ranjan	-7515
▁ayurved	-7516
▁dresses	-7517
▁farodar	-7518
▁karwane	-7519
▁perpetr	-7520
▁reflect	-7521
▁subhash	-7522
▁deitails	-7523
▁operator	-7524
▁publicly	-7525
▁accountant	-7526
▁employment	-7527
▁experience	-7528
▁publishing	-7529
▁references	-7530
▁misbehaving	-7531
meenagmailcom	-7532
▁compensation	-7533
▁summarysuchna	-7534
wr	-7535
das	-7536
lie	-7537
men	-7538
ppy	-7539
rec	-7540
ste	-7541
tem	-7542
win	-7543
▁hp	-7544
▁ik	-7545
aced	-7546
anto	-7547
cker	-7548
inch	-7549
kdkd	-7550
rage	-7551
▁fet	-7552
▁ibl	-7553
▁maz	-7554
alled	-7555
enced	-7556
gnity	-7557
harge	-7558
inity	-7559
vatha	-7560
▁bech	-7561
▁buis	-7562
▁guru	-7563
▁jaha	-7564
▁jhot	-7565
▁mpin	-7566
▁ragh	-7567
▁rish	-7568
▁stor	-7569
▁vale	-7570
▁dosto	-7571
▁dvara	-7572
▁farid	-7573
▁lower	-7574
▁monet	-7575
▁mount	-7576
▁notes	-7577
▁teach	-7578
▁unlaw	-7579
▁varna	-7580
▁appear	-7581
▁bother	-7582
▁dialed	-7583
▁finger	-7584
▁idnahi	-7585
▁london	-7586
▁mandal	-7587
▁rajeev	-7588
▁speech	-7589
▁agrawal	-7590
▁anytime	-7591
▁deatils	-7592
▁extract	-7593
▁hardear	-7594
▁helpful	-7595
▁karwaye	-7596
▁pressed	-7597
▁assuring	-7598
▁families	-7599
▁maturity	-7600
▁pandemic	-7601
▁scolding	-7602
▁difficult	-7603
▁disjaipur	-7604
▁indusland	-7605
▁instragram	-7606
▁amountrupay	-7607
harmagmailcom	-7608
▁insufficient	-7609
xs	-7610
him	-7611
▁ib	-7612
gest	-7613
ofof	-7614
oter	-7615
rned	-7616
shal	-7617
▁gov	-7618
▁jim	-7619
again	-7620
medar	-7621
sadar	-7622
sters	-7623
▁agin	-7624
▁bele	-7625
▁effe	-7626
▁fare	-7627
▁grow	-7628
▁leta	-7629
active	-7630
onoise	-7631
▁btyaa	-7632
▁bulls	-7633
▁dekhi	-7634
▁haras	-7635
▁hazar	-7636
▁jakar	-7637
▁kiran	-7638
▁shiva	-7639
▁shuru	-7640
cessful	-7641
▁ansari	-7642
▁karega	-7643
▁miscre	-7644
▁myntra	-7645
▁ravind	-7646
▁rohini	-7647
▁sevent	-7648
chaincom	-7649
▁cheyaga	-7650
▁dealing	-7651
▁dignity	-7652
▁embassy	-7653
▁fortune	-7654
▁luckily	-7655
▁payback	-7656
▁serving	-7657
▁surfing	-7658
▁uniform	-7659
▁wanrned	-7660
▁haridwar	-7661
▁nonsense	-7662
▁postpaid	-7663
▁redeemed	-7664
▁intimated	-7665
▁troubling	-7666
▁convincing	-7667
▁hardearned	-7668
▁investigated	-7669
▁disconnecting	-7670
cr	-7671
wy	-7672
atm	-7673
dau	-7674
hya	-7675
jat	-7676
yad	-7677
▁oo	-7678
anki	-7679
bhav	-7680
cail	-7681
gets	-7682
ligh	-7683
urai	-7684
vish	-7685
well	-7686
will	-7687
▁gun	-7688
▁kru	-7689
▁kse	-7690
▁siv	-7691
▁thn	-7692
▁vdo	-7693
inchi	-7694
pemix	-7695
stapp	-7696
▁blac	-7697
▁inki	-7698
▁jldi	-7699
▁kore	-7700
▁kush	-7701
▁roll	-7702
▁vari	-7703
▁vege	-7704
alling	-7705
orting	-7706
timepm	-7707
▁accel	-7708
▁ayush	-7709
▁balck	-7710
▁bapas	-7711
▁disgu	-7712
▁gonna	-7713
▁hmara	-7714
▁legit	-7715
▁rahaa	-7716
▁bataye	-7717
▁chandr	-7718
▁lagega	-7719
▁nikale	-7720
▁owners	-7721
▁quicks	-7722
▁ruppee	-7723
▁scenar	-7724
▁thanku	-7725
▁vikash	-7726
leground	-7727
▁advisor	-7728
▁blindly	-7729
▁doesnot	-7730
▁sanjeev	-7731
▁sirmaam	-7732
▁bathroom	-7733
▁damaging	-7734
▁frauding	-7735
▁thoughts	-7736
angmailcom	-7737
▁materials	-7738
▁placement	-7739
▁commenting	-7740
▁questioned	-7741
▁timepmdate	-7742
▁continuesly	-7743
▁distributor	-7744
▁representing	-7745
ix	-7746
azy	-7747
ben	-7748
car	-7749
inv	-7750
lya	-7751
nde	-7752
ohi	-7753
▁km	-7754
bsbs	-7755
http	-7756
iiii	-7757
inal	-7758
inge	-7759
shad	-7760
uman	-7761
ural	-7762
▁ame	-7763
▁cic	-7764
▁emp	-7765
▁hub	-7766
▁idi	-7767
▁jma	-7768
▁khi	-7769
▁krv	-7770
▁mac	-7771
▁meg	-7772
▁nmm	-7773
▁oil	-7774
▁phi	-7775
▁tym	-7776
▁vle	-7777
pting	-7778
yahoo	-7779
▁anti	-7780
▁bagh	-7781
▁jang	-7782
▁lane	-7783
▁nice	-7784
▁sain	-7785
▁sult	-7786
kishan	-7787
▁april	-7788
▁blued	-7789
▁couri	-7790
▁duara	-7791
▁joint	-7792
▁marne	-7793
▁plate	-7794
▁shehe	-7795
▁stamp	-7796
▁truly	-7797
▁ankita	-7798
▁contro	-7799
▁copies	-7800
▁fellow	-7801
▁humili	-7802
▁mostly	-7803
▁regret	-7804
▁reject	-7805
▁summry	-7806
▁unless	-7807
jdjdjdjd	-7808
pppppppp	-7809
▁collage	-7810
▁daitels	-7811
▁facbook	-7812
▁jagdish	-7813
▁kardiya	-7814
▁numberi	-7815
▁settled	-7816
▁tracked	-7817
▁frauders	-7818
▁launched	-7819
▁tourcher	-7820
▁distalwar	-7821
▁literally	-7822
▁malicious	-7823
▁unavailable	-7824
▁vaccination	-7825
▁amountrsdate	-7826
▁conformation	-7827
▁authorization	-7828
▁clarification	-7829
▁abovementioned	-7830
ca	-7831
hg	-7832
mr	-7833
boo	-7834
job	-7835
nny	-7836
ulo	-7837
yle	-7838
▁pt	-7839
▁rk	-7840
alla	-7841
asar	-7842
azir	-7843
bill	-7844
gust	-7845
ilty	-7846
wami	-7847
▁ase	-7848
▁pey	-7849
▁sax	-7850
lawar	-7851
▁aahe	-7852
▁aslo	-7853
▁badi	-7854
▁chek	-7855
▁hurt	-7856
▁kela	-7857
▁urge	-7858
▁zoom	-7859
▁bharo	-7860
▁cantt	-7861
▁ghant	-7862
▁greed	-7863
▁humar	-7864
▁karun	-7865
▁movie	-7866
▁rakhi	-7867
▁refri	-7868
▁sinha	-7869
▁solar	-7870
▁usske	-7871
▁againt	-7872
▁banaya	-7873
▁chance	-7874
▁corona	-7875
▁hemant	-7876
▁humare	-7877
▁lagaya	-7878
▁nation	-7879
▁pinged	-7880
▁pramod	-7881
▁transl	-7882
▁vicitm	-7883
▁vishnu	-7884
jejejeje	-7885
official	-7886
▁anurodh	-7887
▁defence	-7888
▁freinds	-7889
▁inspite	-7890
▁jarurat	-7891
▁shivani	-7892
▁channels	-7893
▁highligh	-7894
▁managing	-7895
▁guarantee	-7896
▁targeting	-7897
▁displaying	-7898
▁indiabulls	-7899
▁understanding	-7900
pf	-7901
agi	-7902
cip	-7903
eel	-7904
jam	-7905
tri	-7906
▁hs	-7907
aisa	-7908
ault	-7909
base	-7910
iche	-7911
itha	-7912
upid	-7913
▁ach	-7914
▁awa	-7915
▁bje	-7916
▁cct	-7917
▁eur	-7918
▁pam	-7919
▁psb	-7920
angal	-7921
anshi	-7922
aunga	-7923
going	-7924
▁gaon	-7925
▁kani	-7926
▁krva	-7927
▁pree	-7928
▁thaa	-7929
▁tonk	-7930
indian	-7931
jendra	-7932
rement	-7933
safter	-7934
▁agile	-7935
▁cicag	-7936
▁girlf	-7937
▁malvi	-7938
▁merko	-7939
▁umesh	-7940
▁admins	-7941
▁andulo	-7942
▁aniket	-7943
▁dhokha	-7944
▁lastly	-7945
▁mantri	-7946
▁native	-7947
▁vedios	-7948
▁badnaam	-7949
▁hanuman	-7950
▁koshish	-7951
▁promote	-7952
▁session	-7953
▁becoming	-7954
▁guidance	-7955
▁induslnd	-7956
▁infotech	-7957
▁resulted	-7958
▁validity	-7959
▁pskotwali	-7960
▁definitely	-7961
▁freecharge	-7962
▁petitioner	-7963
▁individuals	-7964
db	-7965
jn	-7966
xp	-7967
ais	-7968
bee	-7969
bel	-7970
clu	-7971
dha	-7972
ica	-7973
ins	-7974
tle	-7975
umb	-7976
vik	-7977
▁mg	-7978
▁ze	-7979
tric	-7980
vill	-7981
vvvv	-7982
▁ara	-7983
▁aro	-7984
▁jac	-7985
▁lud	-7986
▁nec	-7987
▁uid	-7988
▁yha	-7989
ining	-7990
krish	-7991
olpur	-7992
outed	-7993
▁annu	-7994
▁ante	-7995
▁lift	-7996
▁naya	-7997
▁nikl	-7998
▁nose	-7999
▁pump	-8000
▁clips	-8001
▁creat	-8002
▁embar	-8003
▁heart	-8004
▁motor	-8005
▁shift	-8006
▁tirup	-8007
gerator	-8008
▁dwarka	-8009
▁garden	-8010
▁handed	-8011
▁karege	-8012
▁monika	-8013
▁politi	-8014
▁unlock	-8015
▁whatup	-8016
▁airline	-8017
▁disgust	-8018
▁gonoise	-8019
▁invited	-8020
▁locanto	-8021
▁quicker	-8022
▁telecom	-8023
▁wedding	-8024
▁bluedart	-8025
▁expected	-8026
▁himanshu	-8027
▁husbands	-8028
▁recevied	-8029
▁reletive	-8030
▁revealed	-8031
▁situated	-8032
▁admission	-8033
▁corporate	-8034
▁misguided	-8035
▁confronted	-8036
▁educational	-8037
▁battleground	-8038
▁authorisation	-8039
▁communicating	-8040
oi	-8041
oy	-8042
uc	-8043
apa	-8044
gus	-8045
ima	-8046
kld	-8047
rai	-8048
sen	-8049
cust	-8050
kfkf	-8051
plot	-8052
▁bcz	-8053
▁bun	-8054
▁cot	-8055
▁cyl	-8056
▁gos	-8057
▁sne	-8058
aniki	-8059
aning	-8060
aurya	-8061
ester	-8062
inter	-8063
sthen	-8064
▁bond	-8065
▁clue	-8066
▁fhir	-8067
▁kseb	-8068
▁lure	-8069
▁maal	-8070
▁noon	-8071
▁prot	-8072
▁stri	-8073
▁ulta	-8074
▁ulti	-8075
native	-8076
▁arjun	-8077
▁chori	-8078
▁comap	-8079
▁damki	-8080
▁divya	-8081
▁dummy	-8082
▁ganga	-8083
▁goyal	-8084
▁gstin	-8085
▁human	-8086
▁lagta	-8087
▁mehta	-8088
▁raman	-8089
▁rapid	-8090
▁recti	-8091
▁sawai	-8092
▁steel	-8093
▁unsuc	-8094
▁uspar	-8095
▁karthi	-8096
▁limits	-8097
▁mangne	-8098
▁pathak	-8099
▁repair	-8100
▁sameer	-8101
▁uthaya	-8102
gamilcom	-8103
▁bypaytm	-8104
▁equitas	-8105
▁pssadar	-8106
▁reports	-8107
▁shoping	-8108
▁younger	-8109
▁banglore	-8110
▁buisness	-8111
▁gmailcom	-8112
▁landline	-8113
▁particip	-8114
▁rajkumar	-8115
▁scenario	-8116
▁srinivas	-8117
▁stressed	-8118
▁countries	-8119
▁discounts	-8120
▁correction	-8121
▁girlfriend	-8122
▁irritating	-8123
▁distjodhpur	-8124
▁electronics	-8125
▁transations	-8126
▁certificates	-8127
▁customercare	-8128
▁investigating	-8129
fh	-8130
dhi	-8131
ere	-8132
oti	-8133
tty	-8134
▁dm	-8135
▁ds	-8136
▁nt	-8137
▁pf	-8138
achi	-8139
aper	-8140
odod	-8141
ored	-8142
soft	-8143
▁bid	-8144
▁dbs	-8145
▁deg	-8146
▁gop	-8147
▁khu	-8148
▁lok	-8149
▁ped	-8150
▁ray	-8151
▁vag	-8152
▁viz	-8153
▁zom	-8154
chent	-8155
hoday	-8156
icies	-8157
uster	-8158
watch	-8159
▁acno	-8160
▁agle	-8161
▁apol	-8162
▁bate	-8163
▁cctv	-8164
▁chhe	-8165
▁gare	-8166
▁jais	-8167
▁kala	-8168
▁miku	-8169
▁rfid	-8170
▁sedu	-8171
▁unre	-8172
▁unsa	-8173
▁alone	-8174
▁anita	-8175
▁ekart	-8176
▁faurd	-8177
▁gradu	-8178
▁kapde	-8179
▁kraya	-8180
▁udhar	-8181
▁usake	-8182
▁affect	-8183
▁bigger	-8184
▁blocks	-8185
▁chahte	-8186
▁expect	-8187
▁guilty	-8188
▁hogaya	-8189
▁kapoor	-8190
▁luring	-8191
▁nagour	-8192
▁prathi	-8193
▁rupiya	-8194
▁slowly	-8195
▁swiped	-8196
indiacom	-8197
▁alpemix	-8198
▁leaking	-8199
▁listing	-8200
▁ruppees	-8201
▁suppose	-8202
▁urgency	-8203
▁policies	-8204
▁retailer	-8205
▁cooperate	-8206
▁faridabad	-8207
▁potential	-8208
▁quotation	-8209
▁scheduled	-8210
▁cheyamante	-8211
▁committing	-8212
▁allegations	-8213
▁introducing	-8214
▁quicksupport	-8215
bud	-8216
col	-8217
dis	-8218
fed	-8219
iss	-8220
lai	-8221
muk	-8222
nap	-8223
▁dc	-8224
▁kn	-8225
▁lt	-8226
▁nm	-8227
aman	-8228
angi	-8229
ansh	-8230
anya	-8231
bani	-8232
hoot	-8233
isis	-8234
tsup	-8235
vata	-8236
▁eve	-8237
▁iru	-8238
▁jae	-8239
▁jaw	-8240
▁lut	-8241
▁oyo	-8242
▁pde	-8243
▁roz	-8244
gging	-8245
iable	-8246
sthan	-8247
▁agen	-8248
▁ajit	-8249
▁fort	-8250
▁garg	-8251
▁inti	-8252
▁jeet	-8253
▁khol	-8254
▁laws	-8255
▁mehe	-8256
▁resp	-8257
▁revi	-8258
▁skta	-8259
▁veer	-8260
acting	-8261
ardhan	-8262
▁milne	-8263
▁rajat	-8264
▁raped	-8265
▁sathi	-8266
▁sunny	-8267
▁swift	-8268
▁water	-8269
contact	-8270
▁bansal	-8271
▁cloths	-8272
▁lokesh	-8273
▁wholes	-8274
▁acoount	-8275
▁addresh	-8276
▁belived	-8277
▁billing	-8278
▁cheaper	-8279
▁dikhaya	-8280
▁enabled	-8281
▁fishing	-8282
▁fraudly	-8283
▁gadgets	-8284
▁havenot	-8285
▁inorder	-8286
▁rahunga	-8287
▁secured	-8288
▁dhamkiya	-8289
▁justdial	-8290
▁mistakes	-8291
▁prajapat	-8292
▁tripathi	-8293
▁bengaluru	-8294
▁bussiness	-8295
▁commented	-8296
▁correspon	-8297
▁suspicion	-8298
▁terrorist	-8299
▁disgusting	-8300
▁engineering	-8301
▁fraudgoogle	-8302
eeeeeeeeeeeeeeee	-8303
iy	-8304
uw	-8305
ell	-8306
hew	-8307
nav	-8308
ode	-8309
vat	-8310
wed	-8311
▁vr	-8312
▁yh	-8313
ager	-8314
gniz	-8315
heda	-8316
ires	-8317
look	-8318
▁aag	-8319
▁aor	-8320
▁cpp	-8321
▁daw	-8322
▁lap	-8323
▁las	-8324
▁los	-8325
▁nak	-8326
▁nim	-8327
▁ros	-8328
▁swe	-8329
▁uno	-8330
anasi	-8331
inash	-8332
mohan	-8333
share	-8334
wahar	-8335
▁aati	-8336
▁alam	-8337
▁bhav	-8338
▁cone	-8339
▁dead	-8340
▁hero	-8341
▁span	-8342
▁trns	-8343
arshan	-8344
aurant	-8345
ceeded	-8346
ounced	-8347
ursday	-8348
▁ayega	-8349
▁basti	-8350
▁broad	-8351
▁crazy	-8352
▁encry	-8353
▁farji	-8354
▁jaega	-8355
▁khali	-8356
▁needy	-8357
▁numbe	-8358
▁panch	-8359
▁probl	-8360
▁redmi	-8361
▁utter	-8362
alities	-8363
product	-8364
vention	-8365
▁consum	-8366
▁detial	-8367
▁gurjar	-8368
▁harish	-8369
▁insult	-8370
▁karoli	-8371
▁ninety	-8372
▁remind	-8373
▁shaikh	-8374
▁tensed	-8375
dddddddd	-8376
indusind	-8377
▁bandhan	-8378
▁concent	-8379
▁discord	-8380
▁doubled	-8381
▁forgery	-8382
▁imobile	-8383
▁xxxxxxx	-8384
▁advanced	-8385
▁cashfree	-8386
▁constant	-8387
▁flipcart	-8388
▁fraulant	-8389
▁thorough	-8390
▁thursday	-8391
▁tollfree	-8392
▁equipment	-8393
▁scratched	-8394
▁selection	-8395
walgmailcom	-8396
▁suggestion	-8397
▁alternative	-8398
▁approaching	-8399
▁transfering	-8400
nk	-8401
rr	-8402
bic	-8403
ept	-8404
gad	-8405
hna	-8406
hop	-8407
img	-8408
pir	-8409
sid	-8410
zer	-8411
▁cs	-8412
aunt	-8413
ieie	-8414
sare	-8415
till	-8416
usal	-8417
▁ami	-8418
▁bou	-8419
▁dnt	-8420
▁fif	-8421
▁ket	-8422
▁moh	-8423
▁nid	-8424
▁rom	-8425
ariya	-8426
ision	-8427
login	-8428
▁aana	-8429
▁adds	-8430
▁argo	-8431
▁beji	-8432
▁coim	-8433
▁dara	-8434
▁hath	-8435
▁hona	-8436
▁lazy	-8437
▁mama	-8438
▁meme	-8439
▁rupy	-8440
▁sahu	-8441
▁sbhi	-8442
▁sons	-8443
▁sony	-8444
▁sukh	-8445
aearth	-8446
okaxis	-8447
person	-8448
ultane	-8449
▁began	-8450
▁frist	-8451
▁haked	-8452
▁hamse	-8453
▁jitna	-8454
▁nikla	-8455
▁reven	-8456
▁sahoo	-8457
▁shirt	-8458
▁tired	-8459
▁unpar	-8460
▁walle	-8461
▁bhejte	-8462
▁cloned	-8463
▁extrac	-8464
▁preeti	-8465
▁region	-8466
▁resour	-8467
▁rudely	-8468
▁saxena	-8469
▁scrach	-8470
▁shirts	-8471
▁shopee	-8472
▁tenant	-8473
▁betting	-8474
▁biggest	-8475
▁cloning	-8476
▁example	-8477
▁forever	-8478
▁karwahi	-8479
▁karwayi	-8480
▁lagbhag	-8481
▁mainten	-8482
▁manisha	-8483
▁acrescom	-8484
▁diverted	-8485
▁downlode	-8486
▁frequent	-8487
▁madhopur	-8488
▁mischief	-8489
▁stopping	-8490
▁bankicici	-8491
▁disappoin	-8492
▁mamaearth	-8493
▁massenger	-8494
▁phonebook	-8495
▁prajapati	-8496
▁generation	-8497
▁considering	-8498
▁additionally	-8499
▁refrigerator	-8500
▁unsuccessful	-8501
aza	-8502
ogh	-8503
ovy	-8504
▁sd	-8505
ache	-8506
alli	-8507
auli	-8508
ksbi	-8509
rass	-8510
rial	-8511
trip	-8512
▁dai	-8513
▁dee	-8514
▁ipo	-8515
▁kin	-8516
▁nas	-8517
▁sag	-8518
▁sey	-8519
▁tis	-8520
inlaw	-8521
mited	-8522
right	-8523
▁bulk	-8524
▁dede	-8525
▁dera	-8526
▁dile	-8527
▁eske	-8528
▁ghat	-8529
▁hole	-8530
▁icon	-8531
▁rtgs	-8532
▁unet	-8533
barmer	-8534
batore	-8535
mendra	-8536
pendra	-8537
▁anjan	-8538
▁baate	-8539
▁carry	-8540
▁forty	-8541
▁haior	-8542
▁hands	-8543
▁kehta	-8544
▁magar	-8545
▁opted	-8546
▁redem	-8547
▁sabse	-8548
▁sonam	-8549
▁white	-8550
▁airpod	-8551
▁cogniz	-8552
▁coupan	-8553
▁eighty	-8554
▁hanged	-8555
▁harash	-8556
▁impact	-8557
▁motive	-8558
▁soures	-8559
▁speaks	-8560
▁whatas	-8561
nsnsnsns	-8562
▁fraudre	-8563
▁nikalne	-8564
▁printer	-8565
▁results	-8566
▁travels	-8567
▁warrant	-8568
▁acquaint	-8569
▁administ	-8570
▁carrying	-8571
▁chepparu	-8572
▁creation	-8573
▁educated	-8574
▁learning	-8575
▁religion	-8576
▁vaishali	-8577
▁cellphone	-8578
▁cybercell	-8579
▁financail	-8580
▁involving	-8581
▁karyawahi	-8582
▁similarly	-8583
▁simultane	-8584
transaction	-8585
▁cancelling	-8586
▁conference	-8587
▁credential	-8588
▁defamation	-8589
▁electrical	-8590
▁smartphone	-8591
▁victimized	-8592
▁development	-8593
▁institution	-8594
▁temporarily	-8595
aap	-8596
aus	-8597
kls	-8598
mod	-8599
ndu	-8600
orp	-8601
rid	-8602
vad	-8603
▁iv	-8604
▁rh	-8605
agal	-8606
fact	-8607
ible	-8608
raha	-8609
saap	-8610
uram	-8611
wati	-8612
▁asa	-8613
▁baj	-8614
▁ing	-8615
▁jod	-8616
▁rub	-8617
▁sis	-8618
▁snd	-8619
▁tro	-8620
alpur	-8621
oksbi	-8622
wakar	-8623
▁beac	-8624
▁curi	-8625
▁ebay	-8626
▁emis	-8627
▁enro	-8628
▁indu	-8629
▁jink	-8630
▁meen	-8631
▁owns	-8632
▁rkha	-8633
▁roop	-8634
▁tang	-8635
akhand	-8636
samand	-8637
▁abhin	-8638
▁autom	-8639
▁cheak	-8640
▁desig	-8641
▁disst	-8642
▁immed	-8643
▁kajal	-8644
▁marud	-8645
▁pharm	-8646
▁pound	-8647
▁puppy	-8648
▁regul	-8649
▁sahar	-8650
pincode	-8651
udaipur	-8652
▁adjust	-8653
▁artist	-8654
▁mahila	-8655
▁maurya	-8656
▁nikhil	-8657
▁nomber	-8658
▁openly	-8659
▁paypal	-8660
▁relief	-8661
▁rushed	-8662
▁uplode	-8663
▁withdr	-8664
▁captain	-8665
▁fulfill	-8666
▁isiliye	-8667
▁mahoday	-8668
▁restric	-8669
▁storage	-8670
complaint	-8671
▁httpstme	-8672
▁incorpor	-8673
▁instgram	-8674
▁jhalawar	-8675
▁jhotwara	-8676
▁panicked	-8677
▁receipts	-8678
▁teligram	-8679
▁tirupati	-8680
▁unlawful	-8681
▁wrongful	-8682
youtubecom	-8683
▁appearing	-8684
▁disclosed	-8685
▁promoting	-8686
▁coimbatore	-8687
▁discussing	-8688
▁restaurant	-8689
▁maintenance	-8690
▁represented	-8691
▁residential	-8692
▁authenticity	-8693
▁objectionable	-8694
iu	-8695
jc	-8696
nm	-8697
dam	-8698
ost	-8699
ots	-8700
pya	-8701
uct	-8702
wak	-8703
xyz	-8704
▁qs	-8705
bhat	-8706
cles	-8707
dala	-8708
gang	-8709
lity	-8710
pass	-8711
tsap	-8712
user	-8713
yush	-8714
▁abb	-8715
▁cin	-8716
▁hal	-8717
▁paa	-8718
▁pil	-8719
▁psm	-8720
▁rum	-8721
▁sav	-8722
▁trf	-8723
▁unn	-8724
achal	-8725
▁atul	-8726
▁aunt	-8727
▁cafe	-8728
▁cele	-8729
▁drug	-8730
▁eska	-8731
▁exec	-8732
▁fone	-8733
▁halp	-8734
▁hmse	-8735
▁jake	-8736
▁kaun	-8737
▁leya	-8738
▁mena	-8739
▁pink	-8740
▁prog	-8741
▁quar	-8742
▁role	-8743
▁tera	-8744
▁usna	-8745
▁vala	-8746
▁wahi	-8747
angers	-8748
antime	-8749
▁behje	-8750
▁bills	-8751
▁hmari	-8752
▁mainu	-8753
▁manuf	-8754
▁moved	-8755
▁shout	-8756
▁space	-8757
acation	-8758
▁activa	-8759
▁citing	-8760
▁debits	-8761
▁detile	-8762
▁dhanya	-8763
▁doller	-8764
▁ghante	-8765
▁indeed	-8766
▁kendra	-8767
▁launch	-8768
▁matlad	-8769
▁motors	-8770
▁payout	-8771
▁ranchi	-8772
▁roshan	-8773
▁samajh	-8774
▁scamer	-8775
▁string	-8776
▁tagged	-8777
anananan	-8778
ukunnaru	-8779
▁creates	-8780
▁discuss	-8781
▁hussain	-8782
▁measure	-8783
▁posible	-8784
▁refunds	-8785
▁remarks	-8786
▁seventy	-8787
▁shortly	-8788
▁codepunb	-8789
▁doubling	-8790
▁karwakar	-8791
▁minister	-8792
▁shocking	-8793
▁vachindi	-8794
▁awareness	-8795
▁blacklist	-8796
▁lucrative	-8797
▁mandatory	-8798
▁resolving	-8799
▁harresment	-8800
▁possession	-8801
▁chittorgarh	-8802
▁cooperation	-8803
▁playstation	-8804
▁intervention	-8805
▁transcations	-8806
▁communications	-8807
amu	-8808
cas	-8809
rer	-8810
ris	-8811
sec	-8812
waj	-8813
▁pn	-8814
▁yr	-8815
ales	-8816
ggle	-8817
gure	-8818
ithe	-8819
ivan	-8820
mark	-8821
ubin	-8822
▁boi	-8823
▁bsf	-8824
▁hem	-8825
▁kut	-8826
▁ppl	-8827
▁pul	-8828
▁tvs	-8829
▁ves	-8830
akesh	-8831
cycle	-8832
front	-8833
gmail	-8834
shaan	-8835
uddin	-8836
vices	-8837
▁alok	-8838
▁anuj	-8839
▁cbin	-8840
▁clik	-8841
▁deya	-8842
▁diam	-8843
▁ganj	-8844
▁garh	-8845
▁hein	-8846
▁huva	-8847
▁lekr	-8848
▁ride	-8849
▁taka	-8850
airtel	-8851
ancial	-8852
arding	-8853
bution	-8854
pected	-8855
rendra	-8856
▁advis	-8857
▁allot	-8858
▁brain	-8859
▁dharm	-8860
▁estab	-8861
▁explo	-8862
▁facts	-8863
▁meand	-8864
▁noted	-8865
▁onlin	-8866
▁setup	-8867
▁surve	-8868
▁survi	-8869
▁toler	-8870
▁virus	-8871
▁voter	-8872
▁yojna	-8873
ometric	-8874
▁chesta	-8875
▁expose	-8876
▁forpay	-8877
▁golden	-8878
▁khatun	-8879
▁mayank	-8880
▁medium	-8881
▁numbar	-8882
▁parson	-8883
▁prakar	-8884
▁rented	-8885
▁rupeey	-8886
▁scamed	-8887
▁sirohi	-8888
▁untill	-8889
▁vulgur	-8890
amountrs	-8891
cccccccc	-8892
▁alerted	-8893
▁battery	-8894
▁chesadu	-8895
▁cutting	-8896
▁feature	-8897
▁harmful	-8898
▁lagatar	-8899
▁perfect	-8900
▁reactiv	-8901
▁rectify	-8902
▁sampark	-8903
▁solving	-8904
▁supervi	-8905
▁assuming	-8906
▁bygoogle	-8907
▁cheaters	-8908
▁codehdfc	-8909
▁cylinder	-8910
▁earnings	-8911
▁finished	-8912
▁garments	-8913
▁infinity	-8914
▁kharidne	-8915
▁kolhapur	-8916
▁meantime	-8917
▁monetary	-8918
▁strictly	-8919
▁varanasi	-8920
▁defaulter	-8921
▁massaging	-8922
▁political	-8923
▁religious	-8924
▁srivastava	-8925
▁highlighted	-8926
▁todayplease	-8927
gf	-8928
jv	-8929
gya	-8930
kul	-8931
mic	-8932
mon	-8933
nex	-8934
▁cm	-8935
▁mm	-8936
▁nh	-8937
ards	-8938
bish	-8939
hale	-8940
hika	-8941
igal	-8942
mani	-8943
ocol	-8944
onga	-8945
otra	-8946
phon	-8947
vali	-8948
vert	-8949
▁aac	-8950
▁apo	-8951
▁bom	-8952
▁coz	-8953
▁kaa	-8954
▁orr	-8955
▁peh	-8956
▁pir	-8957
▁ush	-8958
▁vha	-8959
▁woo	-8960
ajmer	-8961
ander	-8962
bally	-8963
odpur	-8964
sikar	-8965
▁bish	-8966
▁cola	-8967
▁cool	-8968
▁desh	-8969
▁ifse	-8970
▁jana	-8971
▁krti	-8972
▁maan	-8973
▁oppo	-8974
▁runs	-8975
▁sbko	-8976
▁shak	-8977
▁shre	-8978
▁skte	-8979
▁uper	-8980
▁weak	-8981
itated	-8982
videos	-8983
▁absol	-8984
▁badal	-8985
▁broke	-8986
▁chuki	-8987
▁chusi	-8988
▁deker	-8989
▁dilip	-8990
▁faces	-8991
▁fancy	-8992
▁fradu	-8993
▁freez	-8994
▁indul	-8995
▁janak	-8996
▁lenge	-8997
▁minor	-8998
▁monit	-8999
▁nonhi	-9000
▁piche	-9001
▁picks	-9002
▁refur	-9003
▁shadi	-9004
▁varma	-9005
working	-9006
▁adarsh	-9007
▁addres	-9008
▁belive	-9009
▁bhawan	-9010
▁broken	-9011
▁enterd	-9012
▁excuse	-9013
▁fourth	-9014
▁goggle	-9015
▁intent	-9016
▁invite	-9017
▁misled	-9018
▁murder	-9019
▁quoted	-9020
▁randip	-9021
▁totaly	-9022
▁unique	-9023
▁womens	-9024
▁zomato	-9025
▁abiding	-9026
▁counter	-9027
▁efforts	-9028
▁failure	-9029
▁goswami	-9030
▁issuing	-9031
▁jackets	-9032
▁leading	-9033
▁leaving	-9034
▁mathura	-9035
▁ringing	-9036
▁bycredit	-9037
▁codebarb	-9038
▁indecent	-9039
▁industry	-9040
▁afterthat	-9041
▁directors	-9042
▁embarrass	-9043
▁encrypted	-9044
▁tharvatha	-9045
▁apparently	-9046
▁candidates	-9047
▁defamatory	-9048
▁accessories	-9049
▁formalities	-9050
▁impersonate	-9051
▁transactiont	-9052
▁transections	-9053
iz	-9054
jy	-9055
rm	-9056
bul	-9057
hri	-9058
knc	-9059
may	-9060
mor	-9061
mun	-9062
omu	-9063
rao	-9064
rap	-9065
ref	-9066
uda	-9067
yak	-9068
yap	-9069
zon	-9070
▁bp	-9071
aped	-9072
argo	-9073
baad	-9074
bdbd	-9075
last	-9076
pytm	-9077
redi	-9078
supp	-9079
uchn	-9080
utib	-9081
▁bnd	-9082
▁diy	-9083
▁fon	-9084
▁goi	-9085
▁nab	-9086
▁nal	-9087
▁pho	-9088
▁tht	-9089
▁wdl	-9090
▁wid	-9091
anand	-9092
apura	-9093
apuri	-9094
ateek	-9095
force	-9096
▁chit	-9097
▁defe	-9098
▁dikh	-9099
▁hoge	-9100
▁kuda	-9101
▁leye	-9102
▁pair	-9103
▁rmgb	-9104
▁seat	-9105
▁skim	-9106
▁upad	-9107
atives	-9108
▁birla	-9109
▁drawn	-9110
▁greet	-9111
▁harre	-9112
▁ihave	-9113
▁kitna	-9114
▁madhu	-9115
▁malli	-9116
▁namas	-9117
▁panel	-9118
▁panna	-9119
▁payal	-9120
▁purse	-9121
▁quali	-9122
▁trial	-9123
▁tries	-9124
▁truth	-9125
▁uttam	-9126
liament	-9127
▁americ	-9128
▁crisis	-9129
▁disres	-9130
▁experi	-9131
▁jewell	-9132
▁makemy	-9133
▁pandit	-9134
▁quickr	-9135
▁realme	-9136
▁rukiya	-9137
▁serial	-9138
▁spouse	-9139
complete	-9140
▁andheri	-9141
▁avinash	-9142
▁cantact	-9143
▁carding	-9144
▁creadit	-9145
▁devayat	-9146
▁greater	-9147
▁jaankar	-9148
▁madurai	-9149
▁replies	-9150
▁rishted	-9151
▁spoiled	-9152
▁stucked	-9153
▁systems	-9154
▁upfront	-9155
▁webpage	-9156
icyclecom	-9157
▁absolute	-9158
▁codeicic	-9159
▁distkota	-9160
▁jaankari	-9161
▁parttime	-9162
▁reverted	-9163
▁throught	-9164
▁treating	-9165
ingmailcom	-9166
▁biometric	-9167
▁clubhouse	-9168
▁household	-9169
▁interface	-9170
▁rupeemall	-9171
▁strangers	-9172
▁acceptance	-9173
ainigmailcom	-9174
▁involvement	-9175
▁subscribers	-9176
▁commissioner	-9177
▁impersonator	-9178
▁masturbating	-9179
▁requirements	-9180
▁identification	-9181
abh	-9182
cky	-9183
jis	-9184
mag	-9185
nol	-9186
pno	-9187
rub	-9188
sto	-9189
uel	-9190
▁ly	-9191
aion	-9192
akak	-9193
ball	-9194
biza	-9195
okar	-9196
payu	-9197
town	-9198
undi	-9199
▁ate	-9200
▁itc	-9201
▁lgi	-9202
▁sel	-9203
▁wow	-9204
akkam	-9205
andan	-9206
athan	-9207
bbing	-9208
dausa	-9209
ities	-9210
maine	-9211
olish	-9212
ordin	-9213
today	-9214
▁anni	-9215
▁arya	-9216
▁babl	-9217
▁beau	-9218
▁cube	-9219
▁enjo	-9220
▁fate	-9221
▁gaav	-9222
▁glti	-9223
▁jija	-9224
▁naku	-9225
▁prep	-9226
▁reac	-9227
▁sard	-9228
▁seva	-9229
▁sher	-9230
▁taht	-9231
ansfer	-9232
icited	-9233
pratap	-9234
▁angel	-9235
▁bahar	-9236
▁bundi	-9237
▁caste	-9238
▁cheyy	-9239
▁helps	-9240
▁hinge	-9241
▁kapil	-9242
▁kunal	-9243
▁lalit	-9244
▁lunga	-9245
▁malik	-9246
▁mehra	-9247
▁namep	-9248
▁newsp	-9249
▁panni	-9250
▁rekha	-9251
▁risha	-9252
▁satya	-9253
▁tract	-9254
▁wines	-9255
▁compli	-9256
▁doubts	-9257
▁duping	-9258
▁excess	-9259
▁fright	-9260
▁httpsw	-9261
▁latest	-9262
▁liable	-9263
▁nobank	-9264
▁oblige	-9265
▁poland	-9266
▁poonam	-9267
▁raipur	-9268
▁resist	-9269
▁temple	-9270
▁traced	-9271
▁userid	-9272
▁yojana	-9273
internet	-9274
▁academy	-9275
▁answers	-9276
▁arround	-9277
▁blaming	-9278
▁caption	-9279
▁krishan	-9280
▁malviya	-9281
▁matters	-9282
▁milenge	-9283
▁overall	-9284
▁perusal	-9285
▁portray	-9286
▁profess	-9287
▁reciept	-9288
▁suspend	-9289
▁tracing	-9290
▁cheyadam	-9291
▁jimmedar	-9292
▁screensh	-9293
atgmailcom	-9294
▁addressed	-9295
▁confident	-9296
▁emotional	-9297
▁expensive	-9298
▁fraudcall	-9299
▁omprakash	-9300
▁discounted	-9301
▁impression	-9302
▁procedures	-9303
▁recharging	-9304
▁redemption	-9305
▁immigration	-9306
▁promotional	-9307
▁transffered	-9308
▁disappointed	-9309
▁certification	-9310
zzzzzzzzzzzzzzzz	-9311
cx	-9312
eo	-9313
hw	-9314
qr	-9315
qw	-9316
ann	-9317
bbr	-9318
ela	-9319
fil	-9320
gae	-9321
kyc	-9322
lod	-9323
mil	-9324
ppa	-9325
url	-9326
▁mh	-9327
atul	-9328
azon	-9329
chen	-9330
eron	-9331
hiya	-9332
imal	-9333
inte	-9334
jrjr	-9335
lave	-9336
madh	-9337
nare	-9338
onut	-9339
rela	-9340
yaru	-9341
▁als	-9342
▁axl	-9343
▁ifc	-9344
▁niv	-9345
▁pon	-9346
▁upl	-9347
▁wel	-9348
acked	-9349
cence	-9350
odara	-9351
pered	-9352
sence	-9353
ycash	-9354
▁appi	-9355
▁bato	-9356
▁beti	-9357
▁chet	-9358
▁dupe	-9359
▁fasa	-9360
▁hmko	-9361
▁joki	-9362
▁krni	-9363
▁mage	-9364
▁neem	-9365
▁ours	-9366
▁prec	-9367
▁taru	-9368
▁unus	-9369
▁vach	-9370
bished	-9371
ervice	-9372
salmer	-9373
▁andar	-9374
▁color	-9375
▁elder	-9376
▁guard	-9377
▁hamre	-9378
▁himal	-9379
▁lines	-9380
▁morph	-9381
▁negle	-9382
▁often	-9383
▁piece	-9384
▁recom	-9385
▁saket	-9386
▁sakht	-9387
▁sense	-9388
▁thiru	-9389
▁usage	-9390
▁accent	-9391
▁enhone	-9392
▁fedral	-9393
▁fortun	-9394
▁hiring	-9395
▁logout	-9396
▁nilesh	-9397
▁paymnt	-9398
▁paytam	-9399
▁popped	-9400
▁rating	-9401
register	-9402
▁cheyali	-9403
▁consist	-9404
▁deceive	-9405
▁defamed	-9406
▁holders	-9407
▁infront	-9408
▁matched	-9409
▁tuesday	-9410
▁version	-9411
▁admitted	-9412
▁behaving	-9413
▁decision	-9414
▁kindness	-9415
▁pressuri	-9416
▁projects	-9417
▁requires	-9418
▁targeted	-9419
▁belonging	-9420
▁totalling	-9421
▁unethical	-9422
▁fraudester	-9423
inghgmailcom	-9424
▁continually	-9425
▁immidiately	-9426
▁transporter	-9427
▁advertisment	-9428
▁incorporated	-9429
▁simultaneously	-9430
fg	-9431
pk	-9432
bkl	-9433
dat	-9434
hhh	-9435
iam	-9436
jjf	-9437
ope	-9438
pad	-9439
tom	-9440
▁ae	-9441
▁ia	-9442
▁ml	-9443
▁mn	-9444
▁ug	-9445
adun	-9446
airs	-9447
alia	-9448
anth	-9449
atal	-9450
hate	-9451
home	-9452
krta	-9453
ndnd	-9454
plan	-9455
▁abt	-9456
▁gae	-9457
▁ghe	-9458
▁hcl	-9459
▁hee	-9460
▁kay	-9461
▁lye	-9462
▁mau	-9463
▁mre	-9464
▁nut	-9465
▁rob	-9466
▁tow	-9467
▁vit	-9468
▁voh	-9469
▁yat	-9470
adiya	-9471
akshi	-9472
cture	-9473
denge	-9474
inadi	-9475
ivali	-9476
ivedi	-9477
kotak	-9478
orpay	-9479
sthis	-9480
video	-9481
▁anno	-9482
▁badh	-9483
▁bags	-9484
▁dhru	-9485
▁dish	-9486
▁dose	-9487
▁hide	-9488
▁igam	-9489
▁indb	-9490
▁jora	-9491
▁lets	-9492
▁moti	-9493
▁sequ	-9494
▁sixt	-9495
▁spot	-9496
▁tomm	-9497
▁upid	-9498
▁vain	-9499
bazaar	-9500
garpur	-9501
onment	-9502
ulated	-9503
▁batai	-9504
▁draft	-9505
▁haven	-9506
▁jayga	-9507
▁kinds	-9508
▁lacks	-9509
▁loant	-9510
▁orich	-9511
▁owned	-9512
▁pakad	-9513
▁plaza	-9514
▁puram	-9515
▁rishi	-9516
▁scare	-9517
▁shaad	-9518
▁spice	-9519
▁tatha	-9520
▁wanna	-9521
bikaner	-9522
factory	-9523
jecting	-9524
okicici	-9525
▁accunt	-9526
▁anurag	-9527
▁batate	-9528
▁behave	-9529
▁choice	-9530
▁formal	-9531
▁httpsd	-9532
▁ieyaru	-9533
▁infact	-9534
▁karoge	-9535
▁karvai	-9536
▁meerut	-9537
▁mittal	-9538
▁mobail	-9539
▁occurs	-9540
▁precau	-9541
▁propri	-9542
▁rathod	-9543
▁ruined	-9544
▁tahsil	-9545
yahoocom	-9546
▁addplot	-9547
▁challen	-9548
▁chestun	-9549
▁illigal	-9550
▁journal	-9551
▁khandel	-9552
▁lakshmi	-9553
▁linking	-9554
▁loading	-9555
▁scolded	-9556
▁sitting	-9557
▁studies	-9558
▁testing	-9559
▁unusual	-9560
sgmailcom	-9561
▁american	-9562
▁applecom	-9563
▁assigned	-9564
▁coustmer	-9565
▁deposits	-9566
▁ifscpunb	-9567
▁incharge	-9568
▁internal	-9569
▁karywahi	-9570
▁reciving	-9571
▁replaced	-9572
▁scamster	-9573
▁standing	-9574
▁verbally	-9575
wagmailcom	-9576
▁bankpaytm	-9577
▁obtaining	-9578
▁principle	-9579
▁traveling	-9580
▁appreciate	-9581
▁enterprise	-9582
▁fruadphone	-9583
▁supervisor	-9584
▁approximate	-9585
▁translation	-9586
gl	-9587
wk	-9588
asy	-9589
chy	-9590
ctc	-9591
els	-9592
hol	-9593
hum	-9594
kas	-9595
oon	-9596
▁hn	-9597
girl	-9598
haru	-9599
inum	-9600
mist	-9601
ohar	-9602
rupe	-9603
scon	-9604
trad	-9605
trap	-9606
tray	-9607
zcom	-9608
▁adi	-9609
▁ana	-9610
▁chh	-9611
▁dor	-9612
▁dya	-9613
▁esi	-9614
▁gps	-9615
▁jud	-9616
▁ncc	-9617
▁pnr	-9618
▁rok	-9619
anjan	-9620
attac	-9621
azirx	-9622
chdfc	-9623
hansh	-9624
under	-9625
▁anup	-9626
▁aubl	-9627
▁beta	-9628
▁budd	-9629
▁chha	-9630
▁chod	-9631
▁cric	-9632
▁kaar	-9633
▁khul	-9634
▁khur	-9635
▁lied	-9636
▁mate	-9637
▁miru	-9638
▁nant	-9639
▁nmbr	-9640
▁rehe	-9641
▁rink	-9642
▁swon	-9643
▁traf	-9644
▁ucba	-9645
▁ware	-9646
▁wire	-9647
cutive	-9648
olence	-9649
vation	-9650
▁annex	-9651
▁anyde	-9652
▁bogus	-9653
▁dawra	-9654
▁dilwa	-9655
▁honda	-9656
▁krane	-9657
▁learn	-9658
▁lease	-9659
▁nayak	-9660
▁pariv	-9661
▁payum	-9662
▁pdega	-9663
▁samjh	-9664
▁seema	-9665
▁tumar	-9666
▁aakash	-9667
▁abhari	-9668
▁annual	-9669
▁ayyaru	-9670
▁dusare	-9671
▁events	-9672
▁feared	-9673
▁karana	-9674
▁marked	-9675
▁mathur	-9676
▁medias	-9677
▁mesage	-9678
▁pencil	-9679
▁pichle	-9680
▁puchha	-9681
▁surely	-9682
▁tinder	-9683
▁unders	-9684
▁unlogo	-9685
▁ayyindi	-9686
▁bhiwadi	-9687
▁enclave	-9688
▁failing	-9689
▁footage	-9690
▁graphic	-9691
▁httpwww	-9692
▁indians	-9693
▁kamlesh	-9694
▁lazypay	-9695
▁mohalla	-9696
▁reserve	-9697
▁schemes	-9698
▁shastri	-9699
mediately	-9700
▁agencies	-9701
▁costumar	-9702
▁devendra	-9703
▁hundreds	-9704
▁indirect	-9705
▁lendmall	-9706
▁possibly	-9707
▁produced	-9708
▁progress	-9709
▁prompted	-9710
▁reseller	-9711
▁trapping	-9712
gmailcomac	-9713
▁entertain	-9714
▁greetings	-9715
▁recognize	-9716
▁shaadicom	-9717
▁stringent	-9718
▁transafar	-9719
▁attractive	-9720
▁instalment	-9721
▁ransomware	-9722
▁recognized	-9723
▁marketplace	-9724
▁respectfully	-9725
▁advertisements	-9726
hm	-9727
qt	-9728
amb	-9729
azz	-9730
bag	-9731
chu	-9732
eto	-9733
etr	-9734
lot	-9735
och	-9736
oob	-9737
xig	-9738
xin	-9739
▁cu	-9740
▁gd	-9741
aign	-9742
amed	-9743
athy	-9744
chem	-9745
esar	-9746
gali	-9747
hood	-9748
jara	-9749
keep	-9750
know	-9751
kshe	-9752
main	-9753
mplo	-9754
send	-9755
shik	-9756
tiya	-9757
▁bef	-9758
▁bud	-9759
▁err	-9760
▁ipp	-9761
▁iti	-9762
▁lun	-9763
▁nou	-9764
▁pru	-9765
▁reh	-9766
▁tac	-9767
▁tus	-9768
adays	-9769
cated	-9770
ended	-9771
gment	-9772
lobal	-9773
mujhe	-9774
okket	-9775
ontin	-9776
quest	-9777
vijay	-9778
▁anna	-9779
▁baba	-9780
▁bhja	-9781
▁cast	-9782
▁chop	-9783
▁dugi	-9784
▁hald	-9785
▁irre	-9786
▁kant	-9787
▁neel	-9788
▁nuis	-9789
▁obvi	-9790
▁pada	-9791
▁peso	-9792
▁reed	-9793
▁unac	-9794
▁usha	-9795
▁warm	-9796
akhpur	-9797
master	-9798
▁achan	-9799
▁baran	-9800
▁bhara	-9801
▁cargo	-9802
▁chepi	-9803
▁congr	-9804
▁escal	-9805
▁happn	-9806
▁jawab	-9807
▁marry	-9808
▁nagor	-9809
▁persu	-9810
▁sixty	-9811
▁skype	-9812
▁slove	-9813
▁upiid	-9814
bizaxis	-9815
dential	-9816
suspect	-9817
▁banake	-9818
▁decide	-9819
▁farmer	-9820
▁jangid	-9821
▁laxman	-9822
▁mondal	-9823
▁nagaur	-9824
▁outlet	-9825
▁qrcode	-9826
▁raghav	-9827
▁sangit	-9828
▁sarkar	-9829
▁silver	-9830
▁stored	-9831
▁stupid	-9832
▁todays	-9833
▁unsafe	-9834
madhopur	-9835
▁batakar	-9836
▁carrier	-9837
▁complet	-9838
▁darshan	-9839
▁jaiswal	-9840
▁jarigin	-9841
▁nowhere	-9842
▁refuses	-9843
▁speaker	-9844
igmailcom	-9845
▁cheyandi	-9846
▁complant	-9847
▁couldnot	-9848
▁division	-9849
▁election	-9850
▁karyvahi	-9851
▁matching	-9852
▁nowadays	-9853
▁payement	-9854
▁receving	-9855
▁upipaytm	-9856
▁violence	-9857
▁addresses	-9858
▁approched	-9859
▁byaccount	-9860
kncchaincom	-9861
▁absolutely	-9862
▁industrial	-9863
▁examination	-9864
▁refurbished	-9865
singhgmailcom	-9866
▁intimidating	-9867
jp	-9868
sy	-9869
vb	-9870
vk	-9871
vu	-9872
apu	-9873
aut	-9874
fee	-9875
gen	-9876
gst	-9877
las	-9878
oke	-9879
rep	-9880
wah	-9881
zan	-9882
▁hd	-9883
apps	-9884
athu	-9885
bagh	-9886
cons	-9887
cube	-9888
diya	-9889
iced	-9890
illy	-9891
mita	-9892
near	-9893
rawa	-9894
rees	-9895
tpur	-9896
uske	-9897
utes	-9898
▁ber	-9899
▁chl	-9900
▁inn	-9901
▁rps	-9902
▁smo	-9903
▁ups	-9904
aniya	-9905
ayana	-9906
calls	-9907
delhi	-9908
dhani	-9909
ginal	-9910
these	-9911
▁atah	-9912
▁dani	-9913
▁dare	-9914
▁dark	-9915
▁dedo	-9916
▁dehr	-9917
▁didn	-9918
▁disk	-9919
▁ipad	-9920
▁itne	-9921
▁jati	-9922
▁kahe	-9923
▁kali	-9924
▁khel	-9925
▁krdo	-9926
▁maag	-9927
▁nain	-9928
▁nyka	-9929
▁pasa	-9930
▁sadi	-9931
▁thet	-9932
▁tshi	-9933
▁untr	-9934
▁vice	-9935
▁wing	-9936
anteed	-9937
detail	-9938
estore	-9939
police	-9940
▁anant	-9941
▁ashut	-9942
▁bolti	-9943
▁infos	-9944
▁jaisa	-9945
▁karib	-9946
▁maire	-9947
▁penny	-9948
▁promo	-9949
▁rajan	-9950
▁refno	-9951
▁scane	-9952
▁subsi	-9953
▁suici	-9954
▁unone	-9955
▁wheel	-9956
ability	-9957
ruction	-9958
service	-9959
▁accoun	-9960
▁anyhow	-9961
▁enable	-9962
▁fabric	-9963
▁factor	-9964
▁methey	-9965
▁nammin	-9966
▁piyush	-9967
▁robbed	-9968
▁strugg	-9969
fortable	-9970
▁airpods	-9971
▁begging	-9972
▁comapny	-9973
▁comming	-9974
▁custome	-9975
▁dalwaye	-9976
▁harshit	-9977
▁nameman	-9978
▁rupeest	-9979
▁sellers	-9980
▁shriman	-9981
▁solanki	-9982
▁tractor	-9983
jhunjhunu	-9984
▁avoiding	-9985
▁behavior	-9986
▁clearing	-9987
▁conveyed	-9988
▁difficul	-9989
▁extended	-9990
▁gurinchi	-9991
▁inserted	-9992
▁instruct	-9993
▁platinum	-9994
▁pretends	-9995
▁propriet	-9996
▁ristedar	-9997
▁shameful	-9998
▁shouting	-9999
▁strongly	-10000
▁surendra	-10001
▁transfar	-10002
▁treasure	-10003
▁associate	-10004
▁bankfraud	-10005
▁consumers	-10006
▁direction	-10007
▁presented	-10008
▁president	-10009
▁violating	-10010
▁withdrwal	-10011
▁conversion	-10012
▁anonymously	-10013
▁appreciated	-10014
▁maintaining	-10015
ex	-10016
fx	-10017
gt	-10018
pn	-10019
vs	-10020
arl	-10021
bri	-10022
jag	-10023
pit	-10024
rup	-10025
aing	-10026
bans	-10027
bibo	-10028
etly	-10029
eves	-10030
fast	-10031
flow	-10032
hadi	-10033
heue	-10034
icha	-10035
ilal	-10036
jesh	-10037
nine	-10038
reat	-10039
rive	-10040
take	-10041
unna	-10042
uraj	-10043
yani	-10044
▁aam	-10045
▁cup	-10046
▁fan	-10047
▁hak	-10048
▁hau	-10049
▁hlo	-10050
▁hom	-10051
▁hps	-10052
▁krd	-10053
▁mix	-10054
▁nee	-10055
▁neg	-10056
▁nur	-10057
▁ome	-10058
▁pit	-10059
▁rac	-10060
▁ron	-10061
▁toy	-10062
▁tut	-10063
▁vat	-10064
▁vpo	-10065
citim	-10066
cupid	-10067
krant	-10068
rable	-10069
uthar	-10070
▁farm	-10071
▁flag	-10072
▁flex	-10073
▁hais	-10074
▁lott	-10075
▁nerv	-10076
▁nika	-10077
▁numb	-10078
▁pant	-10079
▁ples	-10080
▁prov	-10081
▁reha	-10082
▁retr	-10083
▁skin	-10084
▁sree	-10085
▁tone	-10086
▁topu	-10087
▁tutr	-10088
▁woke	-10089
canara	-10090
ferent	-10091
khawat	-10092
▁acess	-10093
▁bankr	-10094
▁bhati	-10095
▁broda	-10096
▁combo	-10097
▁costs	-10098
▁dhamk	-10099
▁disag	-10100
▁durga	-10101
▁frode	-10102
▁hamen	-10103
▁irctc	-10104
▁islam	-10105
▁kardi	-10106
▁manik	-10107
▁nuber	-10108
▁occas	-10109
▁rough	-10110
▁trail	-10111
▁tyagi	-10112
▁vajah	-10113
pective	-10114
▁abscon	-10115
▁aggreg	-10116
▁author	-10117
▁bechne	-10118
▁betray	-10119
▁bhuban	-10120
▁bright	-10121
▁compny	-10122
▁conned	-10123
▁consul	-10124
▁desper	-10125
▁expert	-10126
▁facili	-10127
▁figure	-10128
▁haiaur	-10129
▁httpse	-10130
▁infrom	-10131
▁insure	-10132
▁leader	-10133
▁lifted	-10134
▁mereko	-10135
▁parsal	-10136
▁paytem	-10137
▁postal	-10138
▁pounds	-10139
▁resend	-10140
▁ritesh	-10141
▁sodala	-10142
▁stream	-10143
▁sucess	-10144
▁summer	-10145
▁sushil	-10146
▁suside	-10147
▁timely	-10148
▁wasted	-10149
lication	-10150
▁badnami	-10151
▁coupons	-10152
▁encount	-10153
▁escaped	-10154
▁httpsbi	-10155
▁jawahar	-10156
▁nervous	-10157
▁okcupid	-10158
▁persone	-10159
▁pressur	-10160
▁reality	-10161
▁redress	-10162
▁rubbish	-10163
▁shekhar	-10164
▁undress	-10165
▁ashutosh	-10166
▁birthday	-10167
▁costomer	-10168
▁database	-10169
▁employer	-10170
▁marchent	-10171
▁sections	-10172
▁sequence	-10173
▁settings	-10174
▁wattsapp	-10175
liamentary	-10176
▁developer	-10177
▁disbursal	-10178
▁gorakhpur	-10179
▁jewellery	-10180
▁newspaper	-10181
▁pareshaan	-10182
▁provoking	-10183
▁supported	-10184
▁upgrading	-10185
▁wholesale	-10186
▁cognizance	-10187
▁discovered	-10188
▁disrespect	-10189
▁khandelwal	-10190
▁makemytrip	-10191
▁pertaining	-10192
▁sufficient	-10193
▁permissions	-10194
▁sakherbazar	-10195
yyyyyyyyyyyyyyyy	-10196
gc	-10197
vc	-10198
aba	-10199
ape	-10200
buy	-10201
fre	-10202
pvt	-10203
vip	-10204
zee	-10205
asti	-10206
bull	-10207
club	-10208
gbxx	-10209
giye	-10210
issa	-10211
maha	-10212
rict	-10213
sted	-10214
▁ale	-10215
▁asi	-10216
▁bhj	-10217
▁cll	-10218
▁dey	-10219
▁fwd	-10220
▁hno	-10221
▁ido	-10222
▁ivr	-10223
▁koe	-10224
▁nah	-10225
▁nig	-10226
▁pau	-10227
▁sbm	-10228
▁sci	-10229
▁ske	-10230
▁wts	-10231
about	-10232
agraj	-10233
aptol	-10234
escom	-10235
igned	-10236
ishes	-10237
kanth	-10238
karni	-10239
oding	-10240
wedan	-10241
▁aesa	-10242
▁chir	-10243
▁chur	-10244
▁enna	-10245
▁invo	-10246
▁karn	-10247
▁kise	-10248
▁majh	-10249
▁ratn	-10250
▁rout	-10251
▁sarv	-10252
▁seed	-10253
▁shik	-10254
▁surg	-10255
▁vaha	-10256
arship	-10257
gendra	-10258
inated	-10259
▁accou	-10260
▁baner	-10261
▁batch	-10262
▁bnaya	-10263
▁bohat	-10264
▁branc	-10265
▁fight	-10266
▁fresh	-10267
▁ghosh	-10268
▁hamko	-10269
▁hasnt	-10270
▁honor	-10271
▁idnhi	-10272
▁lotry	-10273
▁madan	-10274
▁modus	-10275
▁pursu	-10276
▁repot	-10277
▁schol	-10278
▁senti	-10279
▁sheet	-10280
▁sidha	-10281
▁somed	-10282
▁thode	-10283
▁tomar	-10284
▁tumne	-10285
▁unsol	-10286
▁upidr	-10287
▁upper	-10288
▁vipin	-10289
▁waste	-10290
itimate	-10291
karicom	-10292
stances	-10293
▁alerts	-10294
▁bhejta	-10295
▁cridet	-10296
▁dhamka	-10297
▁encour	-10298
▁export	-10299
▁fallen	-10300
▁gareeb	-10301
▁groovy	-10302
▁httpsm	-10303
▁krunga	-10304
▁lender	-10305
▁mangal	-10306
▁milegi	-10307
▁moblie	-10308
▁nikita	-10309
▁noname	-10310
▁packet	-10311
▁parent	-10312
▁pieces	-10313
▁reduce	-10314
▁simran	-10315
▁slangs	-10316
▁strick	-10317
▁theyre	-10318
▁wazirx	-10319
bbbbbbbb	-10320
▁abhinav	-10321
▁attache	-10322
▁avoided	-10323
▁bydebit	-10324
▁chandni	-10325
▁chouhan	-10326
▁comprom	-10327
▁coordin	-10328
▁cousins	-10329
▁cricket	-10330
▁deliber	-10331
▁inquire	-10332
▁kaushik	-10333
▁konchem	-10334
▁letting	-10335
▁namesbi	-10336
▁niwedan	-10337
▁oneplus	-10338
▁parveen	-10339
▁popular	-10340
▁receved	-10341
▁shopify	-10342
▁sounded	-10343
▁vaccine	-10344
▁wearing	-10345
bharatpur	-10346
▁captions	-10347
▁coaching	-10348
▁handover	-10349
▁nuisance	-10350
▁practice	-10351
▁showroom	-10352
▁spamming	-10353
▁srinagar	-10354
▁teachers	-10355
▁vadodara	-10356
▁valuable	-10357
▁congratul	-10358
▁contained	-10359
▁fradulant	-10360
▁influence	-10361
▁professor	-10362
▁provision	-10363
▁releasing	-10364
▁aplication	-10365
▁bankcanara	-10366
▁deductions	-10367
▁dharmendra	-10368
▁invitation	-10369
▁subsequent	-10370
▁throughout	-10371
▁torchering	-10372
pleaseplease	-10373
▁emotionally	-10374
▁fortunately	-10375
▁functioning	-10376
▁proceedings	-10377
▁unsolicited	-10378
▁amountvictim	-10379
bz	-10380
vg	-10381
yu	-10382
cat	-10383
ckd	-10384
cus	-10385
feb	-10386
flu	-10387
ics	-10388
inh	-10389
kku	-10390
xit	-10391
▁bb	-10392
▁lr	-10393
agle	-10394
asha	-10395
bair	-10396
bala	-10397
bhan	-10398
city	-10399
open	-10400
pali	-10401
▁aak	-10402
▁avd	-10403
▁avl	-10404
▁bee	-10405
▁cru	-10406
▁cry	-10407
▁dag	-10408
▁kij	-10409
▁mey	-10410
▁oth	-10411
▁spl	-10412
▁sup	-10413
▁ucl	-10414
▁vpa	-10415
▁wap	-10416
anjay	-10417
every	-10418
uresh	-10419
▁ahet	-10420
▁bale	-10421
▁beat	-10422
▁crpf	-10423
▁dash	-10424
▁degi	-10425
▁dell	-10426
▁depe	-10427
▁doge	-10428
▁fess	-10429
▁ispe	-10430
▁kele	-10431
▁lieu	-10432
▁memu	-10433
▁navy	-10434
▁ness	-10435
▁nuks	-10436
▁pays	-10437
▁sakt	-10438
▁syed	-10439
▁tack	-10440
▁tick	-10441
▁zone	-10442
livery	-10443
mately	-10444
mukesh	-10445
▁abhay	-10446
▁aeron	-10447
▁alias	-10448
▁aprox	-10449
▁bhare	-10450
▁btane	-10451
▁dalva	-10452
▁divor	-10453
▁domin	-10454
▁dowan	-10455
▁drugs	-10456
▁frind	-10457
▁ignor	-10458
▁jagat	-10459
▁jispe	-10460
▁justi	-10461
▁kadam	-10462
▁kalan	-10463
▁mayur	-10464
▁mazya	-10465
▁niche	-10466
▁patym	-10467
▁prath	-10468
▁shari	-10469
▁spare	-10470
▁strai	-10471
▁style	-10472
▁uplod	-10473
▁utili	-10474
▁banega	-10475
▁circum	-10476
▁convey	-10477
▁estate	-10478
▁faking	-10479
▁indira	-10480
▁lagane	-10481
▁marvel	-10482
▁necess	-10483
▁pahele	-10484
▁paymet	-10485
▁sought	-10486
▁trades	-10487
▁tumare	-10488
▁usmein	-10489
customer	-10490
▁attract	-10491
▁beacuse	-10492
▁chasing	-10493
▁chesthe	-10494
▁cicagod	-10495
▁crossed	-10496
▁drained	-10497
▁falling	-10498
▁fifteen	-10499
▁mislead	-10500
▁moneyhe	-10501
▁nameraj	-10502
▁portals	-10503
▁shriram	-10504
▁summery	-10505
▁tarnish	-10506
▁unemplo	-10507
▁vaibhav	-10508
▁whereby	-10509
ggmailcom	-10510
mgmailcom	-10511
▁argument	-10512
▁branches	-10513
▁chestham	-10514
▁dehradun	-10515
▁delevery	-10516
▁follower	-10517
▁hometown	-10518
▁ifscbarb	-10519
▁ifschdfc	-10520
▁intially	-10521
▁matladut	-10522
▁numberhe	-10523
▁ravindra	-10524
▁regional	-10525
▁supplied	-10526
▁threated	-10527
▁tolerate	-10528
▁allegedly	-10529
▁described	-10530
▁misbehave	-10531
▁payumoney	-10532
▁succeeded	-10533
▁accountbut	-10534
▁activating	-10535
▁bankindian	-10536
▁commitment	-10537
▁creditcard	-10538
▁explaining	-10539
▁facilities	-10540
▁fraudulant	-10541
▁generating	-10542
▁incomplete	-10543
▁interviews	-10544
▁jariginadi	-10545
▁proprietor	-10546
▁commissions	-10547
▁chesukunnaru	-10548
▁deactivation	-10549
▁informations	-10550
▁satisfactory	-10551
▁accountplease	-10552
▁throughphonepe	-10553
▁unparliamentary	-10554
cd	-10555
gp	-10556
wb	-10557
zo	-10558
aim	-10559
bec	-10560
bra	-10561
edi	-10562
ert	-10563
fab	-10564
heb	-10565
hid	-10566
hon	-10567
inf	-10568
iny	-10569
jid	-10570
jur	-10571
lab	-10572
ppu	-10573
rar	-10574
str	-10575
ued	-10576
▁ou	-10577
▁pk	-10578
▁tx	-10579
▁za	-10580
aiya	-10581
ayam	-10582
dhan	-10583
esha	-10584
etha	-10585
gate	-10586
irir	-10587
jang	-10588
lord	-10589
mera	-10590
next	-10591
opay	-10592
vest	-10593
▁ath	-10594
▁kee	-10595
▁ken	-10596
▁kho	-10597
▁kod	-10598
▁map	-10599
▁neh	-10600
▁psg	-10601
▁row	-10602
▁ruk	-10603
▁uns	-10604
akant	-10605
arsha	-10606
ckdns	-10607
ckers	-10608
denly	-10609
ggram	-10610
media	-10611
paise	-10612
undhi	-10613
ushka	-10614
xigen	-10615
▁anus	-10616
▁aplo	-10617
▁bkid	-10618
▁blak	-10619
▁chee	-10620
▁clin	-10621
▁cook	-10622
▁died	-10623
▁diss	-10624
▁dubi	-10625
▁duly	-10626
▁heck	-10627
▁itni	-10628
▁jind	-10629
▁jiss	-10630
▁kand	-10631
▁kbhi	-10632
▁kuki	-10633
▁manu	-10634
▁matt	-10635
▁mesa	-10636
▁meta	-10637
▁msme	-10638
▁naye	-10639
▁paul	-10640
▁renu	-10641
▁sick	-10642
▁smss	-10643
▁thak	-10644
▁thug	-10645
amazon	-10646
called	-10647
etooth	-10648
plaint	-10649
pocket	-10650
▁aadar	-10651
▁aslil	-10652
▁beech	-10653
▁bully	-10654
▁chata	-10655
▁chhat	-10656
▁dhany	-10657
▁hesit	-10658
▁likes	-10659
▁mango	-10660
▁murli	-10661
▁nepal	-10662
▁newly	-10663
▁nobob	-10664
▁pavan	-10665
▁sakti	-10666
▁scene	-10667
▁title	-10668
▁topup	-10669
▁vaste	-10670
▁wipro	-10671
adaniki	-10672
angabad	-10673
ligence	-10674
limited	-10675
lookcom	-10676
mercial	-10677
ourable	-10678
▁batane	-10679
▁dining	-10680
▁galoch	-10681
▁hindus	-10682
▁kirpya	-10683
▁likely	-10684
▁mangte	-10685
▁mansik	-10686
▁maruti	-10687
▁namera	-10688
▁paranj	-10689
▁prepar	-10690
▁ranjit	-10691
▁screch	-10692
▁silent	-10693
▁useing	-10694
▁xxxxxx	-10695
payments	-10696
▁affairs	-10697
▁codebar	-10698
▁context	-10699
▁desired	-10700
▁ensured	-10701
▁exposed	-10702
▁ifscbar	-10703
▁influen	-10704
▁jobless	-10705
▁journey	-10706
▁mahadev	-10707
▁mentaly	-10708
▁packers	-10709
▁passing	-10710
▁restore	-10711
▁spammer	-10712
storeapps	-10713
▁breached	-10714
▁football	-10715
▁holidays	-10716
▁notified	-10717
▁overcome	-10718
▁partners	-10719
▁shikayat	-10720
▁suicidal	-10721
▁alongwith	-10722
▁finalized	-10723
▁httpsplay	-10724
▁httpswame	-10725
▁jaisalmer	-10726
▁miscreant	-10727
▁okbizaxis	-10728
▁pakistani	-10729
▁performed	-10730
▁redressal	-10731
▁reimburse	-10732
▁vegetable	-10733
▁initiating	-10734
▁manipulate	-10735
▁networking	-10736
▁suchankrta	-10737
inchukunnaru	-10738
▁throughphone	-10739
storeappsdetail	-10740
▁cybercrimegovin	-10741
▁representatives	-10742
hp	-10743
np	-10744
add	-10745
afi	-10746
did	-10747
hub	-10748
mum	-10749
nta	-10750
otp	-10751
pas	-10752
rab	-10753
udh	-10754
uki	-10755
urt	-10756
vis	-10757
▁dj	-10758
▁dw	-10759
▁jr	-10760
▁pd	-10761
apin	-10762
asan	-10763
bkid	-10764
buds	-10765
cici	-10766
ffff	-10767
happ	-10768
ides	-10769
itra	-10770
kend	-10771
kish	-10772
like	-10773
lock	-10774
okka	-10775
othe	-10776
prad	-10777
ulam	-10778
veri	-10779
wasi	-10780
wear	-10781
▁cos	-10782
▁crd	-10783
▁frd	-10784
▁iob	-10785
▁jer	-10786
▁nis	-10787
▁oob	-10788
▁psp	-10789
▁sei	-10790
eshop	-10791
ggage	-10792
group	-10793
inent	-10794
inted	-10795
ister	-10796
karam	-10797
karan	-10798
point	-10799
usted	-10800
▁aake	-10801
▁aisi	-10802
▁aney	-10803
▁bejo	-10804
▁bind	-10805
▁ghya	-10806
▁ikar	-10807
▁impl	-10808
▁jate	-10809
▁lite	-10810
▁maar	-10811
▁nict	-10812
▁nois	-10813
▁pill	-10814
▁pred	-10815
▁saud	-10816
▁seal	-10817
▁shad	-10818
▁spon	-10819
▁swar	-10820
▁valo	-10821
▁vaps	-10822
▁wwws	-10823
akrana	-10824
istion	-10825
iteria	-10826
soever	-10827
▁aakar	-10828
▁admit	-10829
▁bablu	-10830
▁chomu	-10831
▁colum	-10832
▁cowin	-10833
▁datas	-10834
▁imran	-10835
▁krege	-10836
▁kusum	-10837
▁mitra	-10838
▁nidhi	-10839
▁noand	-10840
▁nykaa	-10841
▁organ	-10842
▁pasie	-10843
▁passe	-10844
▁paste	-10845
▁peros	-10846
▁rohan	-10847
▁serch	-10848
▁sweet	-10849
▁tumko	-10850
▁tyani	-10851
▁ushne	-10852
banksbi	-10853
chandra	-10854
company	-10855
oudhary	-10856
wakarma	-10857
▁arrive	-10858
▁bandra	-10859
▁christ	-10860
▁engage	-10861
▁fruits	-10862
▁grocer	-10863
▁hatred	-10864
▁howrah	-10865
▁kavita	-10866
▁khushi	-10867
▁layout	-10868
▁parmar	-10869
▁parsan	-10870
▁prince	-10871
▁sensed	-10872
▁shinde	-10873
▁sonali	-10874
▁taught	-10875
▁unfair	-10876
▁venkat	-10877
bhilwara	-10878
httpswww	-10879
▁aligarh	-10880
▁amazone	-10881
▁bankbob	-10882
▁bankpnb	-10883
▁bounced	-10884
▁cardpan	-10885
▁chandan	-10886
▁default	-10887
▁dubious	-10888
▁foolish	-10889
▁founder	-10890
▁guiding	-10891
▁iphones	-10892
▁karthik	-10893
▁kishore	-10894
▁kitchen	-10895
▁laptops	-10896
▁paymnet	-10897
▁prateek	-10898
▁shouted	-10899
▁vikrant	-10900
financial	-10901
uchnakrta	-10902
ugmailcom	-10903
▁acccount	-10904
▁adhikari	-10905
▁articles	-10906
▁banerjee	-10907
▁banswara	-10908
▁compaint	-10909
▁criteria	-10910
▁custumer	-10911
▁kncchain	-10912
▁mahaveer	-10913
▁notimeam	-10914
▁remotely	-10915
▁shifting	-10916
▁shopkeep	-10917
▁skimming	-10918
▁whastapp	-10919
▁yourself	-10920
algmailcom	-10921
amgmailcom	-10922
outlookcom	-10923
▁bluetooth	-10924
▁destroyed	-10925
▁discontin	-10926
▁distajmer	-10927
▁extorting	-10928
▁furnished	-10929
▁jaikishan	-10930
▁locations	-10931
▁photocopy	-10932
▁realising	-10933
▁ristedaro	-10934
▁satisfied	-10935
▁sirplease	-10936
▁acceptable	-10937
▁applicable	-10938
▁commercial	-10939
▁frightened	-10940
▁guaranteed	-10941
▁indirectly	-10942
▁legitimate	-10943
▁maintained	-10944
▁prostitute	-10945
▁ultimately	-10946
▁validation	-10947
▁association	-10948
▁consecutive	-10949
▁cooperative	-10950
▁unreachable	-10951
▁accountafter	-10952
▁deliberately	-10953
▁distribution	-10954
▁perpetrators	-10955
qqqqqqqqqqqqqqqq	-10956
bn	-10957
ey	-10958
fd	-10959
jl	-10960
ams	-10961
bol	-10962
dhd	-10963
eru	-10964
jss	-10965
kap	-10966
kil	-10967
oan	-10968
uja	-10969
web	-10970
▁db	-10971
▁gt	-10972
▁hk	-10973
▁js	-10974
▁rp	-10975
▁tq	-10976
abhi	-10977
bita	-10978
ense	-10979
epay	-10980
fted	-10981
gold	-10982
info	-10983
lugu	-10984
meet	-10985
ohit	-10986
ouri	-10987
porn	-10988
shar	-10989
test	-10990
vati	-10991
visa	-10992
your	-10993
▁bra	-10994
▁cum	-10995
▁ecs	-10996
▁ell	-10997
▁ene	-10998
▁fly	-10999
▁gag	-11000
▁ger	-11001
▁koy	-11002
▁kyo	-11003
▁lit	-11004
▁lor	-11005
▁mae	-11006
▁pot	-11007
▁shw	-11008
▁sth	-11009
▁vio	-11010
▁zip	-11011
acing	-11012
ameen	-11013
blink	-11014
bsite	-11015
comes	-11016
cyber	-11017
hadur	-11018
itsar	-11019
jfkls	-11020
mates	-11021
oloan	-11022
press	-11023
urred	-11024
▁adul	-11025
▁alco	-11026
▁aske	-11027
▁bhad	-11028
▁bran	-11029
▁cham	-11030
▁desp	-11031
▁esne	-11032
▁haia	-11033
▁imme	-11034
▁laks	-11035
▁mald	-11036
▁pais	-11037
▁plse	-11038
▁riti	-11039
▁roht	-11040
▁saam	-11041
▁scot	-11042
▁sebi	-11043
▁tron	-11044
▁vidh	-11045
▁wedn	-11046
arayan	-11047
erscom	-11048
herjee	-11049
naukri	-11050
tables	-11051
wahati	-11052
▁aapna	-11053
▁aarti	-11054
▁alwer	-11055
▁angry	-11056
▁audit	-11057
▁bahne	-11058
▁choti	-11059
▁convi	-11060
▁dhire	-11061
▁dhruv	-11062
▁estim	-11063
▁faked	-11064
▁himhe	-11065
▁hiran	-11066
▁jaane	-11067
▁jinka	-11068
▁krazy	-11069
▁kyoki	-11070
▁loani	-11071
▁mahan	-11072
▁opend	-11073
▁paras	-11074
▁pawar	-11075
▁prati	-11076
▁radha	-11077
▁randi	-11078
▁ratan	-11079
▁refid	-11080
▁repai	-11081
▁revol	-11082
▁sange	-11083
▁saroj	-11084
▁shaam	-11085
▁sharp	-11086
▁shopp	-11087
▁stern	-11088
▁theif	-11089
ansathi	-11090
channel	-11091
mendous	-11092
pendent	-11093
support	-11094
tisgarh	-11095
▁anydis	-11096
▁appeal	-11097
▁badmer	-11098
▁batata	-11099
▁chahti	-11100
▁enroll	-11101
▁exists	-11102
▁famous	-11103
▁fastag	-11104
▁folder	-11105
▁gadget	-11106
▁gather	-11107
▁hostel	-11108
▁jayege	-11109
▁movers	-11110
▁pahuch	-11111
▁pampin	-11112
▁smooth	-11113
▁sourav	-11114
▁stocks	-11115
▁tarikh	-11116
▁tushar	-11117
ckdnsorg	-11118
razorpay	-11119
▁achanak	-11120
▁addvill	-11121
▁attched	-11122
▁bullied	-11123
▁deepika	-11124
▁dhamaki	-11125
▁dialled	-11126
▁distrub	-11127
▁gaaliya	-11128
▁goibibo	-11129
▁handles	-11130
▁hopeful	-11131
▁hurting	-11132
▁leasing	-11133
▁luggage	-11134
▁manohar	-11135
▁monster	-11136
▁ongoing	-11137
▁pariwar	-11138
▁phising	-11139
▁tempted	-11140
▁thorogh	-11141
▁welcome	-11142
▁workers	-11143
▁amritsar	-11144
▁bitcoins	-11145
▁bookings	-11146
▁bringing	-11147
▁chesthey	-11148
▁communal	-11149
▁doubtful	-11150
▁guwahati	-11151
▁helpdesk	-11152
▁junction	-11153
▁misguide	-11154
▁packages	-11155
▁referral	-11156
▁reminder	-11157
▁statment	-11158
▁validate	-11159
▁whataspp	-11160
▁automated	-11161
▁cheppadam	-11162
▁crazycash	-11163
▁everybody	-11164
▁goverment	-11165
▁headphone	-11166
▁honeytrap	-11167
▁massanger	-11168
▁microsoft	-11169
▁ownership	-11170
▁rajsamand	-11171
▁revealing	-11172
▁violation	-11173
▁wednesday	-11174
▁affordable	-11175
▁aurangabad	-11176
▁blackmails	-11177
▁converting	-11178
▁situations	-11179
▁subscriber	-11180
▁surprising	-11181
▁facilitated	-11182
▁moneyplease	-11183
▁acquaintance	-11184
jsjsjsjsjsjsjsjs	-11185
oh	-11186
rp	-11187
vp	-11188
acc	-11189
agr	-11190
eny	-11191
etu	-11192
gau	-11193
gov	-11194
liy	-11195
nig	-11196
zes	-11197
▁mc	-11198
▁tp	-11199
aceu	-11200
bili	-11201
case	-11202
chha	-11203
chim	-11204
cnrb	-11205
gdgd	-11206
icip	-11207
logo	-11208
mang	-11209
noda	-11210
phir	-11211
riti	-11212
spot	-11213
stop	-11214
tage	-11215
xcom	-11216
ymon	-11217
▁ake	-11218
▁fle	-11219
▁gat	-11220
▁ias	-11221
▁kab	-11222
▁lan	-11223
▁lux	-11224
▁mel	-11225
▁ngo	-11226
▁ral	-11227
▁sof	-11228
▁tec	-11229
▁tnx	-11230
▁ujj	-11231
▁vig	-11232
▁yam	-11233
black	-11234
estly	-11235
roper	-11236
sages	-11237
ssing	-11238
ushan	-11239
words	-11240
▁atta	-11241
▁bard	-11242
▁chok	-11243
▁fide	-11244
▁ghet	-11245
▁giri	-11246
▁jara	-11247
▁kath	-11248
▁krun	-11249
▁kyun	-11250
▁lido	-11251
▁meku	-11252
▁naga	-11253
▁naik	-11254
▁prag	-11255
▁rakh	-11256
▁rsrs	-11257
▁secu	-11258
▁sexy	-11259
▁shit	-11260
▁sone	-11261
▁ugly	-11262
▁unex	-11263
▁utar	-11264
▁utna	-11265
▁whts	-11266
▁writ	-11267
acture	-11268
aphone	-11269
igital	-11270
keycom	-11271
mahesh	-11272
maling	-11273
tually	-11274
▁addga	-11275
▁banki	-11276
▁benif	-11277
▁bhand	-11278
▁bhaut	-11279
▁blame	-11280
▁calli	-11281
▁cardi	-11282
▁chura	-11283
▁clean	-11284
▁credi	-11285
▁crome	-11286
▁dalna	-11287
▁dayal	-11288
▁favor	-11289
▁froze	-11290
▁galoj	-11291
▁geeta	-11292
▁hired	-11293
▁horri	-11294
▁kahta	-11295
▁khola	-11296
▁kisth	-11297
▁mummy	-11298
▁param	-11299
▁pilot	-11300
▁plant	-11301
▁plase	-11302
▁rehta	-11303
▁siddi	-11304
▁sides	-11305
▁sohan	-11306
▁suits	-11307
▁udyog	-11308
mallcom	-11309
▁arogya	-11310
▁beauty	-11311
▁belief	-11312
▁bhejna	-11313
▁bihari	-11314
▁buyers	-11315
▁chosen	-11316
▁detect	-11317
▁dishon	-11318
▁employ	-11319
▁fraudi	-11320
▁frezee	-11321
▁hardly	-11322
▁humara	-11323
▁humari	-11324
▁learnt	-11325
▁machin	-11326
▁majhya	-11327
▁malign	-11328
▁masage	-11329
▁mehnat	-11330
▁natraj	-11331
▁nitesh	-11332
▁orderd	-11333
▁pretty	-11334
▁proved	-11335
▁receie	-11336
▁receve	-11337
▁rounds	-11338
▁salman	-11339
▁scaned	-11340
▁sheikh	-11341
▁struck	-11342
▁techni	-11343
▁trough	-11344
▁upgrad	-11345
▁weight	-11346
▁wtsapp	-11347
modation	-11348
▁anticip	-11349
▁anushka	-11350
▁ashamed	-11351
▁besides	-11352
▁dholpur	-11353
▁entries	-11354
▁evident	-11355
▁fetched	-11356
▁granted	-11357
▁legally	-11358
▁mpokket	-11359
▁nameram	-11360
▁offices	-11361
▁parivar	-11362
▁parties	-11363
▁persion	-11364
▁ravadam	-11365
▁rishabh	-11366
▁shifted	-11367
▁siddhar	-11368
▁threate	-11369
▁uploded	-11370
▁wallets	-11371
▁accusing	-11372
▁allready	-11373
▁inactive	-11374
▁kushwaha	-11375
▁maldives	-11376
▁operandi	-11377
▁rollover	-11378
▁severely	-11379
▁stations	-11380
▁straight	-11381
▁themthey	-11382
▁timeline	-11383
▁traction	-11384
yagmailcom	-11385
▁altnumber	-11386
▁attracted	-11387
▁disguised	-11388
▁highlight	-11389
▁nophonepe	-11390
▁prayagraj	-11391
▁recognise	-11392
▁resulting	-11393
▁rishtedar	-11394
▁shrivasta	-11395
immediately	-11396
▁accidently	-11397
▁associates	-11398
▁difference	-11399
▁harrashing	-11400
▁miscreants	-11401
▁operations	-11402
▁prudential	-11403
▁repayments	-11404
▁separately	-11405
▁suggesting	-11406
▁thretening	-11407
▁tranaction	-11408
▁trancation	-11409
▁tremendous	-11410
▁undressing	-11411
awatgmailcom	-11412
▁bhubaneswar	-11413
▁distijaipur	-11414
▁circumstances	-11415
▁mobilephonepe	-11416
▁reimbursement	-11417
▁acknowledgment	-11418
nnnnnnnnnnnnnnnn	-11419
oooooooooooooooo	-11420
bp	-11421
gv	-11422
ui	-11423
xl	-11424
zk	-11425
adh	-11426
ask	-11427
cod	-11428
eed	-11429
ftr	-11430
fur	-11431
hli	-11432
lik	-11433
osi	-11434
pra	-11435
sho	-11436
uku	-11437
ulu	-11438
ups	-11439
▁gm	-11440
▁ns	-11441
▁wp	-11442
addy	-11443
adhi	-11444
adip	-11445
apat	-11446
dwaj	-11447
even	-11448
fire	-11449
garm	-11450
iled	-11451
inee	-11452
jjar	-11453
jwjw	-11454
lick	-11455
nwal	-11456
onal	-11457
rama	-11458
rase	-11459
verm	-11460
▁aal	-11461
▁bda	-11462
▁bhr	-11463
▁dak	-11464
▁dik	-11465
▁dum	-11466
▁ess	-11467
▁hki	-11468
▁isd	-11469
▁kak	-11470
▁lai	-11471
▁ley	-11472
▁lpg	-11473
▁lum	-11474
▁mms	-11475
▁muh	-11476
▁pfa	-11477
▁squ	-11478
▁thx	-11479
ashik	-11480
ashok	-11481
churu	-11482
conom	-11483
ercom	-11484
haram	-11485
harya	-11486
jdjjd	-11487
priya	-11488
vihar	-11489
▁aani	-11490
▁adig	-11491
▁ager	-11492
▁ashi	-11493
▁aust	-11494
▁avar	-11495
▁calc	-11496
▁chep	-11497
▁chuk	-11498
▁chun	-11499
▁emai	-11500
▁foll	-11501
▁furd	-11502
▁hash	-11503
▁huin	-11504
▁jeev	-11505
▁jhut	-11506
▁karb	-11507
▁kast	-11508
▁lewd	-11509
▁ludo	-11510
▁megh	-11511
▁milk	-11512
▁pres	-11513
▁sept	-11514
▁sewa	-11515
▁sirr	-11516
▁thai	-11517
▁tips	-11518
▁tree	-11519
▁uber	-11520
akrish	-11521
hanpur	-11522
hilesh	-11523
itecom	-11524
jsjsjs	-11525
refund	-11526
sidcom	-11527
thanks	-11528
▁ajeet	-11529
▁bandh	-11530
▁bhane	-11531
▁chief	-11532
▁ciber	-11533
▁dixit	-11534
▁fateh	-11535
▁karde	-11536
▁manju	-11537
▁mathi	-11538
▁megha	-11539
▁msges	-11540
▁opens	-11541
▁pakda	-11542
▁prapt	-11543
▁rahta	-11544
▁react	-11545
▁retun	-11546
▁sudha	-11547
▁tisuk	-11548
▁vedeo	-11549
central	-11550
▁bottle	-11551
▁celebr	-11552
▁dawara	-11553
▁dinank	-11554
▁distic	-11555
▁extend	-11556
▁girish	-11557
▁hiding	-11558
▁hitesh	-11559
▁httpsh	-11560
▁ikarza	-11561
▁insert	-11562
▁irrele	-11563
▁kavali	-11564
▁keshav	-11565
▁levels	-11566
▁mainly	-11567
▁mujhko	-11568
▁nikaal	-11569
▁nirmal	-11570
▁obtain	-11571
▁orissa	-11572
▁pahale	-11573
▁practi	-11574
▁pratik	-11575
▁proces	-11576
▁rathor	-11577
▁resort	-11578
▁rupaya	-11579
▁sardar	-11580
▁shashi	-11581
▁succes	-11582
▁telugu	-11583
▁thasil	-11584
▁throug	-11585
▁transt	-11586
attached	-11587
▁aacount	-11588
▁alcohol	-11589
▁bengali	-11590
▁coneent	-11591
▁contest	-11592
▁contine	-11593
▁diamond	-11594
▁dikhane	-11595
▁galiyan	-11596
▁ganpati	-11597
▁illicit	-11598
▁jhodpur	-11599
▁kashyap	-11600
▁ranjeet	-11601
▁revenue	-11602
▁soldier	-11603
▁surgery	-11604
▁watsaap	-11605
▁whataap	-11606
▁annoying	-11607
▁frouders	-11608
▁haipaytm	-11609
▁handsome	-11610
▁hangouts	-11611
▁harasing	-11612
▁instagar	-11613
▁logistic	-11614
▁socially	-11615
▁taruvata	-11616
▁washroom	-11617
ganganagar	-11618
tigmailcom	-11619
ymonkeycom	-11620
▁arranging	-11621
▁constable	-11622
▁copyright	-11623
▁fraduster	-11624
▁innocence	-11625
▁innocents	-11626
▁mistakely	-11627
▁neglected	-11628
▁providers	-11629
▁referring	-11630
▁responses	-11631
▁transferd	-11632
anigmailcom	-11633
▁applicants	-11634
▁betterment	-11635
▁characters	-11636
▁fraudently	-11637
▁precaution	-11638
▁proceeding	-11639
▁unemployed	-11640
▁unexpected	-11641
▁upiphonepe	-11642
▁vaccinated	-11643
▁experienced	-11644
▁possibility	-11645
▁unfortunate	-11646
▁acknowledged	-11647
▁construction	-11648
▁notimepmdate	-11649
▁accommodation	-11650
dt	-11651
lk	-11652
nf	-11653
vj	-11654
ws	-11655
cke	-11656
dan	-11657
dee	-11658
dot	-11659
jet	-11660
ped	-11661
pen	-11662
pha	-11663
rom	-11664
tag	-11665
ugh	-11666
vet	-11667
wel	-11668
yee	-11669
▁cp	-11670
▁ee	-11671
▁hh	-11672
acts	-11673
amin	-11674
apal	-11675
atri	-11676
away	-11677
clud	-11678
emal	-11679
give	-11680
hala	-11681
hics	-11682
isti	-11683
jain	-11684
ksks	-11685
owed	-11686
part	-11687
ques	-11688
rath	-11689
shay	-11690
tonk	-11691
ucba	-11692
usly	-11693
vayi	-11694
▁aim	-11695
▁bey	-11696
▁dek	-11697
▁dit	-11698
▁dsp	-11699
▁enn	-11700
▁fra	-11701
▁hin	-11702
▁iit	-11703
▁ivl	-11704
▁joh	-11705
▁lav	-11706
▁mgs	-11707
▁mou	-11708
▁noi	-11709
▁rsi	-11710
▁trh	-11711
▁upc	-11712
▁vay	-11713
▁wen	-11714
▁yaa	-11715
▁yhi	-11716
akart	-11717
ansha	-11718
chari	-11719
ently	-11720
henga	-11721
jrang	-11722
sagar	-11723
vidha	-11724
▁aese	-11725
▁alex	-11726
▁asif	-11727
▁axix	-11728
▁buri	-11729
▁enko	-11730
▁epfo	-11731
▁exit	-11732
▁foto	-11733
▁hata	-11734
▁hire	-11735
▁ibkl	-11736
▁igan	-11737
▁inad	-11738
▁inhe	-11739
▁jisa	-11740
▁john	-11741
▁kann	-11742
▁krup	-11743
▁logs	-11744
▁mees	-11745
▁nanu	-11746
▁negi	-11747
▁pahu	-11748
▁palm	-11749
▁pita	-11750
▁rahu	-11751
▁taxi	-11752
▁trah	-11753
▁unho	-11754
▁vict	-11755
▁vido	-11756
▁yesb	-11757
▁yoga	-11758
hankar	-11759
ksheet	-11760
patnam	-11761
rading	-11762
titude	-11763
▁acces	-11764
▁bahan	-11765
▁banai	-11766
▁bolna	-11767
▁chaha	-11768
▁daita	-11769
▁dalte	-11770
▁david	-11771
▁dipos	-11772
▁dutta	-11773
▁eagle	-11774
▁gathe	-11775
▁gayab	-11776
▁hokar	-11777
▁impro	-11778
▁insan	-11779
▁jahan	-11780
▁janch	-11781
▁loand	-11782
▁occup	-11783
▁ofter	-11784
▁pandr	-11785
▁prank	-11786
▁proud	-11787
▁puche	-11788
▁sahay	-11789
▁salem	-11790
▁saras	-11791
▁sathe	-11792
▁shahd	-11793
▁sight	-11794
▁sonia	-11795
▁theek	-11796
▁tujhe	-11797
▁vipul	-11798
▁worng	-11799
▁worse	-11800
ardasti	-11801
uddenly	-11802
▁behera	-11803
▁chetan	-11804
▁econom	-11805
▁errors	-11806
▁forder	-11807
▁happed	-11808
▁hazari	-11809
▁hindon	-11810
▁insaan	-11811
▁jadhav	-11812
▁jeevan	-11813
▁karake	-11814
▁khanna	-11815
▁kishor	-11816
▁kolkat	-11817
▁makeup	-11818
▁manger	-11819
▁pvtltd	-11820
▁served	-11821
▁shikar	-11822
▁stared	-11823
▁sundar	-11824
▁theirs	-11825
▁traped	-11826
▁trichy	-11827
▁tution	-11828
▁tweets	-11829
▁watsap	-11830
▁weekly	-11831
xxxxxxxx	-11832
▁assumed	-11833
▁bahadur	-11834
▁chesanu	-11835
▁costing	-11836
▁culture	-11837
▁currier	-11838
▁decrypt	-11839
▁detials	-11840
▁dilwane	-11841
▁divorce	-11842
▁macbook	-11843
▁postpon	-11844
▁prabhat	-11845
▁rajgarh	-11846
▁ramgarh	-11847
▁randeep	-11848
▁reduced	-11849
▁repayed	-11850
▁shivaji	-11851
▁tuition	-11852
▁vendors	-11853
▁weblink	-11854
▁wheeler	-11855
represent	-11856
travolook	-11857
▁awaiting	-11858
▁belonged	-11859
▁campaign	-11860
▁fidelity	-11861
▁followup	-11862
▁friendly	-11863
▁gathered	-11864
▁interven	-11865
▁kardhani	-11866
▁narrated	-11867
▁promoted	-11868
▁shrikant	-11869
▁snatched	-11870
▁tellgarm	-11871
▁unnecess	-11872
▁whatapps	-11873
complaints	-11874
pleasehelp	-11875
▁bothering	-11876
▁compalint	-11877
▁disappear	-11878
▁harasment	-11879
▁harresing	-11880
▁khatabook	-11881
▁marksheet	-11882
▁pharmaceu	-11883
▁registerd	-11884
▁resources	-11885
▁temporary	-11886
▁terrorism	-11887
▁thankfull	-11888
▁threading	-11889
▁threatned	-11890
▁trucaller	-11891
▁unblocked	-11892
▁attempting	-11893
▁conducting	-11894
▁fraudpaytm	-11895
▁motorcycle	-11896
▁neccessary	-11897
▁neighbours	-11898
▁reactivate	-11899
▁sentiments	-11900
▁smartwatch	-11901
▁vegetables	-11902
oobicyclecom	-11903
veymonkeycom	-11904
▁concentrate	-11905
▁connections	-11906
▁convenience	-11907
▁harrasement	-11908
▁perpetrator	-11909
▁scholarship	-11910
▁undersigned	-11911
▁anticipation	-11912
▁timepmamount	-11913
▁correspondence	-11914
▁throughinternet	-11915
hc	-11916
jz	-11917
lr	-11918
akk	-11919
bow	-11920
bre	-11921
dge	-11922
eem	-11923
ema	-11924
epy	-11925
hap	-11926
jdi	-11927
jdj	-11928
lax	-11929
mya	-11930
osa	-11931
tch	-11932
tee	-11933
udu	-11934
uka	-11935
uty	-11936
▁eh	-11937
▁fs	-11938
▁ht	-11939
▁kb	-11940
alim	-11941
anil	-11942
awar	-11943
bing	-11944
emer	-11945
esty	-11946
hank	-11947
hita	-11948
hulo	-11949
iety	-11950
inda	-11951
inet	-11952
lice	-11953
mukh	-11954
ndhi	-11955
odar	-11956
once	-11957
only	-11958
orow	-11959
phew	-11960
redy	-11961
sian	-11962
vane	-11963
vani	-11964
vari	-11965
vate	-11966
yand	-11967
▁aid	-11968
▁aka	-11969
▁ape	-11970
▁hsr	-11971
▁itr	-11972
▁len	-11973
▁msz	-11974
▁pla	-11975
▁psd	-11976
▁tay	-11977
▁vap	-11978
▁vel	-11979
▁wes	-11980
field	-11981
ntive	-11982
yadav	-11983
▁aftr	-11984
▁awas	-11985
▁boat	-11986
▁dent	-11987
▁dick	-11988
▁didi	-11989
▁feet	-11990
▁fron	-11991
▁fuel	-11992
▁gaur	-11993
▁goel	-11994
▁gopi	-11995
▁haii	-11996
▁hare	-11997
▁hepl	-11998
▁keli	-11999
▁krde	-12000
▁kyon	-12001
▁ling	-12002
▁maku	-12003
▁mask	-12004
▁niti	-12005
▁noor	-12006
▁pach	-12007
▁pisa	-12008
▁puja	-12009
▁pull	-12010
▁qnet	-12011
▁refe	-12012
▁rhta	-12013
▁ritu	-12014
▁scen	-12015
▁secs	-12016
▁stre	-12017
▁subh	-12018
▁thom	-12019
▁vent	-12020
▁wagh	-12021
▁wear	-12022
▁webi	-12023
▁yeah	-12024
aadhar	-12025
aincom	-12026
akshmi	-12027
ayenge	-12028
chaged	-12029
cident	-12030
father	-12031
govind	-12032
hammad	-12033
iciary	-12034
identi	-12035
lement	-12036
prasad	-12037
ternal	-12038
▁baaki	-12039
▁bache	-12040
▁batao	-12041
▁behen	-12042
▁chali	-12043
▁dhyan	-12044
▁ferti	-12045
▁fetch	-12046
▁goole	-12047
▁impos	-12048
▁incon	-12049
▁indra	-12050
▁karlo	-12051
▁kerne	-12052
▁madha	-12053
▁madhe	-12054
▁maker	-12055
▁manta	-12056
▁milta	-12057
▁music	-12058
▁muzhe	-12059
▁othpg	-12060
▁pahun	-12061
▁pearl	-12062
▁phili	-12063
▁pinky	-12064
▁quant	-12065
▁quote	-12066
▁rahai	-12067
▁reena	-12068
▁rooms	-12069
▁rural	-12070
▁sarva	-12071
▁spite	-12072
▁thumb	-12073
▁vinti	-12074
▁whtas	-12075
calling	-12076
ervices	-12077
finance	-12078
ivesale	-12079
pradesh	-12080
ressive	-12081
without	-12082
▁annaru	-12083
▁anshul	-12084
▁appand	-12085
▁argued	-12086
▁aswell	-12087
▁biswas	-12088
▁bullet	-12089
▁chairs	-12090
▁chated	-12091
▁cheats	-12092
▁chinch	-12093
▁chirag	-12094
▁chocol	-12095
▁clever	-12096
▁deeply	-12097
▁effort	-12098
▁establ	-12099
▁fruder	-12100
▁junior	-12101
▁khatam	-12102
▁krdiya	-12103
▁liquid	-12104
▁loaded	-12105
▁loving	-12106
▁moving	-12107
▁muzaff	-12108
▁nephew	-12109
▁nuksan	-12110
▁oclock	-12111
▁pareek	-12112
▁pasfar	-12113
▁pharma	-12114
▁player	-12115
▁prabhu	-12116
▁purani	-12117
▁survey	-12118
▁tricks	-12119
▁uncles	-12120
▁vasant	-12121
▁vcitim	-12122
▁winter	-12123
▁wonder	-12124
mahindra	-12125
recharge	-12126
relative	-12127
▁anxiety	-12128
▁barbaad	-12129
▁chalata	-12130
▁custody	-12131
▁distnag	-12132
▁godaddy	-12133
▁handled	-12134
▁harming	-12135
▁malware	-12136
▁pampist	-12137
▁paschim	-12138
▁tagging	-12139
▁timings	-12140
▁transit	-12141
▁viewing	-12142
▁vinayak	-12143
▁watched	-12144
▁yoggram	-12145
vgmailcom	-12146
▁attacked	-12147
▁betrayed	-12148
▁employed	-12149
▁exchaged	-12150
▁finserve	-12151
▁graphics	-12152
▁lifetime	-12153
▁mediator	-12154
▁mentions	-12155
▁narayana	-12156
▁offences	-12157
▁passward	-12158
▁prepared	-12159
▁proposed	-12160
▁upgraded	-12161
▁warranty	-12162
duckdnsorg	-12163
▁accounthe	-12164
▁borrowing	-12165
▁broadband	-12166
▁dedicated	-12167
▁extending	-12168
▁gradually	-12169
▁guarantor	-12170
▁irritated	-12171
▁karyavahi	-12172
▁mukherjee	-12173
▁secondary	-12174
▁subscribe	-12175
▁aadharcard	-12176
▁naukaricom	-12177
▁negligence	-12178
▁reimbursed	-12179
▁shopkeeper	-12180
▁struggling	-12181
▁coneenttest	-12182
▁distudaipur	-12183
▁identifying	-12184
▁instalments	-12185
▁interaction	-12186
▁questioning	-12187
▁successfull	-12188
▁travolookin	-12189
▁vaishnodevi	-12190
▁applecombill	-12191
▁blackmailers	-12192
▁distributing	-12193
▁battlegrounds	-12194
▁unnecessarily	-12195
▁aforementioned	-12196
pppppppppppppppp	-12197
ec	-12198
jb	-12199
qz	-12200
baz	-12201
bia	-12202
cks	-12203
clo	-12204
ely	-12205
hre	-12206
ilt	-12207
inc	-12208
isk	-12209
jus	-12210
kee	-12211
mak	-12212
mnt	-12213
rum	-12214
trs	-12215
who	-12216
▁bj	-12217
▁mk	-12218
▁vy	-12219
abha	-12220
alen	-12221
attu	-12222
avan	-12223
chya	-12224
gift	-12225
jiya	-12226
meri	-12227
okes	-12228
path	-12229
ruti	-12230
shri	-12231
site	-12232
told	-12233
unte	-12234
vaya	-12235
wixs	-12236
▁aom	-12237
▁bim	-12238
▁csr	-12239
▁dno	-12240
▁eth	-12241
▁gow	-12242
▁haa	-12243
▁hae	-12244
▁hnt	-12245
▁idr	-12246
▁kuk	-12247
▁nex	-12248
▁nii	-12249
▁okk	-12250
▁ore	-12251
▁ric	-12252
▁rto	-12253
▁sbl	-12254
▁suk	-12255
▁tul	-12256
▁uth	-12257
▁vej	-12258
▁vod	-12259
▁xxx	-12260
▁zar	-12261
adhan	-12262
asamy	-12263
bited	-12264
found	-12265
gning	-12266
halli	-12267
icted	-12268
itali	-12269
itals	-12270
pathi	-12271
print	-12272
reddy	-12273
reply	-12274
uture	-12275
vaish	-12276
vinod	-12277
▁aapl	-12278
▁aaps	-12279
▁acha	-12280
▁alli	-12281
▁apll	-12282
▁asia	-12283
▁azad	-12284
▁baja	-12285
▁bani	-12286
▁bari	-12287
▁bhul	-12288
▁bhup	-12289
▁chot	-12290
▁chut	-12291
▁core	-12292
▁cras	-12293
▁doct	-12294
▁durg	-12295
▁esfb	-12296
▁esse	-12297
▁exha	-12298
▁frds	-12299
▁gour	-12300
▁hong	-12301
▁jakr	-12302
▁khas	-12303
▁lega	-12304
▁lies	-12305
▁maro	-12306
▁memy	-12307
▁mens	-12308
▁mery	-12309
▁moon	-12310
▁nord	-12311
▁onto	-12312
▁saat	-12313
▁samj	-12314
▁scbl	-12315
▁sole	-12316
▁thee	-12317
▁tyan	-12318
▁vard	-12319
▁wich	-12320
achand	-12321
arched	-12322
chaman	-12323
energy	-12324
ghting	-12325
inagar	-12326
iously	-12327
karoli	-12328
market	-12329
mation	-12330
pering	-12331
rajesh	-12332
resher	-12333
▁agian	-12334
▁aksed	-12335
▁almir	-12336
▁ankur	-12337
▁anshu	-12338
▁barbo	-12339
▁bikes	-12340
▁bluff	-12341
▁bohut	-12342
▁china	-12343
▁codei	-12344
▁crdit	-12345
▁daksh	-12346
▁decre	-12347
▁dhadi	-12348
▁dhoke	-12349
▁dilva	-12350
▁enfor	-12351
▁enjoy	-12352
▁exams	-12353
▁excel	-12354
▁focus	-12355
▁jatin	-12356
▁kahne	-12357
▁kashi	-12358
▁kisan	-12359
▁krapa	-12360
▁lorry	-12361
▁losse	-12362
▁mahal	-12363
▁malum	-12364
▁mamta	-12365
▁meter	-12366
▁mosam	-12367
▁mujko	-12368
▁pagal	-12369
▁proff	-12370
▁rakhe	-12371
▁scale	-12372
▁selfi	-12373
▁sidhe	-12374
▁skill	-12375
▁sneha	-12376
▁stops	-12377
▁tarik	-12378
▁vahan	-12379
▁yokka	-12380
anction	-12381
bbrgbxx	-12382
message	-12383
▁addpno	-12384
▁aomunt	-12385
▁apollo	-12386
▁ashlil	-12387
▁bhabhi	-12388
▁bombay	-12389
▁cerdit	-12390
▁charan	-12391
▁cheyal	-12392
▁column	-12393
▁dilaye	-12394
▁docome	-12395
▁explan	-12396
▁futher	-12397
▁ghansh	-12398
▁height	-12399
▁helpme	-12400
▁kurtis	-12401
▁maange	-12402
▁mentor	-12403
▁namemo	-12404
▁nikali	-12405
▁notutr	-12406
▁pasand	-12407
▁prabha	-12408
▁proves	-12409
▁ration	-12410
▁repist	-12411
▁rights	-12412
▁shayam	-12413
▁stuffs	-12414
▁subash	-12415
▁websit	-12416
▁amounti	-12417
▁chakkar	-12418
▁confess	-12419
▁conspir	-12420
▁costmer	-12421
▁dheeraj	-12422
▁doctors	-12423
▁gallary	-12424
▁hateful	-12425
▁interst	-12426
▁lagakar	-12427
▁lottary	-12428
▁mission	-12429
▁namaste	-12430
▁nominal	-12431
▁orginal	-12432
▁pattern	-12433
▁pertain	-12434
▁pushing	-12435
▁refound	-12436
▁ruining	-12437
▁sandhya	-12438
▁servers	-12439
▁subsidy	-12440
▁swiping	-12441
▁untrace	-12442
▁vinanti	-12443
▁vishwas	-12444
▁watches	-12445
▁yesbank	-12446
▁actively	-12447
▁amounted	-12448
▁bhardwaj	-12449
▁blackmai	-12450
▁codeutib	-12451
▁deletion	-12452
▁effected	-12453
▁excutive	-12454
▁executed	-12455
▁freefire	-12456
▁improper	-12457
▁jabalpur	-12458
▁kaarvayi	-12459
▁loanthey	-12460
▁managers	-12461
▁marchant	-12462
▁massaged	-12463
▁patients	-12464
▁promptly	-12465
▁pspratap	-12466
▁quantity	-12467
▁receives	-12468
▁unidenti	-12469
iagmailcom	-12470
lagmailcom	-12471
wixsitecom	-12472
▁amountbut	-12473
▁approving	-12474
▁customere	-12475
▁dowanload	-12476
▁generally	-12477
▁inquiring	-12478
▁medicines	-12479
▁missusing	-12480
▁moneythey	-12481
▁numberand	-12482
▁portrayed	-12483
▁recruiter	-12484
▁repeating	-12485
▁residency	-12486
▁residents	-12487
▁specially	-12488
▁specified	-12489
▁underaged	-12490
hangmailcom	-12491
oregmailcom	-12492
wargmailcom	-12493
▁accelshare	-12494
▁accessible	-12495
▁chargeback	-12496
▁foundation	-12497
▁impossible	-12498
▁industries	-12499
▁influenced	-12500
▁irrelevant	-12501
▁pratapgarh	-12502
▁accountthen	-12503
▁fraudcredit	-12504
▁fraudonline	-12505
▁intimations	-12506
▁qualification	-12507
surveymonkeycom	-12508
▁districtjaipur	-12509
dg	-12510
dn	-12511
ox	-12512
qx	-12513
sw	-12514
vh	-12515
vz	-12516
agn	-12517
blm	-12518
dfb	-12519
edo	-12520
eri	-12521
fru	-12522
itu	-12523
ldy	-12524
lts	-12525
mob	-12526
nad	-12527
nch	-12528
nic	-12529
peg	-12530
pot	-12531
rts	-12532
shs	-12533
tio	-12534
tir	-12535
trx	-12536
uco	-12537
uss	-12538
vit	-12539
zhe	-12540
▁dy	-12541
▁eg	-12542
aiye	-12543
akat	-12544
amar	-12545
ases	-12546
cise	-12547
cont	-12548
dail	-12549
days	-12550
gupt	-12551
iest	-12552
live	-12553
mene	-12554
mila	-12555
neem	-12556
ours	-12557
ower	-12558
pare	-12559
paru	-12560
pole	-12561
pthe	-12562
rana	-12563
rend	-12564
rupt	-12565
sole	-12566
unil	-12567
upta	-12568
uthi	-12569
yala	-12570
▁abo	-12571
▁alm	-12572
▁arc	-12573
▁awb	-12574
▁cad	-12575
▁cah	-12576
▁cen	-12577
▁dea	-12578
▁dra	-12579
▁emo	-12580
▁gym	-12581
▁hol	-12582
▁ibm	-12583
▁mss	-12584
▁mtl	-12585
▁pse	-12586
▁raw	-12587
▁sob	-12588
▁tcs	-12589
▁uae	-12590
▁ult	-12591
▁utk	-12592
▁vil	-12593
▁wht	-12594
aches	-12595
aliya	-12596
auske	-12597
clues	-12598
ering	-12599
gated	-12600
hanum	-12601
helic	-12602
ician	-12603
iling	-12604
ncies	-12605
patel	-12606
quick	-12607
recru	-12608
rence	-12609
scoin	-12610
ulars	-12611
ulous	-12612
umber	-12613
unaru	-12614
verte	-12615
▁apgb	-12616
▁atha	-12617
▁bhir	-12618
▁cine	-12619
▁coml	-12620
▁coun	-12621
▁daya	-12622
▁debi	-12623
▁dung	-12624
▁haik	-12625
▁hars	-12626
▁helo	-12627
▁kher	-12628
▁khor	-12629
▁kund	-12630
▁kunj	-12631
▁lawa	-12632
▁ledu	-12633
▁loko	-12634
▁meko	-12635
▁mont	-12636
▁mush	-12637
▁nill	-12638
▁pall	-12639
▁pine	-12640
▁prod	-12641
▁rain	-12642
▁rush	-12643
▁sada	-12644
▁saif	-12645
▁smjh	-12646
▁sule	-12647
▁tbhi	-12648
▁twee	-12649
▁unsc	-12650
▁vell	-12651
▁viva	-12652
▁wada	-12653
▁yadi	-12654
apuram	-12655
health	-12656
inform	-12657
loving	-12658
naresh	-12659
ptable	-12660
update	-12661
▁aditi	-12662
▁antha	-12663
▁aprad	-12664
▁archi	-12665
▁bapis	-12666
▁bassi	-12667
▁bewak	-12668
▁bhatt	-12669
▁bolkr	-12670
▁chall	-12671
▁dekho	-12672
▁falls	-12673
▁fruit	-12674
▁infom	-12675
▁jewel	-12676
▁kaafi	-12677
▁kahan	-12678
▁karam	-12679
▁karav	-12680
▁karle	-12681
▁karny	-12682
▁kerke	-12683
▁khera	-12684
▁khush	-12685
▁maina	-12686
▁namek	-12687
▁nehru	-12688
▁ordin	-12689
▁palla	-12690
▁radhe	-12691
▁raste	-12692
▁saari	-12693
▁tarha	-12694
▁tarun	-12695
▁tilak	-12696
▁uidai	-12697
▁unban	-12698
▁waise	-12699
▁wards	-12700
details	-12701
urities	-12702
▁ashwin	-12703
▁backed	-12704
▁banane	-12705
▁bansur	-12706
▁barbad	-12707
▁bilkul	-12708
▁carder	-12709
▁chalte	-12710
▁colleg	-12711
▁dekhne	-12712
▁exceed	-12713
▁flower	-12714
▁fround	-12715
▁ghetle	-12716
▁haisir	-12717
▁jisase	-12718
▁karegi	-12719
▁krwane	-12720
▁movies	-12721
▁nambar	-12722
▁packed	-12723
▁papers	-12724
▁permit	-12725
▁rajkot	-12726
▁reedem	-12727
▁rupiye	-12728
▁sammry	-12729
▁sangam	-12730
▁siphon	-12731
▁square	-12732
▁strike	-12733
▁studio	-12734
▁sunder	-12735
▁talent	-12736
▁andhulo	-12737
▁bhagwan	-12738
▁bhattac	-12739
▁compain	-12740
▁didwana	-12741
▁familys	-12742
▁fitness	-12743
▁fruader	-12744
▁imagine	-12745
▁istemal	-12746
▁kaushal	-12747
▁lehenga	-12748
▁naaptol	-12749
▁onboard	-12750
▁panchal	-12751
▁partial	-12752
▁persist	-12753
▁personi	-12754
▁philipp	-12755
▁photosh	-12756
▁printed	-12757
▁ransome	-12758
▁remains	-12759
▁resched	-12760
▁survive	-12761
▁toucher	-12762
▁treated	-12763
▁wanting	-12764
▁advisors	-12765
▁bhandari	-12766
▁cheapest	-12767
▁codeubin	-12768
▁detailsi	-12769
▁detailss	-12770
▁expiring	-12771
▁external	-12772
▁fraudule	-12773
▁gangapur	-12774
▁himachal	-12775
▁instance	-12776
▁insulted	-12777
▁intended	-12778
▁jitender	-12779
▁manually	-12780
▁misunder	-12781
▁modified	-12782
▁numberac	-12783
▁resource	-12784
▁traumati	-12785
ragmailcom	-12786
▁authorize	-12787
▁bhatnagar	-12788
▁complient	-12789
▁defective	-12790
▁developed	-12791
▁dungarpur	-12792
▁extracted	-12793
▁finalised	-12794
▁finishing	-12795
▁insurence	-12796
▁millitary	-12797
▁negotiate	-12798
▁photoshop	-12799
▁recharges	-12800
▁shekhawat	-12801
▁strictest	-12802
application	-12803
hargmailcom	-12804
travolookin	-12805
▁absconding	-12806
▁accountthe	-12807
▁allegation	-12808
▁chestunnam	-12809
▁destroying	-12810
▁distribute	-12811
▁kishangarh	-12812
▁misbehaved	-12813
▁supposedly	-12814
▁terminated	-12815
▁blackmaling	-12816
▁comfortable	-12817
▁established	-12818
▁jeevansathi	-12819
▁manufacture	-12820
▁particulars	-12821
▁untraceable	-12822
▁vishwakarma	-12823
vermagmailcom	-12824
▁continuation	-12825
▁prostitution	-12826
▁distbharatpur	-12827
▁distjhunjhunu	-12828
oudharygmailcom	-12829
▁friendrelative	-12830
dddddddddddddddd	-12831
▁congratulations	-12832
bm	-12833
gw	-12834
kz	-12835
mc	-12836
tv	-12837
xj	-12838
aan	-12839
alo	-12840
asp	-12841
ats	-12842
cho	-12843
eda	-12844
few	-12845
gat	-12846
gge	-12847
hee	-12848
ila	-12849
inb	-12850
ino	-12851
jod	-12852
lat	-12853
lif	-12854
mel	-12855
mur	-12856
nik	-12857
noi	-12858
nty	-12859
omo	-12860
qui	-12861
sex	-12862
sth	-12863
tly	-12864
uma	-12865
uts	-12866
yon	-12867
zar	-12868
▁bf	-12869
▁dg	-12870
▁gs	-12871
▁iy	-12872
▁mj	-12873
▁nk	-12874
▁np	-12875
▁vc	-12876
▁yu	-12877
aiah	-12878
amit	-12879
bari	-12880
been	-12881
bees	-12882
bpay	-12883
cast	-12884
elve	-12885
eshi	-12886
itel	-12887
jkls	-12888
lege	-12889
lope	-12890
made	-12891
mahe	-12892
mare	-12893
mobi	-12894
neet	-12895
orty	-12896
siya	-12897
uuuu	-12898
wife	-12899
wing	-12900
▁aae	-12901
▁eye	-12902
▁gok	-12903
▁hea	-12904
▁krk	-12905
▁mnc	-12906
▁mra	-12907
▁nob	-12908
▁odd	-12909
▁oru	-12910
▁pim	-12911
▁psc	-12912
▁pst	-12913
▁ptm	-12914
▁rou	-12915
▁sea	-12916
▁sty	-12917
▁tai	-12918
▁tie	-12919
▁tim	-12920
▁upr	-12921
▁yai	-12922
acity	-12923
anded	-12924
arati	-12925
ayega	-12926
bajaj	-12927
eemed	-12928
eting	-12929
habad	-12930
hania	-12931
hshsh	-12932
indcx	-12933
inesh	-12934
known	-12935
lared	-12936
lenge	-12937
maker	-12938
osity	-12939
othey	-12940
ource	-12941
owing	-12942
pally	-12943
tique	-12944
ublic	-12945
ucted	-12946
unath	-12947
works	-12948
▁absu	-12949
▁accu	-12950
▁adop	-12951
▁affi	-12952
▁agai	-12953
▁amou	-12954
▁beer	-12955
▁belt	-12956
▁bete	-12957
▁bhaw	-12958
▁brah	-12959
▁bura	-12960
▁cars	-12961
▁crop	-12962
▁dawn	-12963
▁ends	-12964
▁fase	-12965
▁film	-12966
▁gods	-12967
▁haan	-12968
▁hair	-12969
▁heal	-12970
▁hsbc	-12971
▁jaya	-12972
▁kori	-12973
▁krra	-12974
▁meas	-12975
▁mehr	-12976
▁mela	-12977
▁mesg	-12978
▁msge	-12979
▁payi	-12980
▁pert	-12981
▁rama	-12982
▁raud	-12983
▁rply	-12984
▁sall	-12985
▁shaw	-12986
▁tiru	-12987
adabad	-12988
aicici	-12989
arovar	-12990
bicoin	-12991
rupees	-12992
rupted	-12993
urvedi	-12994
vendra	-12995
vinder	-12996
xicici	-12997
xpress	-12998
yadhar	-12999
▁arpit	-13000
▁backi	-13001
▁badle	-13002
▁batay	-13003
▁begum	-13004
▁bnane	-13005
▁bound	-13006
▁brach	-13007
▁btaye	-13008
▁charg	-13009
▁chitr	-13010
▁decor	-13011
▁dekhe	-13012
▁dukan	-13013
▁forud	-13014
▁frend	-13015
▁grace	-13016
▁ifsci	-13017
▁infor	-13018
▁jawan	-13019
▁karol	-13020
▁kurti	-13021
▁ludhi	-13022
▁majbo	-13023
▁nikle	-13024
▁pannu	-13025
▁patti	-13026
▁range	-13027
▁rasta	-13028
▁sapna	-13029
▁sarch	-13030
▁satha	-13031
▁seize	-13032
▁shail	-13033
▁siwan	-13034
▁snaps	-13035
▁teams	-13036
▁tests	-13037
▁themi	-13038
▁unbox	-13039
▁upyog	-13040
▁urged	-13041
▁usaka	-13042
▁watts	-13043
because	-13044
hashcom	-13045
olution	-13046
rasment	-13047
trading	-13048
▁aginst	-13049
▁alredy	-13050
▁amonut	-13051
▁astrol	-13052
▁backup	-13053
▁batayi	-13054
▁beyond	-13055
▁border	-13056
▁cancer	-13057
▁canera	-13058
▁chanak	-13059
▁conclu	-13060
▁dharam	-13061
▁differ	-13062
▁dikhao	-13063
▁divide	-13064
▁extent	-13065
▁forces	-13066
▁googel	-13067
▁headqu	-13068
▁impspa	-13069
▁incase	-13070
▁insted	-13071
▁jalore	-13072
▁kamble	-13073
▁khatri	-13074
▁lately	-13075
▁locate	-13076
▁lowest	-13077
▁muskan	-13078
▁namber	-13079
▁nashik	-13080
▁neelam	-13081
▁panwar	-13082
▁phoned	-13083
▁poocha	-13084
▁prasan	-13085
▁renwal	-13086
▁scaner	-13087
▁subham	-13088
▁tapped	-13089
▁theyll	-13090
▁tidnhi	-13091
▁twelve	-13092
▁upiref	-13093
▁viewed	-13094
▁vulger	-13095
▁wealth	-13096
bilities	-13097
ceptable	-13098
ervation	-13099
ofofofof	-13100
▁accepts	-13101
▁actress	-13102
▁almirah	-13103
▁ashwani	-13104
▁balence	-13105
▁becomes	-13106
▁bhushan	-13107
▁bulling	-13108
▁charted	-13109
▁clarify	-13110
▁courior	-13111
▁detalis	-13112
▁females	-13113
▁karvahi	-13114
▁letters	-13115
▁mandate	-13116
▁matured	-13117
▁messgae	-13118
▁methods	-13119
▁nominee	-13120
▁parcels	-13121
▁prathma	-13122
▁tactics	-13123
▁trainer	-13124
▁useless	-13125
▁webiste	-13126
▁windows	-13127
ffmailcom	-13128
jgmailcom	-13129
khapatnam	-13130
pgmailcom	-13131
ygmailcom	-13132
▁advisory	-13133
▁ayurveda	-13134
▁chairman	-13135
▁compound	-13136
▁declared	-13137
▁feelings	-13138
▁ifscicic	-13139
▁kolkatta	-13140
▁kulkarni	-13141
▁landmark	-13142
▁millions	-13143
▁moneyand	-13144
▁movement	-13145
▁politely	-13146
▁relating	-13147
▁reliable	-13148
▁teaching	-13149
▁tommorow	-13150
helicopter	-13151
▁appvictim	-13152
▁breaching	-13153
▁carefully	-13154
▁christmas	-13155
▁compelled	-13156
▁curiosity	-13157
▁dhanyawad	-13158
▁ghanshyam	-13159
▁jagatpura	-13160
▁janakpuri	-13161
▁meenakshi	-13162
▁obviously	-13163
▁pareshani	-13164
▁perverted	-13165
▁protected	-13166
▁recommend	-13167
▁sultanpur	-13168
▁vachinadi	-13169
argohashcom	-13170
▁corrective	-13171
▁defrauding	-13172
▁extracting	-13173
▁interacted	-13174
▁journalist	-13175
▁negotiated	-13176
▁retrieving	-13177
▁securities	-13178
▁suspension	-13179
▁thoroughly	-13180
▁vijayawada	-13181
registration	-13182
▁circulation	-13183
▁commitments	-13184
▁grandfather	-13185
▁kncchaincom	-13186
▁peaceloving	-13187
▁upgradation	-13188
▁uttarakhand	-13189
▁photoshopped	-13190
sharmagmailcom	-13191
▁registeration	-13192
▁magicbrickscom	-13193
eu	-13194
yt	-13195
zc	-13196
zm	-13197
ado	-13198
arm	-13199
bes	-13200
biz	-13201
ear	-13202
ete	-13203
fam	-13204
fit	-13205
gas	-13206
gue	-13207
hik	-13208
hry	-13209
irt	-13210
jra	-13211
kbc	-13212
kon	-13213
lty	-13214
mam	-13215
rik	-13216
sab	-13217
saf	-13218
tai	-13219
thr	-13220
uga	-13221
yst	-13222
▁dk	-13223
▁ec	-13224
▁jd	-13225
▁uh	-13226
▁vk	-13227
alam	-13228
aney	-13229
aran	-13230
aras	-13231
ashe	-13232
bhim	-13233
cano	-13234
chne	-13235
corp	-13236
fdrl	-13237
flip	-13238
fume	-13239
hich	-13240
idex	-13241
lang	-13242
mash	-13243
otos	-13244
pada	-13245
pper	-13246
rece	-13247
rukh	-13248
sant	-13249
shiv	-13250
skar	-13251
umal	-13252
vals	-13253
wade	-13254
wick	-13255
wood	-13256
▁bnb	-13257
▁cmd	-13258
▁crn	-13259
▁dua	-13260
▁fay	-13261
▁fol	-13262
▁jon	-13263
▁jor	-13264
▁joy	-13265
▁jye	-13266
▁kno	-13267
▁knw	-13268
▁mlm	-13269
▁mnt	-13270
▁mud	-13271
▁ncr	-13272
▁neb	-13273
▁owe	-13274
▁pax	-13275
▁pip	-13276
▁qui	-13277
▁reu	-13278
▁rus	-13279
▁suj	-13280
▁tea	-13281
▁tge	-13282
aland	-13283
andra	-13284
aried	-13285
aysia	-13286
block	-13287
check	-13288
eling	-13289
haran	-13290
hence	-13291
hinda	-13292
ickle	-13293
incom	-13294
ndras	-13295
qwest	-13296
uting	-13297
▁aara	-13298
▁achi	-13299
▁anal	-13300
▁anta	-13301
▁asse	-13302
▁bath	-13303
▁chen	-13304
▁chip	-13305
▁chud	-13306
▁clar	-13307
▁darr	-13308
▁deat	-13309
▁deme	-13310
▁didt	-13311
▁divy	-13312
▁drag	-13313
▁evry	-13314
▁faud	-13315
▁gndi	-13316
▁helf	-13317
▁jbki	-13318
▁kati	-13319
▁kita	-13320
▁kris	-13321
▁lege	-13322
▁loop	-13323
▁mbbs	-13324
▁mtlb	-13325
▁mund	-13326
▁nair	-13327
▁opin	-13328
▁poco	-13329
▁raza	-13330
▁rise	-13331
▁sate	-13332
▁semi	-13333
▁soll	-13334
▁song	-13335
▁sonn	-13336
▁tank	-13337
▁tham	-13338
▁toys	-13339
▁ukha	-13340
▁undi	-13341
▁uttr	-13342
▁vere	-13343
▁vist	-13344
▁wake	-13345
▁wood	-13346
▁wrna	-13347
▁yogi	-13348
cesary	-13349
kishor	-13350
liguri	-13351
mumbai	-13352
portal	-13353
render	-13354
▁alive	-13355
▁arent	-13356
▁award	-13357
▁badha	-13358
▁bhari	-13359
▁bothe	-13360
▁calll	-13361
▁defer	-13362
▁deliv	-13363
▁dipak	-13364
▁finen	-13365
▁flexi	-13366
▁frome	-13367
▁glass	-13368
▁googl	-13369
▁guest	-13370
▁hopes	-13371
▁indir	-13372
▁james	-13373
▁jitni	-13374
▁kamla	-13375
▁karay	-13376
▁karur	-13377
▁kisne	-13378
▁kraye	-13379
▁mahat	-13380
▁meant	-13381
▁miner	-13382
▁palam	-13383
▁phale	-13384
▁pregn	-13385
▁probe	-13386
▁punit	-13387
▁raghu	-13388
▁rehne	-13389
▁rinku	-13390
▁rsand	-13391
▁ruepy	-13392
▁sethi	-13393
▁shant	-13394
▁slots	-13395
▁sonal	-13396
▁swami	-13397
▁swati	-13398
▁telis	-13399
▁thisi	-13400
▁tough	-13401
▁traps	-13402
▁trnas	-13403
▁turns	-13404
▁urban	-13405
▁virel	-13406
▁yahan	-13407
▁youre	-13408
▁youth	-13409
freepay	-13410
however	-13411
kartcom	-13412
ntially	-13413
request	-13414
tically	-13415
website	-13416
▁anidex	-13417
▁atlast	-13418
▁batana	-13419
▁battle	-13420
▁bayana	-13421
▁bottom	-13422
▁campus	-13423
▁chacha	-13424
▁chalta	-13425
▁chepin	-13426
▁clinic	-13427
▁corner	-13428
▁counse	-13429
▁crying	-13430
▁daalne	-13431
▁dekhte	-13432
▁dheere	-13433
▁dryfru	-13434
▁esliye	-13435
▁exited	-13436
▁hotels	-13437
▁kannan	-13438
▁keliye	-13439
▁kyunki	-13440
▁mirror	-13441
▁mohali	-13442
▁munici	-13443
▁niwasi	-13444
▁padegi	-13445
▁pancha	-13446
▁panjab	-13447
▁pravin	-13448
▁priced	-13449
▁puneet	-13450
▁rashmi	-13451
▁recall	-13452
▁revolt	-13453
▁routed	-13454
▁safegu	-13455
▁seized	-13456
▁shaadi	-13457
▁sports	-13458
▁sriram	-13459
▁sultan	-13460
▁traded	-13461
▁tumara	-13462
▁varsha	-13463
▁vision	-13464
▁whatts	-13465
▁yearly	-13466
acturing	-13467
business	-13468
essional	-13469
helphelp	-13470
iiiiiiii	-13471
mediacom	-13472
▁apprehe	-13473
▁avdhesh	-13474
▁backend	-13475
▁blunder	-13476
▁breakup	-13477
▁cashbus	-13478
▁charger	-13479
▁checkup	-13480
▁coindcx	-13481
▁council	-13482
▁declare	-13483
▁deduced	-13484
▁forword	-13485
▁grocery	-13486
▁jaayega	-13487
▁killing	-13488
▁mahajan	-13489
▁matches	-13490
▁pardeep	-13491
▁patidar	-13492
▁problam	-13493
▁radhika	-13494
▁rajveer	-13495
▁science	-13496
▁singhal	-13497
▁siralen	-13498
▁targets	-13499
▁traffic	-13500
▁witness	-13501
vertently	-13502
▁accurate	-13503
▁allotted	-13504
▁annexure	-13505
▁atteched	-13506
▁availing	-13507
▁bankarke	-13508
▁bareilly	-13509
▁bhejenge	-13510
▁doctored	-13511
▁esteemed	-13512
▁malaysia	-13513
▁painting	-13514
▁payphone	-13515
▁ravinder	-13516
▁richcash	-13517
▁salaried	-13518
▁siliguri	-13519
▁tampered	-13520
▁tisukoni	-13521
▁unboxing	-13522
argmailcom	-13523
fashionsal	-13524
munication	-13525
ongmailcom	-13526
registered	-13527
▁appointed	-13528
▁continous	-13529
▁devayatka	-13530
▁intension	-13531
▁intervene	-13532
▁namminchi	-13533
▁pertinent	-13534
▁relations	-13535
▁reletives	-13536
▁scamsters	-13537
▁shopclues	-13538
▁siddharth	-13539
▁starmaker	-13540
▁subjected	-13541
▁switchoff	-13542
rajgmailcom	-13543
▁aggressive	-13544
▁chaturvedi	-13545
▁conspiracy	-13546
▁disclosing	-13547
▁distbarmer	-13548
▁indicating	-13549
▁internship	-13550
▁monitoring	-13551
▁tranferred	-13552
▁tranistion	-13553
ndragmailcom	-13554
▁destination	-13555
▁humiliating	-13556
▁operational	-13557
▁philippines	-13558
▁balckmailing	-13559
▁misrepresent	-13560
▁rentpayments	-13561
▁specifically	-13562
▁unacceptable	-13563
▁unidentified	-13564
▁distributorship	-13565
aw	-13566
cf	-13567
dk	-13568
hb	-13569
hk	-13570
jm	-13571
jx	-13572
aik	-13573
apk	-13574
cid	-13575
ens	-13576
fan	-13577
gha	-13578
got	-13579
gra	-13580
gro	-13581
hem	-13582
ico	-13583
iru	-13584
jad	-13585
jjr	-13586
kim	-13587
kit	-13588
lor	-13589
nns	-13590
onu	-13591
ork	-13592
ria	-13593
shn	-13594
sis	-13595
tia	-13596
uff	-13597
uue	-13598
▁eb	-13599
▁ix	-13600
▁tc	-13601
▁wb	-13602
▁wd	-13603
▁yn	-13604
▁zo	-13605
ably	-13606
ahul	-13607
ajay	-13608
asya	-13609
babu	-13610
cers	-13611
core	-13612
draw	-13613
edar	-13614
edhu	-13615
fake	-13616
gone	-13617
guru	-13618
heed	-13619
jent	-13620
jite	-13621
jpur	-13622
kasi	-13623
keke	-13624
kund	-13625
oned	-13626
ping	-13627
stor	-13628
sume	-13629
were	-13630
▁abh	-13631
▁acx	-13632
▁akh	-13633
▁bap	-13634
▁bow	-13635
▁dhu	-13636
▁dim	-13637
▁doo	-13638
▁dth	-13639
▁eat	-13640
▁ect	-13641
▁foe	-13642
▁fom	-13643
▁gao	-13644
▁gaz	-13645
▁gde	-13646
▁git	-13647
▁hei	-13648
▁hlp	-13649
▁ips	-13650
▁jav	-13651
▁jes	-13652
▁jul	-13653
▁kch	-13654
▁kup	-13655
▁lim	-13656
▁mca	-13657
▁mos	-13658
▁nbr	-13659
▁psa	-13660
▁rti	-13661
▁sle	-13662
▁wag	-13663
▁wai	-13664
▁yun	-13665
aling	-13666
amika	-13667
ashed	-13668
eshot	-13669
ethey	-13670
forms	-13671
gured	-13672
lwada	-13673
mises	-13674
odata	-13675
omers	-13676
orium	-13677
photo	-13678
rawat	-13679
ropro	-13680
stige	-13681
umdar	-13682
▁aala	-13683
▁adda	-13684
▁agan	-13685
▁alla	-13686
▁appr	-13687
▁atms	-13688
▁avan	-13689
▁ayaa	-13690
▁bast	-13691
▁beje	-13692
▁bust	-13693
▁chaw	-13694
▁cori	-13695
▁debe	-13696
▁dind	-13697
▁fain	-13698
▁gent	-13699
▁geya	-13700
▁grou	-13701
▁hoke	-13702
▁hora	-13703
▁jaat	-13704
▁khil	-13705
▁khne	-13706
▁kudi	-13707
▁lelo	-13708
▁mese	-13709
▁mono	-13710
▁mujy	-13711
▁nick	-13712
▁oobk	-13713
▁pard	-13714
▁phne	-13715
▁pran	-13716
▁priy	-13717
▁rank	-13718
▁reel	-13719
▁rice	-13720
▁shal	-13721
▁shor	-13722
▁suna	-13723
▁sush	-13724
▁tall	-13725
▁thau	-13726
▁tisk	-13727
▁vahi	-13728
▁vine	-13729
▁wame	-13730
asking	-13731
before	-13732
gnised	-13733
groups	-13734
gurjar	-13735
httpsc	-13736
lessly	-13737
ontact	-13738
ourage	-13739
people	-13740
pvtltd	-13741
reding	-13742
ueueue	-13743
wealth	-13744
winder	-13745
▁aisle	-13746
▁baato	-13747
▁bhaja	-13748
▁conat	-13749
▁daysi	-13750
▁disha	-13751
▁drink	-13752
▁drone	-13753
▁enaku	-13754
▁erase	-13755
▁fools	-13756
▁habit	-13757
▁harrs	-13758
▁helip	-13759
▁ielts	-13760
▁imedi	-13761
▁isase	-13762
▁krata	-13763
▁likhe	-13764
▁linke	-13765
▁modes	-13766
▁moeny	-13767
▁motiv	-13768
▁nohar	-13769
▁proce	-13770
▁rahne	-13771
▁sanju	-13772
▁santh	-13773
▁scary	-13774
▁seper	-13775
▁shams	-13776
▁sikha	-13777
▁split	-13778
▁stake	-13779
▁stays	-13780
▁sumer	-13781
▁swich	-13782
▁texti	-13783
▁torch	-13784
▁ultra	-13785
▁virat	-13786
▁virul	-13787
finally	-13788
krishna	-13789
oplease	-13790
procket	-13791
reement	-13792
riended	-13793
▁accuse	-13794
▁badane	-13795
▁blance	-13796
▁compan	-13797
▁decent	-13798
▁dilaya	-13799
▁eleven	-13800
▁ennoda	-13801
▁escape	-13802
▁gotten	-13803
▁harris	-13804
▁herein	-13805
▁inlogo	-13806
▁kinldy	-13807
▁kotput	-13808
▁langau	-13809
▁lasted	-13810
▁mechan	-13811
▁messge	-13812
▁miscon	-13813
▁mistak	-13814
▁msging	-13815
▁oxigen	-13816
▁pasted	-13817
▁permis	-13818
▁perosn	-13819
▁plaese	-13820
▁purana	-13821
▁pyment	-13822
▁reddit	-13823
▁samjha	-13824
▁seduce	-13825
▁shweta	-13826
▁sorted	-13827
▁stores	-13828
▁suchit	-13829
▁suthar	-13830
▁techno	-13831
▁triple	-13832
▁vocher	-13833
▁vulner	-13834
▁whatss	-13835
▁zebpay	-13836
kfkfkfkf	-13837
nderabad	-13838
▁addgaav	-13839
▁againts	-13840
▁apologi	-13841
▁arguing	-13842
▁auction	-13843
▁bajrang	-13844
▁becouse	-13845
▁bharosa	-13846
▁biodata	-13847
▁command	-13848
▁confuse	-13849
▁crucial	-13850
▁dominos	-13851
▁dowload	-13852
▁dwivedi	-13853
▁fearing	-13854
▁fertili	-13855
▁figured	-13856
▁freedam	-13857
▁haimere	-13858
▁harmony	-13859
▁httpsww	-13860
▁kalyani	-13861
▁karliya	-13862
▁khilaaf	-13863
▁kingdom	-13864
▁lecture	-13865
▁mahawar	-13866
▁million	-13867
▁perfume	-13868
▁possess	-13869
▁prashad	-13870
▁proving	-13871
▁provoke	-13872
▁removal	-13873
▁riqwest	-13874
▁servant	-13875
▁slander	-13876
▁smaller	-13877
▁tenkasi	-13878
▁thefted	-13879
▁thorugh	-13880
▁wouldnt	-13881
energycom	-13882
▁abhijeet	-13883
▁akhilesh	-13884
▁argohash	-13885
▁attacker	-13886
▁baseless	-13887
▁beleived	-13888
▁bewakoof	-13889
▁bhartpur	-13890
▁bhejunga	-13891
▁chanakya	-13892
▁chanchal	-13893
▁commited	-13894
▁deadline	-13895
▁distress	-13896
▁disttonk	-13897
▁goodwill	-13898
▁handcash	-13899
▁himalaya	-13900
▁inconven	-13901
▁invoices	-13902
▁ipoindhi	-13903
▁landlord	-13904
▁loandata	-13905
▁measures	-13906
▁mountain	-13907
▁neighbor	-13908
▁operates	-13909
▁pharmacy	-13910
▁prestige	-13911
▁recoding	-13912
▁republic	-13913
▁shahdara	-13914
▁shahrukh	-13915
▁somedays	-13916
▁virendra	-13917
▁yogendra	-13918
▁accountso	-13919
▁announced	-13920
▁authorise	-13921
▁balckmail	-13922
▁brokerage	-13923
▁celebrity	-13924
▁certified	-13925
▁crorepati	-13926
▁debitcard	-13927
▁dependent	-13928
▁distsikar	-13929
▁effecting	-13930
▁establish	-13931
▁exhausted	-13932
▁haiplease	-13933
▁hospitali	-13934
▁immidiate	-13935
▁maligning	-13936
▁messeging	-13937
▁moradabad	-13938
▁municipal	-13939
▁otpvictim	-13940
▁packaging	-13941
▁rejecting	-13942
▁rentickle	-13943
▁telecalls	-13944
▁unlimited	-13945
ginmediacom	-13946
▁accountand	-13947
▁challenged	-13948
▁compromise	-13949
▁dipression	-13950
▁finanacial	-13951
▁headphones	-13952
▁humiliated	-13953
▁jabardasti	-13954
▁misguiding	-13955
▁noifscsbin	-13956
▁numberthey	-13957
▁pressuring	-13958
▁telisindhi	-13959
▁thankfully	-13960
▁timeamdate	-13961
▁unblocking	-13962
▁whatsoever	-13963
professional	-13964
▁aaplication	-13965
▁aggregating	-13966
▁cheyadaniki	-13967
▁complainent	-13968
▁credibility	-13969
▁designation	-13970
▁enforcement	-13971
▁fradulently	-13972
▁furthermore	-13973
▁pressurised	-13974
▁transiction	-13975
▁trasacation	-13976
rediffmailcom	-13977
sainigmailcom	-13978
▁arrangements	-13979
▁secunderabad	-13980
▁surprisingly	-13981
▁transanction	-13982
▁inadvertently	-13983
▁manufacturing	-13984
▁wwwkncchaincom	-13985
cccccccccccccccc	-13986
jjjjjjjjjjjjjjjj	-13987
cz	-13988
gk	-13989
mg	-13990
tp	-13991
ux	-13992
vl	-13993
xk	-13994
abu	-13995
bak	-13996
bok	-13997
boy	-13998
cam	-13999
cor	-14000
cou	-14001
def	-14002
eng	-14003
hor	-14004
iie	-14005
iso	-14006
kkd	-14007
loc	-14008
lye	-14009
mex	-14010
mol	-14011
oko	-14012
sup	-14013
tak	-14014
▁cn	-14015
▁hf	-14016
▁io	-14017
▁jj	-14018
▁kp	-14019
▁nr	-14020
▁pw	-14021
▁rj	-14022
▁zu	-14023
amal	-14024
asia	-14025
atan	-14026
atin	-14027
cour	-14028
dydy	-14029
gain	-14030
hanu	-14031
heer	-14032
hest	-14033
hrab	-14034
icyc	-14035
iggy	-14036
illa	-14037
inen	-14038
iwal	-14039
kara	-14040
khat	-14041
lata	-14042
mali	-14043
navi	-14044
oria	-14045
para	-14046
read	-14047
ssin	-14048
uday	-14049
usne	-14050
utha	-14051
vaad	-14052
zone	-14053
▁ade	-14054
▁amu	-14055
▁aqu	-14056
▁bij	-14057
▁bum	-14058
▁cus	-14059
▁dac	-14060
▁drs	-14061
▁enq	-14062
▁ern	-14063
▁eta	-14064
▁gaj	-14065
▁gum	-14066
▁icu	-14067
▁iec	-14068
▁iff	-14069
▁igi	-14070
▁jur	-14071
▁kac	-14072
▁mim	-14073
▁mje	-14074
▁mpl	-14075
▁mrp	-14076
▁mul	-14077
▁nei	-14078
▁nes	-14079
▁pcs	-14080
▁phe	-14081
▁prr	-14082
▁ria	-14083
▁sem	-14084
▁shu	-14085
▁ski	-14086
▁swa	-14087
▁tej	-14088
▁ths	-14089
▁tik	-14090
▁til	-14091
▁tod	-14092
▁ubi	-14093
▁udi	-14094
▁ukt	-14095
▁ume	-14096
▁usk	-14097
▁yhe	-14098
adian	-14099
agiri	-14100
andhi	-14101
arcom	-14102
asked	-14103
chitt	-14104
cibly	-14105
click	-14106
dance	-14107
deals	-14108
ether	-14109
iries	-14110
issed	-14111
lance	-14112
ourav	-14113
proof	-14114
rator	-14115
vance	-14116
▁acte	-14117
▁ajio	-14118
▁alto	-14119
▁amir	-14120
▁amnt	-14121
▁bade	-14122
▁balo	-14123
▁bass	-14124
▁bejh	-14125
▁bnak	-14126
▁bure	-14127
▁cali	-14128
▁chap	-14129
▁dekr	-14130
▁dere	-14131
▁dogs	-14132
▁ease	-14133
▁euro	-14134
▁faru	-14135
▁fuck	-14136
▁gore	-14137
▁hall	-14138
▁hime	-14139
▁insi	-14140
▁jack	-14141
▁kalp	-14142
▁kesh	-14143
▁khaa	-14144
▁lien	-14145
▁maza	-14146
▁mohi	-14147
▁monu	-14148
▁mood	-14149
▁pend	-14150
▁phul	-14151
▁poon	-14152
▁prak	-14153
▁revo	-14154
▁rohi	-14155
▁rose	-14156
▁shil	-14157
▁silk	-14158
▁sita	-14159
▁suis	-14160
▁tana	-14161
▁thia	-14162
▁uday	-14163
▁vand	-14164
▁vidy	-14165
▁waqt	-14166
▁wash	-14167
▁wath	-14168
ademic	-14169
akulam	-14170
amgarh	-14171
ashish	-14172
bedkar	-14173
biding	-14174
global	-14175
indiac	-14176
maicom	-14177
naught	-14178
nodevi	-14179
office	-14180
planet	-14181
shopin	-14182
tigate	-14183
walior	-14184
▁barbb	-14185
▁becoz	-14186
▁bhana	-14187
▁bolra	-14188
▁bulli	-14189
▁cited	-14190
▁dealt	-14191
▁deepa	-14192
▁desai	-14193
▁dimin	-14194
▁eager	-14195
▁fakes	-14196
▁faroo	-14197
▁firse	-14198
▁frame	-14199
▁frank	-14200
▁fruod	-14201
▁gajan	-14202
▁gokul	-14203
▁hefty	-14204
▁imidi	-14205
▁inced	-14206
▁jagan	-14207
▁jansa	-14208
▁janti	-14209
▁jaygi	-14210
▁kabir	-14211
▁karli	-14212
▁karye	-14213
▁kheda	-14214
▁khurd	-14215
▁kiyaa	-14216
▁kochi	-14217
▁lalch	-14218
▁lgaya	-14219
▁lived	-14220
▁logan	-14221
▁mahin	-14222
▁medam	-14223
▁metal	-14224
▁msged	-14225
▁nager	-14226
▁namak	-14227
▁nammi	-14228
▁navin	-14229
▁omkar	-14230
▁parth	-14231
▁patra	-14232
▁poses	-14233
▁preet	-14234
▁reche	-14235
▁resem	-14236
▁saudi	-14237
▁topic	-14238
▁trasn	-14239
▁ussne	-14240
▁whith	-14241
▁yatra	-14242
anganer	-14243
anydesk	-14244
artment	-14245
booking	-14246
dfcbank	-14247
dholpur	-14248
friends	-14249
indiain	-14250
ishable	-14251
narayan	-14252
preview	-14253
▁anyway	-14254
▁bhadra	-14255
▁bharna	-14256
▁causes	-14257
▁chahie	-14258
▁comply	-14259
▁diduct	-14260
▁dikhai	-14261
▁emitra	-14262
▁faster	-14263
▁growth	-14264
▁haking	-14265
▁himbut	-14266
▁kanuni	-14267
▁karavi	-14268
▁karnal	-14269
▁kartik	-14270
▁kidney	-14271
▁kumars	-14272
▁leliya	-14273
▁mangta	-14274
▁mathod	-14275
▁merged	-14276
▁metter	-14277
▁molest	-14278
▁nivasi	-14279
▁persan	-14280
▁poster	-14281
▁pradip	-14282
▁pratha	-14283
▁prizes	-14284
▁purely	-14285
▁putted	-14286
▁rapido	-14287
▁reciev	-14288
▁retrun	-14289
▁ritika	-14290
▁rsdate	-14291
▁sakshi	-14292
▁sandip	-14293
▁shadow	-14294
▁shakti	-14295
▁shayad	-14296
▁shreya	-14297
▁somone	-14298
▁swiggy	-14299
▁tanwar	-14300
▁thisuk	-14301
▁toatal	-14302
▁tshirt	-14303
▁vairal	-14304
▁verbal	-14305
▁xpress	-14306
akrishna	-14307
bazaarin	-14308
consumer	-14309
odododod	-14310
vvvvvvvv	-14311
▁aabhari	-14312
▁ability	-14313
▁accompl	-14314
▁anamika	-14315
▁anukoni	-14316
▁attacks	-14317
▁branded	-14318
▁careers	-14319
▁cashpal	-14320
▁challan	-14321
▁compnay	-14322
▁contant	-14323
▁crashed	-14324
▁cropped	-14325
▁custmor	-14326
▁damages	-14327
▁dhokhad	-14328
▁dilwaye	-14329
▁excited	-14330
▁favours	-14331
▁flowers	-14332
▁growing	-14333
▁gwalior	-14334
▁healthy	-14335
▁jismein	-14336
▁kanchan	-14337
▁karakar	-14338
▁malpura	-14339
▁meaning	-14340
▁mesaage	-14341
▁moments	-14342
▁moneyso	-14343
▁pleased	-14344
▁porting	-14345
▁quoting	-14346
▁restart	-14347
▁sanjana	-14348
▁sathish	-14349
▁scaring	-14350
▁shashan	-14351
▁signing	-14352
▁supreme	-14353
▁suvidha	-14354
▁ujjivan	-14355
▁utkarsh	-14356
▁violent	-14357
▁walking	-14358
▁weather	-14359
athapuram	-14360
domaincom	-14361
hgmailcom	-14362
▁academic	-14363
▁aneydesk	-14364
▁assisted	-14365
▁bathinda	-14366
▁boarding	-14367
▁bothered	-14368
▁casually	-14369
▁codepytm	-14370
▁concerns	-14371
▁coverage	-14372
▁dawnload	-14373
▁designer	-14374
▁dilevery	-14375
▁exposing	-14376
▁familiar	-14377
▁giveaway	-14378
▁goodself	-14379
▁googlepe	-14380
▁gurpreet	-14381
▁harrsing	-14382
▁headquar	-14383
▁ifscpytm	-14384
▁indulged	-14385
▁insecure	-14386
▁locality	-14387
▁mattress	-14388
▁messeged	-14389
▁missused	-14390
▁narender	-14391
▁nogoogle	-14392
▁onlinetr	-14393
▁ordinary	-14394
▁paresaan	-14395
▁pertains	-14396
▁phonekbc	-14397
▁premises	-14398
▁pursuing	-14399
▁rajender	-14400
▁remitted	-14401
▁resisted	-14402
▁rewarded	-14403
▁shahpura	-14404
▁somthing	-14405
▁stickers	-14406
▁totaling	-14407
▁transmit	-14408
▁vacation	-14409
▁vaishnav	-14410
▁wireless	-14411
fashioncom	-14412
▁ayurvedic	-14413
▁challenge	-14414
▁classmate	-14415
▁collector	-14416
▁digitally	-14417
▁disagreed	-14418
▁distdausa	-14419
▁finencial	-14420
▁haresment	-14421
▁honorable	-14422
▁hospitals	-14423
▁huinpaise	-14424
▁indicated	-14425
▁interalia	-14426
▁kreditbee	-14427
▁marudhara	-14428
▁occasions	-14429
▁plateform	-14430
▁preparing	-14431
▁rameshwar	-14432
▁receieved	-14433
▁redirects	-14434
▁selecting	-14435
▁thretning	-14436
▁vodaphone	-14437
hanumangarh	-14438
▁codejaipur	-14439
▁dharmapuri	-14440
▁directions	-14441
▁encouraged	-14442
▁identities	-14443
▁influencer	-14444
▁lawabiding	-14445
▁projecting	-14446
▁researched	-14447
▁saharanpur	-14448
▁technician	-14449
▁uttrakhand	-14450
khangmailcom	-14451
▁blacklisted	-14452
▁cancelation	-14453
▁collections	-14454
▁dishonestly	-14455
▁distributed	-14456
▁disturbance	-14457
▁encountered	-14458
▁explanation	-14459
▁fingerprint	-14460
▁fraudulence	-14461
▁intimidated	-14462
▁pressurized	-14463
▁regulations	-14464
▁tourchering	-14465
▁transctions	-14466
guptagmailcom	-14467
▁embarrassing	-14468
▁throughpaytm	-14469
▁uttarpradesh	-14470
▁acquaintances	-14471
▁authenticated	-14472
▁sawaimadhopur	-14473
previewdomaincom	-14474
bv	-14475
dp	-14476
kj	-14477
oe	-14478
qs	-14479
rk	-14480
sm	-14481
vn	-14482
wh	-14483
xh	-14484
aaj	-14485
ako	-14486
apr	-14487
apy	-14488
att	-14489
boi	-14490
cts	-14491
etc	-14492
fgh	-14493
fol	-14494
hiv	-14495
iel	-14496
isd	-14497
isi	-14498
ito	-14499
itr	-14500
jaf	-14501
jej	-14502
jib	-14503
jiy	-14504
jot	-14505
kol	-14506
kun	-14507
mik	-14508
mul	-14509
nil	-14510
psc	-14511
pto	-14512
rem	-14513
rud	-14514
sum	-14515
uli	-14516
uls	-14517
une	-14518
vie	-14519
▁cd	-14520
▁ew	-14521
▁gf	-14522
▁iq	-14523
▁kv	-14524
▁nx	-14525
▁yt	-14526
▁zy	-14527
adha	-14528
aler	-14529
apay	-14530
aray	-14531
ayak	-14532
edit	-14533
fish	-14534
hyay	-14535
ifif	-14536
iser	-14537
ison	-14538
jhse	-14539
mala	-14540
nent	-14541
nter	-14542
omat	-14543
oods	-14544
oper	-14545
piya	-14546
pose	-14547
rata	-14548
same	-14549
scam	-14550
soon	-14551
tala	-14552
vesh	-14553
wash	-14554
ysis	-14555
▁apr	-14556
▁art	-14557
▁ble	-14558
▁bod	-14559
▁bok	-14560
▁cif	-14561
▁dol	-14562
▁dug	-14563
▁fat	-14564
▁idm	-14565
▁isa	-14566
▁jet	-14567
▁kel	-14568
▁kye	-14569
▁llp	-14570
▁mha	-14571
▁mng	-14572
▁mri	-14573
▁ner	-14574
▁nic	-14575
▁pok	-14576
▁rew	-14577
▁rot	-14578
▁smt	-14579
▁sop	-14580
▁tfr	-14581
▁utu	-14582
▁vak	-14583
▁vam	-14584
▁veg	-14585
allur	-14586
amani	-14587
ashop	-14588
haiya	-14589
hashi	-14590
iksha	-14591
isher	-14592
ithin	-14593
jfkld	-14594
jsjjs	-14595
lable	-14596
loved	-14597
malvi	-14598
ndent	-14599
odiya	-14600
onent	-14601
oogle	-14602
overy	-14603
yaraj	-14604
▁acid	-14605
▁afer	-14606
▁badd	-14607
▁bara	-14608
▁bean	-14609
▁bija	-14610
▁bpcl	-14611
▁btao	-14612
▁budh	-14613
▁chij	-14614
▁chle	-14615
▁clas	-14616
▁crim	-14617
▁deed	-14618
▁dhak	-14619
▁digi	-14620
▁dili	-14621
▁enve	-14622
▁fant	-14623
▁foji	-14624
▁ganv	-14625
▁gout	-14626
▁gunt	-14627
▁gupt	-14628
▁gyaa	-14629
▁honi	-14630
▁hood	-14631
▁inin	-14632
▁jyda	-14633
▁kayi	-14634
▁khte	-14635
▁kont	-14636
▁krap	-14637
▁kree	-14638
▁leti	-14639
▁maps	-14640
▁ming	-14641
▁mism	-14642
▁mtnl	-14643
▁mugh	-14644
▁obje	-14645
▁odar	-14646
▁pani	-14647
▁pett	-14648
▁pron	-14649
▁psch	-14650
▁qybl	-14651
▁sana	-14652
▁sbse	-14653
▁siad	-14654
▁stol	-14655
▁trxn	-14656
▁vyas	-14657
▁yaar	-14658
▁yesa	-14659
adhaar	-14660
charan	-14661
esbank	-14662
estyle	-14663
family	-14664
fortun	-14665
hacked	-14666
hacker	-14667
ingcom	-14668
inyurl	-14669
manish	-14670
medari	-14671
omeone	-14672
prajap	-14673
radesh	-14674
restar	-14675
threat	-14676
unnadu	-14677
worthy	-14678
▁ahuja	-14679
▁amrit	-14680
▁amunt	-14681
▁amzon	-14682
▁ayyai	-14683
▁befor	-14684
▁bipin	-14685
▁bonds	-14686
▁bunch	-14687
▁canot	-14688
▁cared	-14689
▁cheep	-14690
▁detai	-14691
▁dhand	-14692
▁diary	-14693
▁dinak	-14694
▁elegi	-14695
▁equal	-14696
▁erode	-14697
▁expir	-14698
▁fails	-14699
▁fayda	-14700
▁feels	-14701
▁frude	-14702
▁gourp	-14703
▁gulab	-14704
▁hames	-14705
▁hisar	-14706
▁inlaw	-14707
▁janne	-14708
▁jante	-14709
▁karat	-14710
▁karra	-14711
▁khati	-14712
▁khrab	-14713
▁kitno	-14714
▁labor	-14715
▁lapse	-14716
▁lunch	-14717
▁malay	-14718
▁memes	-14719
▁munda	-14720
▁nigam	-14721
▁nijam	-14722
▁parag	-14723
▁psram	-14724
▁pssha	-14725
▁recon	-14726
▁rehan	-14727
▁sahib	-14728
▁sayad	-14729
▁shaik	-14730
▁solli	-14731
▁taluk	-14732
▁threw	-14733
▁tiger	-14734
▁tutor	-14735
▁ukhad	-14736
▁utrno	-14737
▁villa	-14738
▁visha	-14739
▁wahan	-14740
▁waisa	-14741
▁walon	-14742
▁whome	-14743
▁wtsup	-14744
▁yahoo	-14745
hanuman	-14746
ilendra	-14747
kwealth	-14748
pecting	-14749
related	-14750
sations	-14751
someone	-14752
suchana	-14753
▁aadami	-14754
▁adders	-14755
▁affair	-14756
▁affili	-14757
▁ainadi	-14758
▁anydex	-14759
▁appbut	-14760
▁audios	-14761
▁banakr	-14762
▁banayi	-14763
▁befool	-14764
▁begged	-14765
▁bolata	-14766
▁calcul	-14767
▁chanel	-14768
▁chopas	-14769
▁church	-14770
▁crises	-14771
▁degree	-14772
▁demond	-14773
▁dhokhe	-14774
▁dought	-14775
▁entity	-14776
▁halder	-14777
▁harshi	-14778
▁holded	-14779
▁ishwar	-14780
▁jaenge	-14781
▁jankri	-14782
▁jaruri	-14783
▁jaunga	-14784
▁keypad	-14785
▁killed	-14786
▁landed	-14787
▁lights	-14788
▁linsha	-14789
▁mailer	-14790
▁mainey	-14791
▁majbur	-14792
▁mandor	-14793
▁nagara	-14794
▁namesh	-14795
▁nether	-14796
▁nicely	-14797
▁nitish	-14798
▁object	-14799
▁paisha	-14800
▁partap	-14801
▁paymen	-14802
▁pechan	-14803
▁rampur	-14804
▁reopen	-14805
▁saurav	-14806
▁shanti	-14807
▁shruti	-14808
▁sikkim	-14809
▁soniya	-14810
▁staffs	-14811
▁tender	-14812
▁towers	-14813
▁wining	-14814
jaipurps	-14815
krishnan	-14816
questing	-14817
redirect	-14818
reenshot	-14819
▁aashish	-14820
▁accound	-14821
▁acction	-14822
▁agropro	-14823
▁bachaye	-14824
▁behaved	-14825
▁bhanwar	-14826
▁caution	-14827
▁chander	-14828
▁chepthe	-14829
▁claming	-14830
▁courses	-14831
▁creator	-14832
▁dreampl	-14833
▁ethical	-14834
▁germany	-14835
▁illiter	-14836
▁improve	-14837
▁induced	-14838
▁institu	-14839
▁lagenge	-14840
▁madarch	-14841
▁maharaj	-14842
▁makrana	-14843
▁meghwal	-14844
▁modesty	-14845
▁monitor	-14846
▁muslims	-14847
▁muthoot	-14848
▁naukari	-14849
▁pahucha	-14850
▁pallavi	-14851
▁payable	-14852
▁produce	-14853
▁rainbow	-14854
▁ramganj	-14855
▁ratings	-14856
▁recomme	-14857
▁retrive	-14858
▁revenge	-14859
▁samples	-14860
▁scamers	-14861
▁seekers	-14862
▁senders	-14863
▁sulekha	-14864
▁tarvata	-14865
▁tonight	-14866
▁trivedi	-14867
▁vallani	-14868
dgmailcom	-14869
installed	-14870
▁abousing	-14871
▁abuseing	-14872
▁badarpur	-14873
▁canadian	-14874
▁catching	-14875
▁compalin	-14876
▁dedected	-14877
▁dhanipay	-14878
▁envelope	-14879
▁forcibly	-14880
▁grabbing	-14881
▁haldiram	-14882
▁horrible	-14883
▁incurred	-14884
▁insident	-14885
▁interval	-14886
▁kokoloan	-14887
▁likewise	-14888
▁masseges	-14889
▁outgoing	-14890
▁pannunga	-14891
▁pleading	-14892
▁protocol	-14893
▁quikrcom	-14894
▁rajsthan	-14895
▁sangeeta	-14896
▁shashank	-14897
▁srikanth	-14898
▁warnings	-14899
▁whatsupp	-14900
hagmailcom	-14901
idgmailcom	-14902
▁aggrement	-14903
▁bankkotak	-14904
▁bhupendra	-14905
▁cheyamani	-14906
▁chocolate	-14907
▁computers	-14908
▁container	-14909
▁defaulted	-14910
▁fulfilled	-14911
▁httpbitly	-14912
▁pandranga	-14913
▁practices	-14914
▁processes	-14915
▁receivers	-14916
▁reminders	-14917
▁reselling	-14918
▁resetting	-14919
▁retrieved	-14920
▁rupeestar	-14921
▁safeguard	-14922
▁secretary	-14923
▁srivastav	-14924
▁terminate	-14925
▁undressed	-14926
▁warehouse	-14927
▁whatsaapp	-14928
▁whatssapp	-14929
▁workplace	-14930
▁assignment	-14931
▁classmates	-14932
▁compliment	-14933
▁concerning	-14934
▁consulting	-14935
▁continusly	-14936
▁disbursing	-14937
▁fabricated	-14938
▁intimidate	-14939
▁namemukesh	-14940
▁netherland	-14941
▁performing	-14942
▁provisions	-14943
▁reasonable	-14944
▁recipients	-14945
▁recognised	-14946
▁signatures	-14947
▁supportive	-14948
▁television	-14949
▁vulnerable	-14950
▁accountthey	-14951
▁challenging	-14952
▁chestunnaru	-14953
▁holdreserve	-14954
▁termination	-14955
▁trasactions	-14956
▁brotherinlaw	-14957
▁discontinued	-14958
▁institutions	-14959
▁manufacturer	-14960
▁disrespectful	-14961
▁freelancercom	-14962
▁opportunities	-14963
▁precautionary	-14964
▁visakhapatnam	-14965
fashionsalescom	-14966
kumawatgmailcom	-14967
▁professionally	-14968
▁ramanathapuram	-14969
▁unprofessional	-14970
bf	-14971
ln	-14972
mw	-14973
xi	-14974
yg	-14975
ave	-14976
big	-14977
bon	-14978
cep	-14979
dfl	-14980
fox	-14981
fun	-14982
gmi	-14983
ich	-14984
kio	-14985
ldi	-14986
mei	-14987
mla	-14988
nin	-14989
[...]
